#version: 0.2
Ġ t
h e
Ġ a
i n
e r
Ġt he
Ġ s
o n
r e
Ġ w
e n
e d
Ġ o
Ġ c
a t
a n
Ġ b
Ġ f
i s
o r
e s
i t
in g
Ġt o
Ġ p
Ġ h
a r
o u
n d
Ġ in
Ġ m
a l
a s
Ġo f
Ġ d
Ġa nd
i c
l e
o m
Ġt h
i l
i on
i d
Ġ l
Ġ .
en t
Ġ n
Ġb e
v e
Ġ T
Ġ re
s t
a y
Ġ he
o t
Ġ g
o l
Ġ S
Ġ e
u t
a d
Ġ on
o w
a c
l y
Ġ A
a m
i m
Ġf or
u r
Ġ I
Ġ M
Ġ C
e t
i g
i r
v er
Ġ is
e l
Ġw as
t er
Ġs t
u s
r o
Ġth at
Ġw h
Ġ B
' s
e c
Ġ y
it h
ĠT he
l d
Ġw ith
il l
Ġ it
es t
Ġa t
Ġ H
Ġa s
r i
he r
Ġa n
u n
c e
at ion
Ġa l
â Ģ
Ġs a
Ġ P
c h
Ġ W
er s
o p
Ġh a
a g
e ar
u l
o s
an d
k e
Ġh is
Ġ r
Ġ '
t h
t s
Ġsa id
ig h
i f
Ġf r
a in
Ġ D
o re
Ġa re
Ġ 1
e m
ou r
Ġc on
Ġ L
Ġ F
Ġha ve
Ġ R
Ġ "
o o
Ġ 2
p p
Ġfr om
Ġc h
Ġs h
Ġ E
Ġb y
e w
Ġc om
Ġ N
Ġh as
c t
Ġ G
ou ld
re s
Ġ v
Ġhe r
0 0
at e
es s
Ġ le
en d
Ġn ot
Ġ J
Ġw e
Ġe x
Ġs u
t ed
a b
Ġ O
g h
al l
âĢ Ļ
Ġs e
Ġy ou
Ġp ro
igh t
Ġd e
it y
om e
Ġ u
as t
s e
i ve
u m
u st
Ġ j
ac k
Ġs p
i es
u d
r a
is t
Ġw he
ar d
Ġa b
Ġw or
Ġo r
Ġh ad
Ġthe y
Ġ k
a k
er e
r ou
Ġp l
Ġwh o
ou t
ar t
o c
i v
Ġthe ir
or t
m ent
Ġ U
ic e
Ġa f
a re
q u
ic h
Ġs he
an t
o st
Ġw ere
g e
el l
Ġd o
Ġb ut
u re
id e
Ġw ill
Ġc an
Ġ -
a p
Ġbe en
r y
Ġo ut
on e
Ġc l
Ġth is
i al
Ġaf ter
on g
Ġy ear
ag e
ou n
Ġ âĢ
Ġ K
Ġ us
b er
Ġof f
e p
ow n
i e
Ġg o
ay s
Ġu p
ou s
Ġp e
op le
o d
im e
c c
i a
Ġn e
as s
Ġm an
oo d
in e
t her
f f
Ġ un
Ġa d
an s
ion s
' t
am e
Ġal l
a ke
ver y
Ġm e
Ġab out
Ġon e
Ġm ore
Ġa g
Ġwh ich
ĠC h
Ġ (
al ly
Ġpe ople
d ay
ĠI n
ec t
m er
i re
Ġin t
or d
Ġwhe n
il d
oo k
ac e
T he
in d
Ġ Ġ
ol d
ĠS t
s o
Ġt r
ĠH e
Ġre s
ar y
p er
at ed
u b
Ġ2 0
Ġp r
u e
p l
Ġt w
Ġw ould
ĠâĢ ĺ
Ġs o
a il
Ġbe c
i ke
ic t
ol l
re n
en ce
Ġh im
p t
Ġin c
i le
a v
os e
is h
Ġal so
est ion
ou nd
on d
Ġ im
Ġcon t
a us
Ġo ver
it e
i an
Ġa r
re e
Ġt e
Ġthe m
Ġth an
k s
ĠI t
ĠT h
Ġ en
Ġcom p
i p
Ġd is
Q u
o g
, "
ot her
ig n
Ġt ime
u c
Ġo ther
v en
Ġk n
Ġm y
ou gh
Ġs c
. "
res s
Ġn ew
oun t
Ġf ir
o y
id ent
r it
Ġtw o
Ġp er
Qu estion
an g
ac t
Ġint o
k ed
ac h
Ġre p
i b
k ing
re at
Ġat t
Ġ20 1
he d
Ġthe re
n e
n g
Ġl ike
Ġ Y
Ġs ome
Ġa pp
Ġa cc
Ġc ould
o ol
m an
Ġp ol
if e
i z
. '
Ġre c
Ġj ust
Ġyear s
Ġfir st
Ġ V
or s
v ed
aus e
f t
n ing
ad e
o b
Ġp art
ation s
Ġ 3
r u
Ġg et
at er
Ġit s
ab le
Ġ1 9
ent s
Ġwh at
Ġ ro
an ce
o ve
ic k
Ġp re
il y
Ġch ild
Ġ qu
ic al
f ore
ĠM r
ul t
ĠW h
ing s
Ġf am
rou nd
as e
Ġ- -
nd er
ve l
ĠB ut
en s
Ġb l
Ġto ld
a w
Ġd id
is s
i ed
or m
am p
Ġl ast
Ġn o
Ġan y
Ġb r
ar k
x t
at h
Ġb ack
o k
an c
Ġy our
t e
Ġpl ay
Ġc ar
Ġf l
ur n
l and
Ġhe l
i ous
Ġbe fore
Ġf e
ĠU n
Ġsh ow
at es
Ġin ter
on s
or y
ver s
w n
it ion
Ġd own
Ġg r
Ġ if
Ġag ain
rou gh
f er
Ġbec ause
Ġa ct
ur ing
t ing
Ġa m
00 0
Ġin v
Ġst ud
Ġn ow
Ġon ly
Ġd es
Ġh ome
Ġs er
Ġh ow
ch ool
h ing
Ġbe ing
Ġd ec
Ġim p
Ġs ay
Ġwe e
ĠA l
Ġwor k
Ġu nder
o in
ĠS he
Ġp h
Ġs ec
Ġc all
Ġm ost
Â ł
it ed
Ġm on
al s
en c
Ġf ound
l ud
w e
at her
ri end
Ġhel p
Ġl ook
Ġs ays
Ġo ur
Ġc r
Ġ 4
Ġbe t
a u
he n
in k
v ing
ub l
Ġwhe re
Ġd ay
Ġre m
Ġman y
ak ing
ĠN ew
Ġ very
Ġoff ic
Ġc ount
Ġcom m
Ġw om
u ch
in ce
re d
Ġinc lud
o ver
Ġe very
Ġm ake
Ġm ade
Ġth ree
f ul
y ear
Ġbe l
Ġs ur
Ġex p
Ġ2 00
ar g
Ġad d
Ġse e
Ġkn ow
Ġs m
ill ion
ation al
Ġ 5
s s
i er
el f
Ġfam ily
Ġwor ld
Ġc ent
le ct
is e
u nd
, '
Ġs chool
Ġe ar
Ġl ife
o ot
a ir
ter s
it ies
p h
Ġchild ren
Ġb u
Ġthe n
Ġne ed
t on
os s
u p
at ing
er ed
Ġe ven
Ġmon th
ou se
Ġth rough
mer ic
Ġwh ile
Ġpol ice
Ġ Â
t le
ri b
Ġa w
Ġm ay
ure d
ĠA nd
Ġo wn
t y
Ġd uring
h n
ĠF r
l es
l ed
Ġa c
Ġf riend
ubl ic
Ġre l
Ġd if
ers on
Ġw ay
I t
ow ing
ĠL e
Ġwee k
ĠThe y
Ġe v
Ġ ke
Ġd on
Ġc our
he s
Ġl ong
Ġe m
em ber
Ġt ake
op e
ĠA meric
Ġcon s
Ġa round
Ġf in
Ġsh ould
Ġ $
ĠA n
ĠÂ £
Ġin s
s on
ord ing
at ch
ĠA f
b le
Ġagain st
Ġm in
Ġin f
Ġg ood
as ed
au gh
g an
Ġsu pp
are n
Ġp res
or n
ĠA r
it al
Ġm uch
Ġha pp
Ġst ar
Ġ 6
v es
g g
a ve
om et
i x
im es
u es
is ts
Ġle ft
ir l
Ġw ell
Ġf oll
a im
N N
are d
Ġin d
Ġle ad
Ġt ri
Ġp ass
ĠM ar
Ġc ol
al th
rou p
u res
ĠW e
r ic
W e
Ġre g
Ġbel ie
Ġh and
n ed
ĠS c
Ġ end
an y
ĠB rit
Ġpl an
or k
Ġre t
Ġst r
. .
ĠS p
Ġde f
od y
n ment
t en
Ġsu ch
Ġf our
as h
m s
Ġth ough
ul ar
u al
ot h
iv es
Ġrep or
in es
Ġk ill
s h
Ġs et
i ew
Ġus ed
Ġst ill
Ġh igh
a h
Ġw ar
ter n
ou th
Ġth ink
m ed
w ard
Ġth ose
ec ted
Ġcl aim
Ġw ant
d er
ĠE ng
l l
we en
Ġas s
a z
Ġc o
an ge
ĠC on
Ġt ra
Ġte am
in a
le g
Ġgo ver
ul l
Ġgo ing
al e
e ver
Ġg u
ol og
oc k
Ġo p
Ġm ed
ĠB r
Ġhe ad
Ġm other
o v
em ent
Ġp erson
Ġg roup
Ġbet ween
ut h
am es
Ġf ind
Ġyou ng
it s
n er
ow er
as on
Ġs ince
Ġm il
Ġn um
an ts
ib le
one y
c er
Ġt er
Ġcount ry
. âĢĻ
Ġl aw
Ġn ear
Ġp ut
Ġthe se
ĠS h
Ġw in
i el
t ain
Ġr ight
Ġres p
i vers
Ġdis c
Ġdo es
et s
ad y
Ġus e
us s
Ġb us
c ed
is ed
Ġ1 0
ĠJ o
os p
Ġc he
en e
r am
ĠTh is
d u
Ġs ign
i ent
ro ss
Ġ 7
ĠUn ited
u g
u ally
Ġatt ack
Ġcall ed
Ġw r
ĠA s
Ġn ight
Ġm ar
Ġs y
Ġde ath
Ġex per
Ġt ak
i o
Ġd ri
s elf
ur y
Ġl oc
ĠR e
Ġcon f
Ġv is
Ġs l
ne y
Ġs omet
en ed
Ġr un
Ġgover nment
n ess
Ġdif fer
on t
Ġinv est
Ġc ap
Ġc are
ic s
Ġto ok
Ġne ver
Ġp ict
Ġs ame
r al
Ġsec ond
l ing
Ġh our
g et
a x
Ġd et
Ġl it
b s
Ġfe el
is ter
g er
Ġc le
Ġo ld
Ġp ublic
Ġne xt
Ġ ent
Ġinclud ing
Ġoffic ial
ag es
Ġg reat
Ġd ays
Ġb ig
iv ing
Ġto o
Ġan other
ot e
Ġg irl
Ġg ot
an k
b r
T h
Ġaw ay
Ġv ide
le y
ĠH ow
Ġl ater
a pp
en er
ĠĠ ĠĠ
Ġa ir
H e
p r
Ġb o
Ġwom en
Ġex t
Ġb est
Ġ _
Ġe ff
ĠA t
Ġcom e
Ġw ent
p le
ĠWh at
or th
ut e
ĠI s
Ġle g
at ive
ic es
Ġc ame
Ġsp ec
Ġcont r
Ġt al
Ġsp e
i et
Ġacc ording
d uc
ur s
Ġpr ot
Ġm em
E D
Ġf ive
Ġpl ace
ĠC l
Ġt ry
S T
re t
s ide
b ers
Ġm oney
t he
Ġre f
ĠCh r
Ġ 8
uth or
am a
ond on
h ip
Ġb re
Ġp op
ment s
uc k
ĠF or
ar ge
Ġs ent
Ġcont in
Ġd r
is ion
ĠW hen
ire ct
Ġp aren
Ġm illion
Ġs k
Ġb oth
Ġre al
Ġbe h
. ,
st er
Ġst at
y s
Ġe ach
Ġfor mer
Ġf ar
h am
Ġf il
Ġp ar
Ġw ater
il ity
Ġh ouse
ir d
Ġc re
v ice
Ġpro v
ĠO n
i ver
Ġm en
ĠL ondon
ĠP r
Ġ Z
if ic
Ġcour t
w ays
om m
in ess
Ġhe alth
ire d
Ġm et
' re
at ur
in s
l ine
ĠâĢ ĵ
ut ion
Ġnum ber
ĠE ST
Ġf ather
Ġdid n
Ġre st
osp ital
Ġ1 8
Ġl ot
is on
re st
Ġ 9
Ġvide o
Ġre ally
m in
igh ts
Ġmonth s
iv ed
Ġf ew
ear ch
Ġb oy
a j
Ġpro ble
pt ions
al f
re m
Ġex pl
e x
vel op
Ġc ity
us ed
Ġde p
Ġ201 3
ĠThe re
Ġsu b
Ġke ep
Ġph ot
Ġto day
Ġp oin
i ence
Ġf ood
ĠM on
Ġin st
Ġg l
Ġfoll owing
Ġse en
Ġb ook
Ġtr ans
Ġst ate
Ġinvest ig
ĠP ol
Ġs im
and s
Ġp ay
b y
ain s
ĠB e
Ġsomet hing
or ts
Ġle ar
ivers ity
th ing
id ay
Ġst op
Ġv ict
Ġt urn
Ġwom an
os ed
ri ed
ain ed
Ġto p
i am
Ġdiffer ent
Ġnew s
Ġs it
Ġth ings
ĠJo hn
Ġc amp
Ġp ost
Ġre le
Ġlit tle
t il
Ġrep ort
Ġadd ed
Ġs oc
Ġj ob
Ġre ce
Ġfriend s
ct ion
Ġle t
ĠI f
Ġc ur
Ġm o
Ġper f
Ġw al
Ġan n
Ġh um
Ġ1 2
Ġin j
Ġs ix
Ġparen ts
ot t
Ġh ard
Ġbu ild
ĠW or
ĠD e
Ġtak en
Ġas ked
Ġse ver
Ġthough t
ĠO b
ĠE ur
Ġm us
ĠC NN
c es
an ted
id ed
Ġc ase
b all
c on
Ġt est
Ġimp ort
Ġd irect
B y
st em
Ġre ad
c ent
is hed
Ġm iss
Ġde velop
Ġstud ents
Ġsm all
ĠM c
Ġf oot
Ġrepor ted
ĠC ar
Ġpre v
iel d
Ġs w
Ġd ied
Ġhour s
Ġal ways
is m
Ġl ess
Ġp oss
Ġ1 5
ri v
Ġb ody
Ġal leg
Ġwith out
ent ion
Ġaf f
ag ue
Ġt ell
Ġm od
Ġrec ent
Ġf ac
c hed
Ġpro g
ĠO ne
ĠAmeric an
ĠY ork
augh ter
enc y
Ġa uthor
Ġm ove
e e
' m
a id
ĠY ou
on y
Ġp at
ĠS outh
ec ts
Ġun til
Ġe lect
Ġch arg
t o
i k
ri es
Ġw ife
Ġ201 2
Ġcomm un
ak es
ĠB ar
Ġis s
ĠChr ist
Ġsupp ort
Ġt imes
Ġst art
iv en
Ġs on
er ing
Ġcl ass
o ber
ĠB l
ĠWor ld
iz ed
en se
Ġret urn
Ġsy stem
Ġman ag
Ġbec ome
Ġar t
at s
Ġtra vel
ĠBrit ish
Ġg ive
Ġf ace
ĠO ptions
l ish
Ġ ed
Ġse x
b e
ec ut
ĠOb ama
Ġw rit
n es
) ,
Ġag o
c om
Ġcomp any
ial ly
re en
Ġof ten
on es
Ġcomp le
g y
o or
ĠD av
Ġbet ter
ow ed
en g
us p
Ġf act
Ġsp ok
es p
ĠR ep
ĠA ust
Ġ ve
Ġst and
ĠM ay
Ġar rest
Ġhe re
Ġl o
ren t
pp ed
Ġrec ord
Ġkill ed
Ġinc re
ate ly
Ġkn own
u ed
Ġd ist
Ġo pp
Ġc ou
Ġg ame
ĠEur ope
Ġmil it
he l
ain ing
Ġinf orm
e le
Ġop en
m it
y ing
a ff
Ġimport ant
en n
Ġcon d
ĠI nd
Ġc ost
ro p
Ġw on
el s
Ġm or
an e
v iew
cc ess
Ġd el
ĠS y
ut es
Ġ Q
Ġab le
ass age
end ing
Ġp ast
c o
an n
c k
Ġm ust
Ġha ving
Ġm ain
Ġpres ident
Ġ Question
c l
ĠEng land
p ort
Ġ1 1
I S
Ġm ight
Ġapp ear
Ġs ide
Ġd em
- -
Ġdes c
Ġbus iness
Ġad v
is ing
' ve
Ġinter n
ĠT w
i or
her s
Ġch ar
Ġsu ff
te xt
P assage
Ġ ,
Ġs usp
Ġpol it
Ġh ospital
Ġo per
ow s
Ġear ly
Ġl ove
id d
Ġare a
ĠG er
res ident
Ġa v
ĠCon text
Ġstar ted
Ġvis it
Ġg ener
Ġse em
Ġo b
ĠAf ter
Ġp ower
am er
ru g
id ence
Ġpr om
Ġac ross
aj or
ur ity
ar s
Ġl ive
art ment
Ġf ire
i ol
j ect
he re
end ed
am ed
Ġb ro
ard s
Ġse ason
re et
ĠC ity
Ġcl ub
Ġal ong
Ġwor king
c ess
ĠS und
Ġf ore
ĠTh at
Ġw anted
y p
Ġinv ol
g ed
Ġh alf
Ġsay ing
Ġp os
Ġh it
Ġg iven
f ic
Ġhis t
Ġcle ar
pl oy
Ġme et
in al
at ic
Ġe as
Ġn ame
ĠW est
Ġro om
re ady
Ġsu ccess
Ġre qu
ĠCh ina
Ġch ang
Ġbelie ve
Ġc er
og ra
Ġ ide
ĠSund ay
ĠH er
Ġinter est
ce pt
i ans
Ġd aughter
ĠH ar
a f
Ġc aus
Ġwor d
at ter
Ġan im
Ġf ail
ĠU K
l ess
ie f
ĠS o
iz e
Ġ3 0
Ġbe gan
Ġsa f
Ġ19 9
m y
Ġm aking
A T
Ġother s
Ġsa w
ec hn
Ġus ing
Ġde al
5 0
over ed
ĠPol ice
Ġpro f
Ġbec ame
Ġ est
ĠM in
ĠA d
un e
o ke
Ġsever al
Ġk id
Ġsh ot
Ġs ing
m ost
Ġal ready
Ġch ange
ĠP resident
ĠUn iversity
Ġre ve
ĠSt ates
as es
m ing
' .
ĠH is
Ġl arge
C NN
a it
e al
Ġdo g
I n
Ġout side
at ure
um p
Ġdes ign
ĠAust ral
r or
Ġcl ose
Ġstud y
Ġde ad
Ġmem bers
Ġloc al
ĠMon day
Ġprog ram
b and
Ġm om
Ġf ree
Ġvict im
a ut
Ġk ind
olog y
ĠT r
ĠP h
r ation
re w
ĠC ol
Ġj oin
Ġcons id
Ġe y
Ġm ajor
Ġen ough
Ġ1 6
Ġt reat
ect ion
Ġh old
ion al
Ġle ast
Ġt aking
Ġm ur
Ġe ver
ar ing
Ġdesc rib
Ġcon cer
Ġinform ation
Ġfor m
Ġs n
ĠR uss
Ġto get
Ġtoget her
Ġh ot
ĠN orth
l ier
at t
Ġv iol
a ign
Ġst ay
con om
Ġpart ic
Th is
st and
Ġw atch
Ġr a
Ġp ain
Ġor gan
el t
if ied
Ġv iew
ĠFr iday
Ġl ost
a ul
r oll
Ġm ark
Ġs old
ĠJ an
w ay
Ġf un
' ,
Ġev ent
ĠP ro
ues day
ap er
ĠM iss
Ġwhe ther
al es
ĠHow ever
ĠAl l
Ġmor ning
Ġsh ort
ĠU S
Ġwee ks
ĠT uesday
Ġt re
ep t
Ġbeh ind
Ġe l
ĠEng lish
Ġspok es
Ġc oun
Ġd rug
Ġf ight
Ġf ull
er n
g in
ore d
e b
er v
Ġsu m
a un
Ġofficial s
Ġ1 7
Ġst ri
us band
Ġ 0
Ġwh y
Ġcou ple
Ġcur rent
us e
Ġp ress
Ġstat ement
Ġsh op
ĠA b
Ġam ong
Ġhe ard
Ġl and
a i
Ġa ge
Ġc ele
enc es
ĠAf ric
Ġmin utes
Ġb ab
ag ed
ĠDav id
Ġh om
ab ly
Ġr is
Ġdo ct
ap e
Ġsu gg
Ġon ce
ĠG e
ious ly
or ies
Ġpro duc
re am
Ġshow s
Ġl ist
ĠC omm
Ġreve al
ĠW ed
ĠF l
Ġc ut
ic ally
Ġalleg ed
ĠS atur
Ġle vel
Ġfr ont
Ġmilit ary
ĠA m
Ġcamp aign
Ġ1 4
ĠW ill
Ġhe art
Ġa p
Ġo cc
Ġt echn
ur ch
e ad
Ġ1 3
ĠSatur day
Ġm ess
Ġlike ly
Ġe conom
Ġc ust
he ad
s el
Ġh usband
i um
Ġc rit
Ġspec ial
Ġlook ing
Ġtry ing
The y
Ġte ac
ĠG r
ĠC o
ĠS u
Ġhum an
nes day
ro om
ĠLe ague
ĠWed nesday
S he
Ġdo ing
b ook
ĠS ec
as ter
ĠD r
o on
P D
Ġth ing
id es
B ut
ĠIn tern
est s
Ġr ul
ines e
Ġhe ld
ĠC up
u ary
ĠS e
us h
Ġsoc ial
Ġann oun
Ġbre ak
ff ic
Ġpro per
at ors
m p
Ġf all
th ough
er al
Ġl ives
r ight
Ġhim self
Ġpart y
le t
ĠJ u
Ġstr ong
ĠMr s
Ġt ax
Ġc or
Ġj ud
ĠBrit ain
r ow
ĠC ent
du ct
Ġmus ic
Ġwr ote
r on
Ġph one
j oy
Ġcon v
at or
Ġrele ased
Ġg un
Ġw ind
ec h
2 0
ĠTh urs
anc es
Ġal most
Ġth reat
ress ed
Ġinc ident
ra w
Ġbl ack
Ġget ting
Ġb ad
fic ult
ĠThurs day
ut ure
Ġpict ured
Ġpr ison
Ġb an
ĠA cc
un g
ĠS ome
Ġp le
ĠP ar
a el
ĠC our
Ġd one
The re
Ġar ri
es ter
Ġf ur
Ġw ear
ward s
ĠGer man
Ġapp ro
Ġ |
Ġcount ries
Ġth ird
ĠCh inese
Ġpop ular
Ġsec urity
anc he
ĠD ec
Ġcele br
Ġcom es
ac ed
Ġdif ficult
Ġch o
Ġsome one
Ġact iv
Ġst ory
Ġcontr ol
al d
ĠH ouse
Ġpoin t
al if
Ġcomp et
Ġg ave
ĠE d
Ġl ight
) .
es c
B C
Ġd i
Ġg round
Ġmed ia
ĠM ich
Ġrel ations
re ed
s w
in ed
W h
Ġl iving
Ġro ad
Ġme an
, âĢĻ
Ġplay ers
Ġl ate
Ġ ident
ang er
igh b
ail y
ĠN o
Ġen joy
ĠM s
Ġfin al
ac y
Ġf uture
ĠG u
Ġp riv
o f
ĠJan uary
le ep
AT ED
Ġdoes n
s p
Ġen g
u ge
r ing
ir th
ĠU PD
ĠN ational
ĠUPD ATED
qu e
in c
Ġto wn
ill s
sel ves
Ġclaim s
a ur
Ġor der
it ions
her n
Ġe qu
Ġh ope
Ġs ol
as hing
Ġser vice
ĠW ar
B L
ĠAmeric a
Ġproble m
av ing
Ġatt em
Ġe ight
Ġst ru
ĠT V
' ll
Ġcom pl
l er
Ġsp ent
Ġ201 1
Ġe mer
ac es
Ġbr other
Ġle ave
IS H
Ġear lier
e y
Ġarrest ed
ĠS ept
Ġmur der
Ġb as
Ġsu re
3 0
e ared
Ġb ed
U BL
Ġd am
Ġoff ice
Ġse ven
ISH ED
UBL ISHED
Ġqu ick
Ġgr and
g o
ist an
Ġon line
Ġexp ected
ĠC r
Ġper cent
Ġdec ision
b ed
Ġposs ible
Ġlear n
Ġfoot ball
Ġpol ic
Ġspokes man
ap s
Ġtri ed
ĠGe or
Ġtr ad
ĠP UBLISHED
Ġt yp
ĠD ep
Ġem ploy
st it
Ġ2 5
Ġsh oot
Ġfil m
Ġex c
Ġde b
Ġhist ory
ĠO r
Ġf ell
Ġhapp ened
ĠCour t
Ġbr ing
Ġqu estion
o x
en al
Ġproble ms
Ġst aff
c hes
Ġp ot
Ġl aun
e ople
ĠSept ember
oc i
Ġm akes
it ter
al y
m illion
Y ou
et er
Ġpro cess
ang u
en ing
m ber
in king
n ot
Ġme ans
Ġoffic ers
Ġev idence
ect ive
Ġd ue
ren ch
ĠAcc ording
o le
idd le
ar m
f ord
id ge
ĠM y
? "
ĠO ct
Ġgo al
oc r
ul ts
Ġlook ed
Ġres ult
Ġins ide
ul ation
p ar
Ġwith in
iss ion
I f
ough t
Ġcol le
Ġre d
pt ion
it ive
e v
r an
Ġh ig
Ġcol lect
ort un
Ġfam il
Ġl ine
Ġne ighb
Ġv al
il ar
ur g
Ġb all
Ġclaim ed
ĠA ug
ĠM an
ove mber
Ġh op
iet y
Ġb irth
Ġn ational
al ity
ĠMar ch
Ġcour se
ĠF ace
e f
Ġintern ational
Ġl ed
Ġ5 0
Ġunder stand
c il
w h
ĠJ une
g r
Ġrece ived
Ġimp ro
ogra ph
Ġs ite
Ġed uc
s y
Ġinter view
Ġad mit
Ġbab y
ĠDec ember
Ġany thing
c le
ĠC an
ĠN ovember
anche ster
Ġpres ent
ir on
Ġst ore
Ġbuild ing
Ġw ait
Ġto t
Ġhapp y
ot s
ĠSy ri
ĠOct ober
ĠSc roll
Ġso on
Ġte en
ĠAug ust
ĠE l
Ġpolit ical
Ġt em
Ġreveal ed
Ġh ost
Ġm ag
ĠRep ublic
Ġbu y
Ġcomm it
Ġsum mer
f or
Ġturn ed
Ġwe bs
amp le
ĠP ark
Ġm id
Ġl ab
Ġan t
ester day
Ġinvestig ation
ĠFace book
Ġplay ed
Ġexper ience
Ġre pl
Ġh ol
ens ive
Ġ1 00
Ġ2 4
ĠS m
Ġauthor ities
Ġb ene
Ġcomple te
ĠS w
Ġb ar
v ices
y le
pr il
augh t
i ents
om b
rough t
Ġide a
Ġbl ood
Ġf av
ra z
om p
Ġ19 8
1 0
ound s
Ġcer tain
ĠM ail
Ġf elt
Ġ201 0
ĠJ ack
Ġdec ided
ĠW ith
in ation
Ġy et
ĠD em
Ġen c
Ġres earch
ĠWill iam
ĠA ng
Ġfur ther
Ġcomp ut
ac hed
Ġf ig
Ġbelie ved
Ġwr ong
Ġto ur
ĠA pril
ĠF rench
Ġsc ient
Ġwor ked
ĠJu ly
ĠP l
Ġm atch
Ġkn ew
Ġm ot
Ġor d
Ġsu per
Ġrelations hip
Ġte le
Ġch all
Ġc ult
Ġd en
Ġj our
d en
Ġl ow
Ġnot hing
Ġs ell
i ec
rem e
ĠE ar
ĠC ount
re ad
Ġcust om
ail s
Ġinvol ved
Ġplay ing
il t
Ġl angu
ĠP al
ic le
Ġpro b
Ġf und
ĠM anchester
Ġsugg est
Ġstud ent
ĠSt ate
k er
Ġkid s
Ġd ou
Ġst ep
Ġcommun ity
ĠMich ael
Ġl im
ĠE x
Ġcar ry
Ġresp ons
ĠA ss
p ted
an a
Ġan sw
Ġprof ess
u ation
Ġword s
l am
ĠT o
l o
Ġhand s
n s
Ġact ion
Ġacc used
ĠCh ar
ip s
Ġmark et
Ġt it
it ness
Ġbe aut
iv il
Ġ4 0
Ġ2 1
' d
Ġn et
Ġs leep
Ġthem selves
Ġg ames
i pp
Âł Âł
Ġs qu
f riend
id ing
Ġl arg
ĠS er
p or
Ġr an
Ġwh ite
Ġmil es
Ġs our
Ġ ill
Ġor ig
Ġth ous
Ġmom ent
Ġf ans
le x
le ft
t ime
Ġdescrib ed
Ġspe ak
Ġtr aining
i ber
ap an
Ġwas n
Ġris k
ĠR o
Ġinclud e
ĠSt e
it her
st r
at tle
i od
Ġdes p
et y
se a
Ġneed ed
i j
Ġshow ed
Ġcharg es
ent ial
Ġex ample
Ġgr ow
ed eral
ĠJ ust
Ġd est
Ġtal k
alif orn
Ġmanag er
Ġpro s
Ġcom ing
if t
Ġb rought
ut ed
Ġevery thing
amp ions
in t
Ġb it
Ġtri al
Ġtri p
âĢĻ .
Ġro le
Ġ ri
Ġar g
Ġsim ilar
om an
Ġe at
Ġv ol
Ġr ad
Ġlead ers
Ġconf ir
p ed
Ġte xt
Ġbe gin
Ġt arg
und red
ĠWh ile
oc um
Ġanim als
Ġc ause
ĠP aul
Ġsp ace
ad es
Ġcaus ed
Ġj ail
ĠWh ite
ĠJ ames
m e
Ġv ar
Ġter ror
m as
ac ter
Ġpr act
Ġpartic ular
Ġn ation
Ġoffic er
ĠG l
ashing ton
ĠC aliforn
Ġnear ly
Ġs earch
et h
ear c
ition al
at a
ĠE m
or ing
Ġcharg ed
Ġdet er
ĠEurope an
Ġh or
ĠJ apan
ĠF eb
Ġ [
av y
Ġn ec
w ork
a ult
ĠAustral ia
Ġpass age
ĠH am
Ġinf l
enc ed
Ġ i
er c
Ġser ies
Ġgirl s
Ġdis e
Ġsur v
is ted
med i
Ġim m
Ġd anger
ĠK ore
du ce
er ry
Ġ201 4
Ġf ear
Ġs at
es e
Ġd ro
Ġleg al
Ġre ason
Ġmo ved
ru ary
Ġfamil ies
Ġapp eared
Ġfor ward
Ġy esterday
ĠM e
Ġmed ical
Ġwebs ite
Ġcont rib
ic ted
ĠK ing
as ing
Ġcontin ue
ĠCaliforn ia
Ġc reat
Ġsur pr
un t
Ġdirect or
Ġc over
ful ly
Ġrep res
Ġins p
z e
Ġcan cer
ĠA pp
ra q
Ġsc ene
r ict
Ġcomm on
ĠS am
Ġch ance
ĠFeb ruary
ĠA ir
v iron
n al
op s
Ġs elf
Ġevery one
Ġ X
n a
Ġn amed
Ġper iod
Ġlead er
n ers
os ing
Ġdesp ite
Ġa head
Ġp ubl
Ġh uge
Ġind ust
Ġser ious
Ġare as
Ġs un
p ool
Ġcom ment
ĠN ow
W hen
Ġplay er
Ġsp ot
Ġfam ous
ĠDep artment
Ġrecent ly
ĠM art
Ġp aid
Ġw ants
u it
Ġdis app
g ency
ĠWh ich
Ġr ights
Ġpro p
Ġph ys
Ġcap t
Ġdo or
ĠI raq
or ney
Ġwh ose
Ġ2 2
Ġrepor ts
ent ly
Ġf oc
Ġc amer
Ġlong er
iv al
Ġperson al
u ff
ic o
Ġr ather
Ġcon n
Ġpl ans
Ġm ass
ra ft
ir c
Ġcould n
Ġve h
Ġsp end
Ġacc ident
ĠMin ister
ret ary
ent al
Ġbene f
Ġ er
Ġd ocum
Ġb ased
Ġa ut
i ers
h ood
s c
Ġme as
Ġneed s
ĠN e
k n
Ġannoun ced
iv id
Ġpre p
ver age
r ay
Ġpict ure
Ġfe at
Ġm ind
ĠChrist mas
er gy
ĠFr ance
ĠS chool
er y
Ġtot al
Ġgroup s
Ġav ail
Ġwho le
Ġcare er
ĠR oy
Ġfor ced
p ing
Ġtreat ment
Ġv ot
u el
o id
ĠCount y
ĠE ast
ur ies
Ġhelp ed
Ġch ief
ĠNew s
Ġrem ember
Ġ200 9
Ġt en
Ġb ur
viron ment
Ġ19 7
ĠM or
a ud
ĠThe n
Ġim medi
ĠTw itter
Ġc al
og n
fer ence
Ġact ually
ĠS en
ĠW ashington
Ġadmit ted
Ġde ep
Ġcl ot
Ġc ell
Ġb orn
ent ed
Ġrun ning
ra el
in o
ict ured
ly ing
Ġquick ly
Ġp air
ĠM ad
Ġp ri
ĠD ay
Ġtr ain
ord er
Ġs en
oc ked
ĠM o
or man
Ġd iv
Ġres ident
Ġex am
Ġex ecut
Ġm ov
k y
Ġpriv ate
ĠĠĠĠ ĠĠĠĠ
Ġsaf e
Ġiss ue
Ġc ivil
ĠM ed
* *
Ġcl im
Ġstru gg
Ġl at
Ġthous ands
Ġweek end
y n
Ġacc ess
r act
Ġdisc overed
Ġdec l
Ġey es
ain e
Ġcond ition
o ff
l ike
Ġbo x
is es
Ġfor ces
Ġm atter
ĠB y
o es
Ġwor ks
.. .
ow ers
ir t
Ġdef end
ĠM any
n y
Ġteac her
Ġp iec
Ġhow ever
Ġh on
Ġall owed
l im
ĠAmeric ans
on a
ĠM il
Ġ2 3
earc hers
Ġh undred
Ġexp ect
Ġwal k
Ġschool s
ib ility
Ġany one
Ġc ases
ĠM us
f orm
b o
ad ed
Ġcan not
Ġbr ain
ic ation
Ġprov ide
il ty
Ġwork ers
Ġtak es
iz ation
Ġavail able
Ġ z
ĠAfric a
ĠH ol
Ġprob ably
it ing
w ood
Ġlangu age
Ġp oor
ĠR ober
Ġsing le
Ġc oll
Ġne g
Ġ esc
ĠQ ue
Ġbe at
Ġtr ack
Ġtr ue
Ġfor ce
av es
ĠPh il
er t
Ġm ember
Ġh ur
Ġperf orm
Ġc ross
Ġre ach
6 0
Ġen ergy
v ision
st on
O n
iver pool
ur al
id a
is c
ĠT e
Ġcomp an
ir st
min ist
Ġvictim s
ĠIs rael
Ġarri ved
Ġ200 8
Ġa verage
ar a
ĠR ich
Ġin it
" .
ĠM ark
Ġn ine
Ġf ield
if ul
ĠGeor ge
ly mp
Ġr ace
Ġacc ount
Ġjud ge
Ġt ro
f ield
Ġst reet
es tern
ĠC hel
ĠR es
ep end
Ġlat est
Ġfail ed
Ġbec om
Ġst ation
Ġsuff ered
Ġw at
Ġhe ar
c ast
ec ially
Ġus ually
Ġcon st
et t
Ġeduc ation
Ġapp l
Ġbo ard
re g
Ġqu ite
it ch
m a
Ġrem ains
l in
Ġprot ect
Ġatt ention
ĠD aily
Ġke pt
Ġgu ilty
Ġsaf ety
ĠAng el
Ġe le
ĠL ast
Ġst e
Ġind ivid
Ġsit uation
Ġdisc uss
Ġb ag
Ġmeet ing
Ġmar ried
Ġdri ver
ĠO lymp
c el
ĠN ot
ĠDem ocr
Ġoff er
Ġf em
Ġb illion
Ġfore ign
gh an
Ġtarg et
Ġbeh av
ĠP rem
Ġdri ving
Ġhot el
ĠA lex
Ġwor th
Ġfe et
Ġreturn ed
ow d
Ġplan e
k en
Ġcurrent ly
Ġbook s
Ġn orm
Ġnews p
Ġ esp
Ġf ish
Ġs al
Ġfl ight
ĠP eople
Ġr ound
Ġn on
atur al
Ġtechn ology
Ġg one
Ġs ister
Ġle aving
Ġlook s
in ks
Ġke y
ĠL ab
ĠBr own
Ġcrit ic
Ġopp ortun
Ġcle an
Ġcomput er
ĠS ch
Ġcent ury
Ġcre ated
Ġmess age
Ġhe aring
Ġproper ty
Ġalleged ly
Ġsex ual
Ġinst ead
1 1
ĠD an
Ġf ederal
Ġcap ital
Ġh ous
Ġser vices
Ġrest aur
ĠIs lam
as k
Ġtit le
ĠB ec
Ġt rou
Ġp oll
Ġwe ight
Ġth r
Ġl if
ĠM ex
ĠP at
Ġbu ilt
Ġc and
m ar
at ives
b ack
Ġha ir
d ing
est ions
Ġlaw y
Ġpos ition
ĠL iverpool
Ġdise ase
ĠR ob
Ġro b
Ġl oss
op h
Ġas k
Ġcr im
ou d
p ictured
Ġpat ients
Ġresp ond
Ġmiss ing
Ġviol ence
ĠC amer
ru ct
Ġpoin ts
ud e
Ġpress ure
ac ted
Ġgl ob
Ġch arge
um b
ĠThe se
b ody
ĠD o
p ly
Ġlet ter
Ġp ack
Ġse par
Ġlaw s
ver t
Ġl ived
Ġd in
Ġattack s
om in
Ġw ond
Ġpost ed
land s
Ġm at
ĠSm ith
Ġwe ap
Ġsupp or
Ġgo es
ĠIntern ational
Ġ2 7
g est
Ġab ove
Ġcar s
Ġsh are
Ġen vironment
ĠAf ghan
ill ed
ke y
ĠChel sea
Ġ. ..
ve y
Ġd ress
un ch
Ġ2 6
ĠS an
Ġesp ecially
ĠM al
Ġenc our
Ġpre d
ri age
Ġcom b
ĠI ran
Ġpict ures
he st
ĠC or
Ġc irc
u le
Ġab s
m on
Ġpr ice
Ġdoct or
Ġinfl u
ĠD on
d e
Ġext ra
Ġd raw
Ġt able
ur b
ad a
Ġf at
Ġpop ulation
ĠPrem ier
Ġall ow
Ġst ates
Ġ2 8
Ġpolic y
Ġfin anc
Ġg en
Ġv ill
f ort
Ġs il
Ġinclud ed
ut y
Ġm ob
Ġcompan ies
Ġcontin ued
our s
ress ion
ag er
if f
ĠB en
ic ked
ĠFl or
i que
Ġdoct ors
Ġrec ogn
Ġb ank
Ġincre ase
Ġp aper
Ġel se
ĠE n
i ant
Ġhom es
il ed
Ġis n
ch ie
Ġchang ed
S t
ĠâĢ Ķ
Ġre n
Ġlead ing
Ġn orth
Ġm ater
C h
Ġwe ather
Ġw ays
Ġperf orman
1 2
ak er
ĠB ro
Ġkill ing
Ġac cept
Ġpar ts
ess ion
ĠH igh
Ġan g
Ġal one
Ġro ck
Ġqu estions
4 0
Ġc aught
it or
Ġf ast
ed s
Ġcr ime
Ġd ata
Ġde v
Ġ6 0
Ġc ard
Ġreg ion
ĠMc C
e k
Ġb ill
Ġmod el
du ction
Ġeas y
Ġch air
h an
ĠSyri a
Ġbeaut iful
in ary
ĠW il
Ġrele ase
ific ant
Ġgener al
Ġreg ular
ro y
Ġbig gest
1 9
Ġg iving
ĠSt reet
Ġs outh
ĠRuss ia
Ġcolle ge
Ġem b
ĠM ore
Ġal though
p ro
Ġrem ain
Ġe ither
Ġcre ate
h ol
Ġiss ues
Ġcall s
Ġchar acter
ĠL u
ic a
Ġconsid ered
raz il
Ġp ur
Ġp o
over nment
oin t
ic ated
Ġre fer
o e
ash ion
as hed
Ġent ire
Ġshoot ing
Ġgr owing
Ġm ist
all ed
us hed
Ġd ream
Ġlarg est
M y
Ġcr owd
ĠTw o
Ġchang es
Ġam ount
ar r
b it
Ġcar ried
Ġseem s
Ġw ide
Ġm ult
1 5
Ġstop ped
Ġey e
Ġr ac
ĠGerman y
Ġimpro ve
i res
Ġc old
Ġim age
ĠB BC
Ġc at
Ġop ened
Ġcom ments
ĠRoy al
Ġent er
g es
Ġb ird
Ġwear ing
Ġpass ed
ict ion
Ġpubl ished
ĠFlor ida
Ġphot o
Ġpro ject
c he
Ġinj uries
ĠL ou
Ġim ages
ĠCamer on
Ġint ro
Ġg old
Ġres ults
as ons
Ġfin ally
Ġhol iday
Ġen s
ĠC ong
Ġass ist
Ġscient ists
E O
ĠS im
re y
Ġdrug s
pl ay
Ġp ort
Ġown er
b ol
ĠB er
Ġhig her
Ġattem pt
if y
Ġcons um
Ġa chie
ol ution
Ġeven ing
Ġev ents
Ġsen ior
e es
Ġfir m
ĠT om
Ġpl aces
Ġb oss
Ġd oll
Ġinj ured
ĠBl ack
am b
Ġest im
ĠM ur
ag n
ab ility
Ġse a
ur ning
r id
Ġdem and
Ġtem per
ag ing
Ġfoll owed
Ġv o
ĠB razil
on se
Ġto wards
Ġp ark
m en
Ġm iddle
Ġs end
A nd
Ġst age
Ġsomet imes
Ġem ot
ĠP er
Ġpros ecut
ort hern
Ġst orm
Ġhapp en
ast ic
Ġindust ry
Ġfl oor
aren t
g round
te e
ĠRuss ian
Ġsim ply
Wh at
Ġa ud
ra p
it es
Ġgr ad
Ġatt orney
A s
Ġs ense
Ġconfir med
Ġtele vision
r is
Ġw itness
ĠO ff
5 00
ou l
Ġab use
ĠCh ampions
Ġeff ect
Ġext reme
il le
Ġn atural
od ay
Ġconsid er
Ġsn ow
ĠC oun
Ġexper i
Ġus ers
ĠV ict
g ing
Ġdri ve
em y
ĠR ed
Ġphot os
od e
Ġcon duct
Ġsour ce
Ġeconom ic
ĠM P
Ġant i
Ġj ump
ĠInd ia
ĠH ospital
h ire
eng ers
Ġre b
Ġf it
duc ed
Ġb ought
Ġcont act
ĠW al
Ġsp orts
Ġc red
Ġboy s
Ġw ild
ĠD uring
Ġimmedi ately
Ġo il
j ects
Ġs ong
Ġmater ial
Ġ =
Ġcent re
Ġsur f
ĠV al
Ġsa ve
Ġafter n
Ġpre t
Ġad minist
ĠAfric an
Ġsign ificant
Ġfoc us
id er
Ġi P
Ġgo als
y an
Ġg reen
and er
ĠAr s
o ved
Ġ200 7
Ġjob s
sy ch
Ġo bs
Ġdis p
Ġcond itions
ĠIntern et
Ġ ice
Ġw all
Ġoff ered
Ġdou b
Ġtw e
om s
Ġanim al
Ġass ault
c ome
ĠPr ime
Ġbro ad
Ġres c
Ġmod ern
Ġfem ale
Ġprev ious
op er
Ġwrit ten
Ġp age
Ġdam age
Ġind epend
ĠSc ot
Ġrepres ent
Ġ2 9
Ġdevelop ment
Ġsur ger
ell ing
Ġjour nal
Ġsh own
Th at
n ight
Ġaftern oon
e ed
Ġprev ent
Ġr ange
ĠMart in
ber g
Ġocc ur
Ġra ised
Ġcustom ers
Ġb omb
it iz
pl es
Ġpot ential
en ge
Ġdanger ous
ĠO ther
ĠM ary
Ġl ack
Ġimm ig
Ġresp onse
Ġread ing
ĠAss oci
! "
ĠU k
Ġr ain
Ġco ach
Ġcamer a
g n
Ġp un
Ġtal king
Ġg as
ĠT ex
Ġpe ace
le ar
ĠApp le
Ġrul es
Ġvict ory
ell ig
F or
e at
Ġopp os
Ġto uch
i ation
Ġear th
Ġfinanc ial
Ġst re
Ġqu ar
Ġsp read
Ġref used
Ġm ill
Ġmar riage
Ġtra ffic
ĠM ost
ear s
Ġr ap
u gh
Ġre ady
w or
ĠP art
ĠK en
Ġinj ury
Ġw ed
> >
Ġperf ect
l ight
Ġest ab
Ġlaun ched
Ġbelie ves
g le
Ġs ize
Ġphot ograph
ĠSc ott
v ent
< <
Ġv ote
ĠP eter
ĠR om
Ġc ities
ĠSec retary
Ġb attle
Ġr out
air s
il ities
Ġex erc
Ġcr ash
Ġeng ine
Ġspe ed
Ġsent ence
Ġ vers
ak istan
Ġcl os
ĠCent er
ĠAn other
ĠF er
y l
act ion
Ġter m
Ġjoin ed
u k
ĠHe alth
Ġrel ig
ing er
Ġsw im
esp ite
Ġher self
Ġre view
Ġre v
ĠO p
Ġam b
Ġadd ress
h aps
ol f
Ġag ency
Ġelect ion
Ġcost s
ĠP ort
Ġm ount
ĠG reen
Ġsuccess ful
Ġche m
ĠĠ Ġ
Ġs ens
Ġmov ie
Ġr are
ĠJ e
Ġsk in
ĠAustral ian
Ġres earchers
Ġold er
Ġdesign ed
Ġdr ink
Ġwar ned
b re
Ġfeel ing
Ġr ate
Ġt ick
y a
b ased
ist ic
Ġdog s
Ġp et
Ġnewsp aper
or ter
ĠT ur
ic ations
ĠC he
Ġp ers
ro vers
Ġget s
ild ren
Ġfight ing
ce ment
Ġincre asing
ĠQue en
Ġb ase
ĠB el
Ġs ound
Ġm is
ĠL a
Ġs ad
ĠI S
e ated
Ġp ul
Ġhundred s
Ġproduc ts
Ġbl ue
Ġcult ure
ĠTex as
Ġcompl ain
Ġm ach
Ġsy m
Ġprev iously
Ġglob al
Ġcrim inal
ig er
Ġh ar
re l
Ġexper ts
olog ical
Ġsp oke
ĠFr anc
Ġte ach
ĠS ir
Ġav oid
ĠLab our
ogra p
ĠL ib
ĠP akistan
Ġb ott
Ġag reed
s et
b or
Ġapp eal
Ġs we
Ġg ard
Ġeconom y
Ġresident s
Ġmo ving
Ġsp ending
ĠEar th
p m
Ġwal king
Ġa im
ĠCoun cil
Ġe ating
Ġg ra
Ġc op
il es
Ġsurger y
res h
Ġ &
anc y
Ġspe ech
Ġsur round
Ġnec ess
Ġlo ved
Ġmin ister
or ry
ĠPr ince
Ġc y
t r
Ġatt end
Ġd ark
Ġend ed
ĠRich ard
ik es
Ġdet ails
em ents
Ġco ast
ic ide
Ġoper ation
Ġcontr act
out hern
2 5
Ġexecut ive
Ġperforman ce
ĠPar is
Ġcre w
Ġimp act
Ġf re
Ġl ose
Ġsec ret
em s
Ġlear ning
Ġdevelop ed
Ġmag az
Ġlevel s
Ġhealth y
Ġdel iver
Ġveh icle
oo gle
ĠCong ress
Ġab ility
ru ction
ĠWh y
ĠMus lim
Ġansw er
gy pt
il s
Ġpass engers
ic ed
Ġex act
T V
Ġcand id
ĠKore a
en ger
Ġc itiz
ĠE very
ress ive
# #
Ġthrough out
Ġt rib
p s
Ġv an
Ġre ached
at ory
Ġits elf
Ġtw ice
ore s
il ing
Ġclot hes
Ġde g
I D
Ġlear ned
Ġsh ip
Ġatt ract
ic ks
Ġ19 6
Ġcent er
Ġeff ort
ĠIn st
ĠM ic
ĠT ra
Ġst ra
on ald
ĠCl in
o very
ĠG overnment
m ark
co hol
Ġdem on
Ġhe avy
Ġwal ked
Ġv ac
Ġb od
a res
Ġmy self
Ġcontrib uted
Ġpre gn
ib ly
Ġ Qu
Ġbro ke
Ġc ook
ĠJ ud
Ġwrit ing
Ġth inking
Ġche ck
Ġparticular ly
Ġwond er
Ġb ul
Ġfac es
ĠScot land
Ġass oci
Ġag ed
sh ire
il leg
Ġmob ile
Ġcomplete ly
Ġsp ort
it z
Ġeff orts
Ġf air
Ġcr is
Ġsl ow
Ġter ms
Ġme ant
Ġwatch ing
ĠE gypt
ĠE ven
ĠG reat
ĠArs enal
Ġl i
Ġun f
wh ile
Ġl ower
ĠK e
ĠFr om
Ġtro ops
Ġfav or
S A
ĠCar ol
Ġpr im
Ġopen ing
om as
i est
d own
Ġhist or
ĠAl though
Ġwin ning
h ib
ĠChr is
Ġsc ored
A t
Ġp enal
Ġchall enge
Ġwould n
Ġp an
Ġcon ference
he t
Ġappear s
Ġf ashion
Ġnear by
Ġtr ust
Ġopportun ity
1 8
Ġwait ing
Ġsign ed
Ġgl ass
ent y
Ġnum bers
end er
Ġd ram
c raft
Ġbecom ing
ener al
ĠB ill
ĠSp an
ĠJack son
Ġsold iers
" ,
Ġar m
ac hes
Ġun iversity
Ġr ise
Ġsu it
ĠJohn son
Ġshow ing
Ġfar m
Ġemer gency
ĠMex ico
Ġcont rovers
Ġon es
ĠWilliam s
ĠL os
c a
Ġpos itive
ce ed
rou d
ĠAfghan istan
er ve
Ġden ied
ĠOff ice
ab les
Ġser ved
Ġcon c
u ing
oun ts
Ġtre ated
ĠA ct
ĠAngel es
led ge
in y
ĠB ay
pt on
ad ing
ĠVict or
ri an
Ġd ate
Ġ Âł
un k
ens ion
ĠG oogle
Ġtrad itional
Ġ illeg
ĠG od
ar i
ĠC am
Ġevent ually
Ġlaun ch
Ġconv icted
Ġis land
Ġpart ner
in ally
ag o
Ġnorm al
ĠInd ian
Ġrestaur ant
Ġstre ets
.. ..
Ġf le
Ġseem ed
Ġ ur
Ġp il
Ġcent ral
Ġs ales
Ġon to
uck y
ĠD espite
Ġsc reen
Ġp sych
Ġapp arent
Ġl in
Ġfig ures
om en
ish ing
Ġb reat
Ġc ash
h old
Ġd ig
Ġinclud es
Ġtyp e
1 00
ĠRepublic an
Ġaw ard
g u
ĠS al
Ġrespons ible
Ġp ick
ph one
Ġcom fort
Ġad m
ĠSp ain
Ġ200 6
Ġch urch
ĠAr ab
Ġpartic ip
sh ip
Ġop in
is ters
r om
Ġ ver
ĠUk r
Ġcompet ition
ri ef
l ant
f l
Ġv ir
ĠC ap
Ġhelp ing
Ġf ine
Ġtell ing
Ġwar ning
Ġfoll ow
ad o
Ġneighb or
Ġord ered
Ġteac hers
ĠO f
Ġso ft
Ġun able
i pped
Ġreg ard
Ġ3 1
un te
Ġe p
Ġb order
ĠIt aly
Ġrece ive
Ġf ul
Ġsim ple
Ġin qu
Ġorig inal
Ġair port
Ġsoc iety
Ġst ories
Ġn ames
2 00
Ġpiec e
Ġsee ing
se x
ĠJ ones
h a
ĠRober t
and a
u gg
Ġar ch
Ġhig hest
Ġweap ons
Ġt ree
Ġlawy er
Ġl ay
ad d
Ġchall eng
Ġbr and
ro g
A n
ĠF irst
Ġint ellig
ĠUn ion
ĠF ore
Ġdis play
Ġal cohol
Ġcall ing
ĠR od
Ġd ie
Ġk it
ak ers
Ġbegin ning
uc lear
ist ry
l iam
Ġpro duct
Ġra ise
w ide
ce an
Ġb al
ak ed
ĠT oday
ĠT al
k i
Ġre asons
ĠM el
Ġb i
Ġmill ions
Ġad vert
Ġwed ding
Ġchar ity
ĠS and
Ġphys ical
Ġwr ite
Ġpul led
v est
ĠLou is
Ġcris is
in i
c her
ri f
ĠT imes
H ow
ĠP et
ĠH ill
liam ent
am ent
ren g
Ġpl aced
oc king
ad ium
Ġactiv ities
ĠDe f
Ġhe ro
Ġfig ure
Ġcomp ared
Ġdeter min
Ġstar s
b l
Ġfl ood
ĠClin ton
Ġas king
Ġsuff ering
w here
az ing
Ġex ist
ĠMad rid
se qu
Ġstra ight
Ġcoun cil
Ġwar m
ub e
Ġcl osed
Ġwind ow
Ġbenef its
Ġalleg ations
Ġmin ute
Ġcho ice
Ġag re
ud d
Ġpl ant
1 4
ĠB al
Ġmanag ed
Ġpract ice
Ġim ag
ĠTh omas
Ġst yle
Ġshop ping
Ġconcer ns
Ġident ified
H S
Ġsc hed
Ġrequ est
Ġincre ased
m ail
ĠJ im
stit ute
Ġw ood
as ts
Ġ9 0
w ell
Ġsur vey
A l
ĠS un
Ġdro pped
ĠH all
l or
Ġsp ir
z a
Ġyour self
Ġ8 0
Ġ7 0
Ġmean ing
Ġtwe et
Ġsuggest ed
Ġgrow th
ĠS ince
Ġfour th
ell ed
ĠSt ud
Ġvo ice
ĠS oc
Ġa id
ic les
ĠK im
Ġadd ing
ĠW ales
ĠL aw
Ġqu ality
Ġsm art
ill a
m ates
c y
a ed
Ġg ives
O ne
Ġcon vers
ri ff
Ġmet h
Ġad op
S o
Ġb urn
Ġbro ken
on ed
ĠC le
Ġwrit er
Ġr oll
cl us
ĠN or
Ġiss ued
ĠE v
riv al
Ġc ry
an ks
ĠO ffic
Ġ3 5
Ġval ue
ĠIt al
Ġown ers
Ġmajor ity
Ġbod ies
ij ing
Ġpret ty
Ġclear ly
ĠSt ep
Ġbirth day
u x
Ġcarry ing
Ġreported ly
Ġh arm
Ġmot or
Ġwh om
ĠAr my
el ess
Ġdi agn
Ġfell ow
it ude
Ġvill age
ĠM ill
i ate
Ġnet work
Ġeff ective
Ġw el
Ġlab el
Ġcap tain
Ġus es
g ent
Ġsc ience
Ġsit ting
Ġrad io
Ġair craft
Ġappro ach
am s
ĠRe al
ĠD is
ĠV ir
Ġd aily
i h
Ġhop es
Ġhold ing
Ġsk ills
ĠM iddle
ar ies
ĠChar l
N o
ĠWh o
Ġfav our
ĠR ec
ĠLe e
le ge
ber t
Ġrem oved
N A
ĠJ os
Ġadminist ration
lect ion
Ġspec ific
Ġemer ged
Ġmess ages
1 6
h o
is l
ĠSp e
Ġp ull
Ġsever e
Ġst reng
stit ution
Ġmagaz ine
u f
Ġj ury
Ġch amp
Ġresp ect
ĠW ood
ĠC ons
Ġindivid ual
Ġf ly
d d
rop ri
ic ate
Ġplan ning
ĠI I
Ġvar ious
Ġocc as
Ġplan ned
Ġn ice
v al
t ies
as c
ĠB o
Ġdin ner
Ġb id
ate g
Ġteam s
ĠBec ause
it ation
Ġs ale
Ġn ature
ĠAt lant
Ġin n
Ġsusp ect
Ġf reed
Ġdeath s
g ar
ip le
y ond
Ġn uclear
ĠS ur
Ġprov ided
Ġco ff
Ġconcer ned
Ġmain tain
re ct
Ġens ure
y m
Ġwin ter
Ġrecord s
Ġknow s
Ġattack ed
Ġdec ades
ol ute
k es
n or
Ġfe ed
Ġact ions
in son
Ġd rop
Ġwor st
ar ily
Ġpat ient
p e
Ġm ale
Ġbe ach
Ġdemon str
c an
Ġhur t
Ġdo z
b led
ĠAnd rew
Ġvol unte
Ġstri ker
Ġtrans fer
ĠV an
Ġdiffer ence
Ġphot ograp
Ġexp ensive
Ġrep eated
est ival
Ġmiss ion
Ġ200 5
d om
Ġprofess ional
Ġsh ared
Ġstart ing
ĠC amp
Ġsh ut
Ġexpl ained
Ġdest roy
Ġpur p
Ġspec ies
end s
Ġref orm
c hen
ĠFranc is
Ġcho ose
Ġbel ow
Ġf if
a e
Ġd om
j ected
Ġquar ter
c ient
Ġactiv ity
N E
1 7
kn own
Ġconf l
Ġappear ance
ĠGr and
b ut
Ġs ick
ĠBe ijing
ĠSpan ish
Ġfeat ures
Ġbe g
Ġprot est
f ess
igh ters
ĠL ord
ĠB ur
Ġsqu ad
Ġexerc ise
Ġf resh
ot ten
is ions
ĠO ld
Ġcollect ion
Ġexpl os
i us
ĠG ood
Ġcer em
ers ey
Ġdis m
ec ution
ĠH um
ĠU nder
ang ing
Ġplan ts
re c
Ġstr uck
im ent
ĠHar ry
ap t
Ġp roud
Ġc orn
Ġrequ ired
Ġadd ition
Ġse at
ir ing
d den
Ġgirl friend
b our
h ouse
ĠDan iel
ĠM at
ĠOlymp ic
Ġpri or
ĠF ar
Ġto m
ĠR iver
Ġang ry
Ġp urch
Ġact ive
ĠThe ir
ĠG eneral
el ly
ĠÂł ĠÂł
4 5
Ġup on
Ġc atch
Ġ3 2
1 3
ĠM ag
Ġbo at
Ġtrou ble
Ġjour ney
Ġar ms
Ġcoun ter
ÂłÂł ÂłÂł
p ts
Ġw ound
ĠN et
Ġf an
Ġstand ing
Ġsu dden
Ġap artment
Ġcertain ly
Ã ©
Ġaff ected
ĠA sh
Ġit ems
ĠFr ank
ĠCh urch
ter m
Ġtest s
Ġh un
w in
bo ard
ĠR os
ar ks
Ġpr ices
ĠS ant
Ġdep artment
Ġyoung er
ĠH el
d ney
8 0
Ġ4 5
um e
Ġst ress
Ġmove ment
Ġp ounds
Ġtre es
Ġsub ject
Ġde vice
Ġdou ble
ap ers
ĠSu per
ĠIslam ic
o king
Ġc overed
ĠG re
Ġqu iet
ot ed
iz ing
Ġelect ric
ĠW in
Ġwat ched
b ing
e g
Ġdocum ent
Ġdr inking
ke ep
Ġad ults
A f
Ġachie ve
ĠItal ian
ect or
go ing
Ġvis ited
l ife
Ġtal ks
Ġsign s
Ġdocum ents
Ġpenal ty
Ġstud ies
Ġcitiz ens
ap ed
z z
ell ow
Ġap olog
ĠSen ate
pp ing
Ġsuppor ters
ĠChar les
ĠM er
Ġproduc ed
Ġc ool
Ġrun s
Ġjail ed
B I
ĠIn ter
Ġsent enced
ĠS ar
ĠCan ada
d o
ĠVir gin
Ġag g
Ġsp l
Ġput ting
are t
Ġad vice
Ġfind ing
Ġb and
Ġrequ ire
Ġcontin ues
Ġexact ly
ĠH en
ack ed
ag ers
r ol
ĠH ot
Ġchem ical
Ġfl ag
Ġf ired
ĠG ar
ĠSer vice
ĠAssoci ation
ur ance
r im
ĠIS IS
ĠSy dney
ig g
est ic
Ġwin ner
Ġinc red
ĠB ob
Ġb ud
Ġl osing
ĠW estern
Ġbe yond
ang ers
er o
Ġun c
Ġeas ily
ĠChrist ian
b orn
Ġfin ished
w oman
er ved
Ġen for
ĠC om
ad s
ĠH ere
Ġm ental
ĠJapan ese
Ġb ath
Ġrepor ters
Ġvers ion
h ab
ĠD et
ĠIs land
Ġche c
Ġmin or
cel ona
e en
w o
Ġaw are
w are
ĠS n
Ġvisit ors
br idge
ĠN HS
Ġcol or
v an
ĠB oth
Ġgard en
ĠG old
ĠCr own
ost on
Ġann ual
ĠF A
Ġbuild ings
Ġextreme ly
et ic
Ġrec omm
Ġknow ledge
ĠPart y
Ġp ath
Ġhelp s
ĠAt t
Ġfoot age
ĠD ist
Ġb ra
Ġcons erv
mon th
Ġw id
ut ch
Ġu nd
at ures
im ately
Ġestim ated
Ġpower ful
Ġex ch
Ġpart ies
Ġwor se
Ġa irl
Ġoff ers
Ġd iet
ill ing
Ġ *
ĠM et
Ġre duce
r ants
Ġl unch
Ġw a
Ġbus y
ĠA uthor
Ġg ang
rib le
Ġf lying
ĠRep orter
im um
ĠJust ice
ic king
Ġinflu ence
Ġspe aking
k a
Ġp icked
Ġnecess ary
r ant
it t
ĠC omp
Ġintellig ence
m ond
Ġinterest ed
res p
Ġr ule
ĠWe b
ĠW atch
Ġgrad u
Ġdoll ars
us es
Ġemploy ees
oc ks
Ġto ward
Ġrem ained
c ious
? '
es ters
Ġdef in
Ġmass ive
Ġsu icide
ar ian
Ġshe l
Ġl ikes
Ġmem ory
ĠSte ve
all s
ĠT im
Ġper haps
ĠD en
Ġstru ct
Ġm ix
u als
Ġp ool
ĠHol ly
Ġwe alth
b on
Ġfl at
ĠD el
ĠCol lege
mer c
Ġjust ice
ac ts
Ġleg s
v ille
Ġ200 4
Ġdef ense
ri e
ĠJ ew
Ġoppos ition
Ġilleg al
Ġcapt ured
ĠM ac
Ġcomple x
Ġcaus ing
Ġal ive
ĠF am
Ġdeb ate
ĠO l
âĢ Ŀ
im ate
or ial
Ġpro duction
ĠSyri an
Ġreal ity
Ġwor ry
ĠP ost
Ġr ing
ĠJ ul
Ġtell s
eng th
Ġalong side
app ed
um ent
n el
Ġbehav i
Ġorgan ization
Ġview s
oin ted
Ġteen ager
y d
Ġam azing
Ġlin ked
A meric
Ġpro duce
Ġful ly
ĠJ on
Ġs em
b ec
anc ed
ĠB oston
Ġdef eat
os es
ant ly
Ġe ld
Ġpresident ial
Ġb rief
Ġn orthern
Ġg rew
Ġsurf ace
Ġob v
ĠSec urity
F A
ĠR oman
m ore
Ġunder st
Ġl ic
Ġsell ing
ĠComm ission
ĠPal ace
ĠD ar
ang ed
ul a
v is
Ġw ish
Ġart icle
Ġ ult
Ġs and
Ġhe av
ĠP e
us ing
Ġoccur red
Ġfre qu
enn is
Ġexper t
Ġbl og
Ġ ign
ann el
Ġrul ed
Ġsepar ate
he red
Ġ3 3
Ġfac ing
ĠG o
Ġatt ended
n o
ĠB ush
Ġc ast
an while
ul ed
oun g
Ġhand ed
Ġhigh ly
Ġr ich
ĠBar celona
ad or
Ġpr in
Ġexp ressed
ĠBar ack
Ġbel ong
Ġwor ried
Ġl augh
ip ment
Ġun s
ĠY ear
Ġins isted
ail ed
Ġst ab
A ll
Ġgreat er
ew here
Ġeff ects
ĠS om
Ġat h
Ġex cept
ut ions
al a
Ġexp ress
k ins
Ġser ve
ĠM ass
Ġrespons ibility
Ġleg isl
Ġl ines
Ġle ague
Ġsecond s
Ġbl ock
Ġill ness
Ġtrans port
a o
Ġbr ight
Ġhum ans
Ġhous es
ĠGeor g
r ick
or row
Ġprep ared
S ome
Ġb oo
Ġar my
ĠN ick
Ġoper ations
ĠCh ic
Ġsit es
igh ter
ĠK n
Ġs outhern
Ġchamp ion
Ġfil ed
Ġe gg
om atic
u an
m ine
Ġintern et
Ġdec ade
Ġadv ant
Ġinterest ing
Ġun us
Ġve ter
Ġfor t
E R
Ġar med
Ġc up
Ġw est
our ces
Ġg iant
Ġclaim ing
Ġmeth od
re land
Ġrelig ious
Ġsc en
id s
ĠW at
ĠSte ven
Ġbehav ior
Ġcommit ted
ous ly
Ġstri ke
Ġbird s
an ch
ĠP ri
ĠE U
ĠF BI
ĠM ike
a ith
ove l
On line
Ġto urn
ĠCh ildren
Ġm outh
Ġagre ement
Ġhe at
Ġconf ident
Ġsystem s
Ġconcer n
ropri ate
ect ions
Ġe ast
Ġtr ade
Ġide as
Ġequ ipment
oc ol
ĠO ver
Ġ <<
ed er
ĠG ames
Ġto ugh
Ġst ood
ĠH oll
ĠJo e
ĠA ri
ian ce
ig an
Ġfin ish
merc ial
ĠA c
Ġmach ine
Ġbed room
and al
Ġbas k
Ġrel ated
ĠI m
ĠVictor ia
ĠAr gent
Ġconfl ict
Ġcerem ony
Ġm ention
Ġchair man
Ġv ia
Ġc ru
ĠL ew
Ġk il
Ġle aves
Ġkeep ing
Ġnec k
l ook
Ġare n
ign ed
en a
ĠD u
ĠI reland
i ar
Ġbenef it
r ated
Ġprog ress
uf act
ĠCh ief
ĠPro fess
o z
ri al
Ġart ist
Ġph ones
Ġloc ated
Ġdirect ly
Ġs ort
Ġbott om
Ġabs olute
Ġcred it
ĠB ig
Ġmeas ures
ĠB re
N ew
is f
ĠChic ago
Ġdoub t
Ġresc ue
Ġsurpr ise
ĠI r
is er
iel der
ul ated
ĠP ress
ĠR ad
olog ist
Ġhor se
ag ues
ĠMe anwhile
Ġr ide
un ning
Ġap art
ĠW all
u ct
Ġact or
ĠRepublic ans
Ġp up
on n
al ys
Ġme at
ĠH aw
Ġdetermin ed
Ġcoff ee
Ġcust ody
Ġb ot
om a
Ġf uel
Ġlot s
Ġd ad
Ġha ven
ific ation
ĠâĢ ľ
Ġsurpr ised
ĠBe fore
Ġindepend ent
ĠAn n
ic an
Ġprofess or
Ġf ix
Ġviol ent
ID EO
Ġag ree
ic ious
ul ations
ce pted
Ġaff ect
O ur
Ġg ar
Ġspot ted
ĠJud ge
H is
Ġnot e
ĠV IDEO
Ġa st
Ġintro duced
Ġmiss ed
ĠT ay
bol a
ĠTh ree
ĠR yan
in ated
ĠC ur
Ġdev ast
Ġrecord ed
ro ad
ĠSt ar
Ġro y
Ġt all
Ġwe ak
Ġstand ards
Ġpre m
f ielder
Ġr ape
Ġan aly
Ġhop ing
Ġdri vers
Ġsugg ests
ĠK ar
ĠS l
Ġr ow
ri er
7 0
Ġun ique
ol es
ĠO s
ĠiP h
Ġrel ative
Ġban ned
m other
Ġsing er
e z
ac ing
Ġdiv or
M r
Ġcl in
ree k
Ġ3 6
Ġcont ain
Ġwork er
Ġ19 5
ain t
in als
Ġp en
anc ing
Ġattem pted
w est
Af ter
ĠL iber
Ġpregn ant
Ġp ra
c ing
ĠCent ral
ĠE ver
Ġdec ide
Ġe th
ĠMur ray
u a
ĠM os
Ġent ered
Ġloc ation
Ġcor rect
ĠUkr aine
Ġstep s
Ġaff ord
Ġch ampions
Ġmain ly
Ġyou th
Ġun cle
Ġmus e
Ġpr ay
ĠG ra
Ġlarg er
Ġfail ure
aed a
Ġfor g
Ġve get
Ġg ay
Ġinit ially
em an
r ist
Ġkit chen
ate ver
le ment
Ġar r
ĠS il
ĠG roup
Ġstand ard
igh ted
Ġser iously
ent ially
Ġr ates
Ġconf idence
ĠK ate
Ġapparent ly
âĢĻ ,
f ast
ot a
an i
Ġsusp ended
ell a
Ġun like
ĠKore an
Ġstore s
Ġcontr oll
ic y
am pton
ĠRo ad
Ġinvestig ators
Ġlim ited
Ġpay ing
Ġthan ks
Ġ ess
ĠOp en
Ġsour ces
pp er
Ġto w
Ġr ub
b ur
Ġrel ax
ĠTr ans
ĠMail Online
Ġclim ate
E very
ĠFor mer
ic ine
Ġimmig ration
b ury
Ġmeas ure
9 9
Ġfac ed
Ġlit er
l ished
ian o
Ġcom mercial
Ġri ver
Ġto ol
ĠL i
Ġfavor ite
Ġmuse um
Ġ200 3
Ġtr uth
Ġpolit ic
Ġcaus es
3 5
Ġcr imes
app y
Ġbask et
Ġl og
ic op
Ġdom estic
ou red
ĠC ast
enc ies
Ġt ast
Ġgu ard
Ġpiec es
idd en
a ire
Ġpl ays
us hing
Ġprogram s
and ed
Ġhapp ens
ul ate
Ġpurp ose
Ġf al
2 2
Ġdist rict
Ġman ufact
Ġveh icles
st e
Ġl ux
Ġaud ience
Ġpro ced
st ances
Ġsh ock
it tee
ĠD own
Ġneg ot
Ġ201 5
Ġdeg ree
Ġemot ional
ĠCarol ina
ian a
Ġcirc um
Ġp urs
Ġpr inc
Ġsmall er
Ġbud get
ĠB u
Ġbehavi our
cast le
P eople
ĠCl ub
Ġob ject
Ġprim ary
ess ed
Ġsee king
Ġwill ing
ĠJ er
ĠRom ney
Ġde vices
ĠJ ersey
ib r
w ater
lect ed
Ġenter tain
ĠE bola
as ted
ĠT er
ord an
ĠP enn
Ġsk y
ĠL at
Ġ3 4
Ġpre fer
f it
Ġ5 00
Ġr ail
ĠInst ead
Ġprot esters
m ission
ick en
Ġb atter
iv ity
Ġn urs
Ġfl u
Ġsm ile
Ġpil ot
Ġf illed
Ġs ides
Ġr id
ab in
ĠL uc
ĠRe g
Ġesc ape
ĠM ount
Ġm ic
Ġad ult
Ġser ving
Ġstat us
Ġunus ual
Ġlim it
Ġchang ing
Ġst ands
Ġwonder ful
Ġsuff er
Ġdevelop ing
Ġmid fielder
ĠDemocr atic
ĠDist rict
Ġnot iced
Ġbeaut y
ĠK ent
b urg
Ġlet ters
ĠE ll
Ġclass es
um n
Ġfe ature
Ġboy friend
re p
Ġpro ve
ĠHolly wood
Ġte a
ĠP ut
ĠSpe aking
Ġall ows
Ġthreat ened
ĠB ir
Ġcelebr ate
ĠWil son
Ġclub s
Ġmult iple
ĠM use
ĠS us
ack ing
Ġple aded
Ġshort ly
Ġvot ers
Ġsusp ected
ĠK ong
Ġ3 00
ag ic
Ġconn ection
enc ing
Ġprom ot
Ġm ig
Ġplan et
al k
Ġpart ners
Ġlo an
ir ty
ĠR onald
Ġgu ests
Ġtr uck
Ġdro ve
ĠJ enn
ĠTay lor
Ġn ovel
ĠH ome
Ġsc ore
Ġdism iss
Ġcomple ted
in n
ĠH ong
ĠAs ia
ĠOn ce
Ġinc ome
Ġneighbor hood
Ġsh oes
omet imes
Ġprogram me
Ġas p
m ate
Ġt end
ĠO h
Ġtre nd
st s
Ġb om
ĠT ony
Ġgr ab
Ġdram atic
ĠM id
Ġs an
Ġtourn ament
ĠTh ose
Ġins urance
Ġwhe el
Ġroy al
Ġinst it
Ġd ance
Ġvide os
Ġconc lud
Ġwas te
ath an
Ġcrit ical
Ġrem ove
ĠC ost
Ġl ength
ĠD i
ann y
Ġreg ime
Ġmur d
ĠProfess or
is ation
Ġthan k
Ġspokes woman
ĠIn stitute
Ġb ail
Ġcell s
ĠA g
Ġinvestig ating
Ġrul ing
Ġcont ent
Ġob tain
Ġbe ar
2 4
l aw
Ġex hib
Ġexpl ain
ĠCo ast
ĠBr ad
Ġfreed om
Ġup set
m et
ĠG a
ip e
Ġmount ain
ĠB ank
Ġenjoy ed
Ġset tle
ou ts
it an
Ġgu y
ĠK at
el a
b um
Ġup d
u nder
Ġprop os
ĠComm ittee
Ġfor get
Ġexperi enced
Ġc art
Ġun it
The se
Ġdiagn osed
N ow
Ġprot ests
Ġfr aud
ra id
ĠJe ff
ĠS qu
ĠVirgin ia
Ġest ate
Ġcoun ts
Ġmat ches
ĠAr t
Ġcommit tee
l ers
Ġac cepted
Ġsee k
i xt
Ġcontrovers ial
ol ic
Ġgreat est
T o
Ġact ress
Ġstreng th
it tle
Ġkind s
Ġindivid uals
Ġoff ering
ĠO x
in ho
Ġcomm ission
u ction
ĠDemocr ats
Ġs om
ite ly
Ġsupp osed
ĠiPh one
ĠT or
v ention
Ġterror ist
Ġp ush
Ġd er
A r
ĠE ach
Ġab and
se y
k in
it ors
Ġcont est
it er
Ġdecl ared
Ġb att
Ġdel ay
Ġbab ies
Ġnot ice
Ġ19 4
ĠD un
ph y
Ġsh ape
ĠY oung
c ri
Ġdestroy ed
Ġestab lished
Ġtemper atures
Ġfif th
ĠStep hen
il ton
ĠM em
Ġadd itional
Ġprot ection
Ġsh ocked
ven ue
Ġpain t
or ted
ic on
Ġbig ger
ĠN ations
Ġroom s
Ġan cient
ĠSar ah
Ġfeel s
Ġeas ier
Ġ199 0
ĠC ath
ĠSh ar
aged y
ĠPr ot
Ġhel icop
ron ic
ĠAir port
Ġfil ms
Ġfear s
Ġcut s
Ġt aught
Ġbrother s
ial s
Ġdi pl
ag on
Ġme al
ay ne
j ust
Ġgener ation
ĠMuse um
U n
Ġmay be
ĠB oy
Ġadvant age
g en
Ġst uff
Ġt iny
Ġw ake
qu ar
ĠGeorg ia
ĠJ ess
P ol
Ġfal se
ĠNew castle
in ing
ĠW el
Ġs orry
ĠO ur
ra wn
ly n
Ġcolle agues
âĢ ĵ
i os
Ġ2 000
Ġback ground
Ġleaders hip
Ġfall ing
Ġsa ved
Ġvir us
Ġh at
Ġmo on
Ġeld er
ĠF ound
Ġm ir
r ison
th ony
ĠL ong
Ġsched uled
Ġover se
ĠR am
ĠZ eal
S h
Ġth inks
Ġtick et
Ġg ather
Ġb ow
is a
ĠCar l
Ġ200 1
ĠW here
Ġsp ect
Ġrec over
kn ow
it als
ĠS ing
Ġmost ly
Ġdes per
Ġall owing
app ing
Ġt ears
ĠIsrael i
Ġ ir
Ġc ards
Ġrem ind
ĠO ut
Ġt urning
NE W
r ig
Ġregular ly
Ġorgan iz
ĠJ ordan
Ġconvers ation
ĠSp orts
qu es
Ġus er
' :
Ġinsp ired
Ġopin ion
ĠT our
Ġrec overy
ĠK h
Ġl ady
Ġcorn er
Ġsm oke
aren ts
Ġl ands
f ather
t own
ol en
Ġspok en
Ġaf raid
r ont
augh ters
Ġlist en
Ġpl astic
Ġs ight
Ġac ad
Ġswim ming
Ġspir it
il ly
ĠGu ard
ot ic
m osp
Ġincreasing ly
Ġst ret
Ġl ucky
Ġac qu
ĠF ire
Ġtrad ition
Ġn ut
ĠD NA
Ġestab lish
Ġsupp l
Ġenfor cement
l ig
ab eth
Ġk ing
am ing
Ġm um
Ġpolit ics
O R
C A
Ġgr own
ĠD ie
Ġmanag ement
Ġsp ar
ĠZeal and
Ġf aith
Ġprosecut ors
own ed
Ġsc he
Ġown ed
ev in
Ġset ting
Ġassist ant
Ġsym pt
! '
Ġfriend ly
oc al
Ġsp ring
ct ions
g ers
Ġfl owers
Ġkid n
ĠV er
ĠPl ay
ĠL et
Ġrespond ed
ĠMo ham
Ġpr ime
Ġim pl
Ġcandid ate
Ġl ights
em en
Ġc as
Ġwide ly
O N
i pl
ĠS up
Ġsl ight
Ġun p
Ġst one
Ġt ack
Ġal bum
Ġem ail
ew ork
ĠQ aeda
Ġneg ative
Ġp itch
ĠN iger
oss ible
m es
ĠF oll
ĠP ac
Ġsat isf
ĠCam bridge
Ġteach ing
Ġtweet ed
ĠMc D
ĠOlymp ics
Ġb ike
Ġfind ings
Ġearth qu
ĠW ell
Ġsc andal
Ġbelie f
Ġparen t
w ar
ĠM ont
er ous
Ġs ending
ĠF our
i en
ĠAn t
wor ks
Ġres ources
r acted
ĠA v
Ġtemper ature
Ġc oin
Ġg ift
Ġbas ic
Ġ200 2
ov ic
ob ody
O P
ib an
ĠSc ient
Ġag ent
Ġmom ents
ĠSim on
o ked
ony m
Ġbusiness es
ĠD es
Ġunderstand ing
Ġo pt
em ic
Ġdist ance
I A
Ġbu ying
Ġprov iding
ĠHen ry
ĠEl iz
ov a
ul f
Ġexc ited
w ise
Ġd uty
Ġfun eral
ĠP re
Ġacc ounts
ĠN ic
Ġd omin
Ġre action
Ġpass enger
Ġco al
bre ak
Ġunderst ood
ks hire
Ġy ellow
Ġphotograph s
Ġteen agers
Ġrepeated ly
Ġbag s
r um
Ġinvol ve
ĠT re
Ġ3 8
Ġal tern
Ġreg ister
Ġdisapp ear
ĠC ub
Ġmod els
ĠRes earch
Ġrece iving
i ated
Ġhas n
Ġn ations
Ġsudden ly
arr ass
ĠT y
ist ics
ĠS ol
Ġcons ult
Ġdecl ined
Ġnot ed
Ġtour ists
ag ement
Ġret urning
ĠF oot
Ġwith d
ĠE ric
ĠAn thony
ortun ately
Ġstrugg ling
Ġstay ed
ĠSt r
Ġclos er
Ġac know
ĠFore ign
Ġcom ed
ĠC EO
ack s
Ġam id
Ġun ivers
l ong
u ly
ĠPro s
ens ions
ĠU s
g us
Ġ urg
Ġfl ights
Ġsqu are
ĠF ox
Ġ3 7
are z
Ġfl o
h i
f oot
9 0
Ġdefend er
ol a
Ġdeter mine
Ġvisit ing
Ġclot hing
Ġequ al
Ġinst ruct
Ġhold s
ograph y
Ġcreat ing
Ġ4 8
u pp
as tern
ĠD utch
Ġb le
Ġp al
Ġd aughters
Ġstr ange
Ġr ising
Ġpres ence
Ġdef ence
ĠMar ia
Ġ4 2
ĠL ake
Ġcomfort able
I s
Ġg ain
ĠL ind
Ġdec isions
h our
Ġsec retary
vest ig
Ġbring ing
Ġperform ed
Ġbecom es
Ġset t
v ant
Ġdeb t
ec e
p ay
Ġre act
Ġbre ast
Ġstat ements
ĠSup reme
ĠPort ug
T ube
ĠMic hel
ru pt
Ġcomput ers
Ġm aster
Ġn ur
ĠL o
Ġmil k
Ġfavour ite
Ġencour age
le ts
Ġsc oring
Ġorig inally
Ġgener ally
Ġsu st
ĠHot el
W ith
ĠGa al
Ġp ushed
Ġocc up
as ters
ĠCon n
Ġabsolute ly
m akers
Ġprov ides
ĠTal iban
Ġw ore
ĠComm un
Ġd ry
urb an
am in
Ġeas tern
Ġspl it
Ġconst ruction
Ġcommun ities
por ary
com ing
ĠBe ach
Ġtal ked
b illion
Ġter rit
ĠM ess
os ure
Ġat mosp
Ġsu c
Ġst olen
Ġdam aged
ar ch
ĠMed ical
I N
ĠCons erv
keep er
ĠG al
Ġpro ved
ĠPal est
Ġcritic ism
Ġf ant
stand ing
ĠTur key
ĠC al
ĠAb out
I C
Ġmist ake
Ġath let
ĠB or
ĠL ife
ĠEar lier
ĠD ou
ĠDe v
3 00
p art
Ġt ired
Ġple as
Ġcon g
Ġg at
Ġnot es
ĠFam ily
otten ham
ĠChampions hip
ĠAnd y
Ġret ail
ĠLew is
ĠOn ly
Ġworld wide
az a
Ġt ight
z ona
Ġfr ust
Ġident ity
Ġbas is
Ġh ole
Ġsec ure
ned y
id el
Ġfor med
b oy
ĠD irect
ur d
ĠCent re
Ġ198 0
ĠK elly
Ġstud ying
Ġinqu ir
ĠY et
ĠR og
all ing
ĠYou Tube
et ts
Ġcamer as
ul ance
Ġfr uit
Ġst ick
Ġl ying
B S
as hes
Americ an
Ġt on
Ġter rible
ĠR ay
Ġsympt oms
Ġrel atives
in ct
ol k
ĠF ord
Ġelect ions
b ro
e xt
Ġsub st
Ġman s
Ġexch ange
st ers
Ġmy ster
Ġd ressed
ĠSe a
Ġquestion ed
ĠEliz abeth
Ġsym bol
Ġsurv ived
ĠG ard
Ġtyp es
Ġdis aster
Ġsupp ly
ĠT ory
Ġcol our
Ġlux ury
Ġint ended
Ġed itor
ĠK evin
Ġarch it
Ġfeel ings
Ġd ed
Ġpat tern
Ġhouse hold
Ġmov ies
Ġlawy ers
Ġinvol ving
ĠUS A
Ġroad s
b an
Ġinc hes
Ġpolic ies
ĠAd am
iam i
is hes
Ġur ged
Ġpl at
bour ne
Ġl iber
Ġqu al
Ġcircum stances
Ġem pt
ab led
Ġarg ued
Ġtarget ed
Ġan alys
Ġconfir m
Ġhead s
af e
Ġo cean
ĠC ard
Ġtick ets
st ar
ĠKen nedy
Ġassoci ated
az i
Ġsurround ing
Ġlaws uit
Ġr ushed
ĠN orthern
Ġdisc over
re es
ĠS av
al ed
ep h
ĠM att
ick et
ter ed
Pol ice
ĠC orn
ĠY our
ĠM our
Ġper man
Ġha bit
ĠA gency
ĠFor ce
ĠE r
B e
ĠCol or
ad ian
Ġbl ind
Ġkn ife
Ġret ired
ming ham
Ġw estern
Ġhous ing
ru ption
Ġbasket ball
ĠB ow
Ġhapp ening
7 5
Ġp ock
ĠAl so
Ġpun ish
clus ive
Ġear ned
Ġs ounds
Ġlarge ly
ĠScott ish
g l
ĠSouth ampton
ĠDie go
i at
Ġw ine
ic it
Ġch ances
ĠMill er
Ġstrugg le
Ġrepl ied
ach us
ĠN avy
Ġconduct ed
Ġshot s
Ġreal ized
Ġsh ar
Ġdirect ion
Ġprov ince
Ġdep art
w ich
ĠR ock
Ġcal m
Ġmet al
ĠHoll and
ist or
Ġtr agedy
v a
Ġsold ier
ĠIn c
Ġslow ly
ĠHum an
Ġd ating
Ġcon cent
Ġsong s
Ġdet ect
f ire
ac ters
Ġboo st
ocol ate
Ġrap id
Ġdead ly
osp itals
Ġwe igh
Ġinn oc
g a
ĠM ir
et te
ĠH ay
Ġopp on
ivers ary
Ġfl ed
Ġ197 0
Ġsm oking
ĠAri zona
Ġsoft ware
b el
ĠBel g
Ġs ons
ut ation
Ġsign ing
Ġchild hood
ir ts
Ġpresent ed
ĠH ug
Ġkil omet
ĠB ol
Ġtest ing
Ġless ons
ad er
ĠMP s
r un
Ġident ify
Ġchalleng es
ĠFrancis co
ih ad
Ġimp ossible
Ġemb arrass
Ġsh irt
em ploy
Ġn ative
Ġv ast
Ġgrand mother
Ġr ough
Ġact ing
os is
Ġrepl aced
Ġele ph
Ġbreak fast
Ġrout e
Ġfun ction
Ġm ort
' ]
ĠBir mingham
Ġfew er
k o
ĠG reek
Ġhon est
Ġr aid
ri fic
ĠN A
achus etts
Ġpl enty
Ġpl ot
Ġstar ts
ak en
Ġmother s
Ġ[ '
b its
F L
Ġbl ame
ĠM iami
3 6
Ġb oot
ĠAb d
Ġfood s
we ight
S p
Ġfoc used
Ġgun s
Ġswe et
Ġsur ge
Ġcons ist
Ġwh atever
uc he
ĠG P
Ġan ger
Ġoccas ion
Ġ5 5
Ġdist rib
y ou
Ġ rival
us ion
Ġl ie
Ġ15 0
iz z
Ġs ession
Ġrem aining
the w
t t
Ġb ars
ĠL ike
ipp ing
ĠSw ed
Ġcond em
Ġcon sequ
Ġso le
Ġhon or
Ġsurv ive
Ġh am
ĠB et
ĠMin istry
ĠĠĠĠĠĠĠĠ ĠĠĠĠĠĠĠĠ
ord s
pl ace
Ġsur ve
Ġprop osed
ab or
Ġchar acters
Ġs ought
Ġneighb our
Ġdeb ut
Ġincred ible
Ġt ennis
Ġlab or
Ġmic ro
Ġbre aking
Ġpass ing
Ġa uction
gus on
p ers
if ts
Ġre duced
Ġwound ed
ĠRober ts
Ġl ibr
Ġsc r
Ġcult ural
ri p
Ġmag n
ĠJ ose
att an
is her
ĠAuthor ities
i as
Ġbroad cast
Ġab road
ile y
B A
Ġvar iety
ĠB us
ĠO k
Ġweap on
rel ated
Ġcl oud
est yle
ĠF in
ĠA re
ĠA h
2 1
os en
az e
Ġsuppor ted
f ile
o om
Ġtrans form
Ġn or
ĠS ky
Ġ4 4
ĠO sc
ĠT ottenham
Ġast ron
Ġphotograp her
it a
Ġrec ru
ĠJ ane
ic ip
hen s
itz er
r ate
ĠC at
ri a
Ġbot tle
Ġ4 3
Ġposs ibility
Ġprom ised
Ġh all
Ġinterest s
Ġmilit ants
Ġse es
ĠJ am
Ġfall en
Ġnur se
Ġch ose
Ġac ts
Ġthreat s
Â £
Ġt ask
Ġche st
if orm
Ġmed icine
on er
au g
st ate
Ġstay ing
Ġexperi ences
Ġtr ained
uc ks
ĠMar s
Ġgat hered
ĠAtt orney
Ġan x
in er
Ġag ents
iz es
Ġse ats
w orth
ra v
ĠMor gan
Ġtom orrow
Ġm er
mit ted
Ġrestaur ants
Ġhop ed
c ont
Ġfail ing
Ġann iversary
Ġthe ory
s es
E A
The n
Ġhistor ic
ĠP an
ĠSec ond
w w
ĠSt adium
Ġposs ibly
ĠM un
ĠFound ation
Ġinit ial
Ġdescrib e
Ġ3 9
Ġknow ing
Ġs ear
Ġthough ts
Ġshop s
ĠPr in
Ġst eal
ens es
ĠColor ado
if er
Ġcr ashed
Ġdesign er
Ġv ess
ĠY or
Ġbeg ins
Ġb ond
ul ner
Ġatmosp here
Ġmay or
Ġple ase
ĠDav is
Ġn ose
ĠT en
Ġfeat ured
Ġro of
m ad
er en
ĠE s
ĠMass achusetts
ĠPar liament
ak s
2 3
Ġgover nor
Ġg olf
Ġover all
Ġdig ital
Ġch ain
Ġattem pts
Ġ +
Ġexc iting
Ġf estival
Ġep is
Ġs ection
Ġgr ass
ĠFer guson
our nal
ĠB a
ĠArgent ina
Ġinvest ment
Ġqu alif
ĠD am
ĠPalest in
Ġpre c
Ġpar king
Ġdr inks
Ġst uck
ĠPut in
ra h
ĠU p
Ġbr idge
Ġarri ve
Ġinv ited
Ġfund ing
Ġbeat en
Ġpar liament
uche ss
Ġ #
id ays
em b
mark et
Ġf aster
Ġwel come
Ġelder ly
Ġ6 5
Ġsusp ects
Ġ201 6
Ġtest ed
Ġsleep ing
ĠCon t
Ġf ought
Ġ7 5
Ġo ption
Ġgood s
ĠAl an
Ġrem ote
Ġfor ms
2 8
ĠI ts
Ġt im
Ġnum erous
n ic
ste in
ul ted
Ġdeliver ed
Ġoper ating
Ġaff air
Ġc oc
Ġl oud
Ġ4 00
Ġc e
Ġt ur
f all
c ow
Ġimport ance
ann a
Ġm ap
p et
Ġsol ar
r ad
le ase
ĠC ross
ĠAm ong
ĠMan h
min ute
Ġcomplain t
Ġproper ly
Ġcor por
Ġimmedi ate
ĠM and
2 6
ĠZ im
Ġ ut
Ġg all
Ġk ick
Ġst adium
l a
ro at
Ġadv ent
ar io
Ġj oy
Ġs ch
olog ists
Ġauthor ity
Ġannoun cement
Ġre jected
Ġfac ility
Ġrefer red
ĠIn vestig
Ġb are
Ġ icon
ĠMat thew
ĠW ind
P R
ĠT ime
Ġcoll aps
E x
Ġclass room
Ġh al
ist ol
ĠS ud
p ir
Ġj et
Ġbath room
ĠSqu are
ĠVal ley
Ġsc ream
Ġret ire
ĠOh io
ĠH or
Ġtrans l
Ġban ks
Ġte eth
Ġtravel ling
Ġh ung
Ġbal ance
Ġun ion
O T
Ġm ent
Ġsche me
Ġcomm and
Ġtele phone
Ġheav ily
he ast
Ġj ack
H er
ig aret
Ġconn ected
Ġn one
Ġtravel ing
Ġdem ocr
ĠPros ecut
Ġv irt
Ġprep are
ĠCh o
Ġscient ific
2 7
ag ram
Ġf ighters
Ġsol ution
D o
Ġdr ag
Ġemploy ee
ĠH ou
Ġme als
ĠRo oney
Ġass ess
le c
Ġke en
Ġwat ers
ok es
Ġ4 6
Ġp ig
ĠC oll
ĠManh attan
Ġcare fully
ĠBr idge
om ach
Ġbe ating
Ġk iss
Ġdoz ens
ĠH art
Ġpup ils
Ġr at
ĠAc ad
Ġmot iv
Ġb in
Ġjump ed
Ġde ploy
Ġear n
Ġun less
ĠC ook
Ġr um
Ġegg s
Ġmaterial s
Ġrec overed
ĠTr ust
Ġm ax
4 00
ĠH un
Ġdo ors
ĠRe ad
Ġtr uly
Ġt ort
h ow
r age
ĠB ern
Ġg ym
Ġdri ven
ĠGre ece
Ġunlike ly
Ġimag ine
Ġv ice
ĠW omen
Ġdisapp eared
Ġra ising
Ġlead s
Ġland ing
Ġres ist
ĠF ort
Ġcommun ication
Ġlegisl ation
im p
Ġconsid ering
Ġenvironment al
ĠL ittle
Ġs le
Ġsat ell
ĠOr gan
Ġw eren
Ġl ies
Ġpass ion
Ġcustom er
ĠS um
Ġempt y
Ġapp rec
Ġp ub
Ġt un
Ġarchit ect
Ġland ed
Ġpot entially
d ict
Ġt or
ĠL ove
ĠAl i
Ġst ock
ĠCost a
b ell
Ġw ave
ac he
r ance
ech an
Ġtrib ute
Ġed ge
Ġset s
Ġview ers
Ġv ulner
ĠA BC
ĠG OP
Ġevery body
Ġstruct ure
Ġrout ine
op her
Ġref uge
Ġhe ight
Ġli ked
h alf
ĠB urn
Ġthr own
Ġdisc overy
Ġl ink
Ġturn s
ĠF I
Ġadd s
ĠB est
ĠD er
ĠCan adian
Ġdivor ce
Ġpan el
ell i
ever al
Ġpoin ted
at o
ĠG ary
Ġno ise
Ġbr ut
Ġcomplain ts
Ġgr anted
ĠBar b
i able
Ġun iform
Ġext rem
Ġatt itude
Ġopportun ities
ill ance
Ġacc omp
Ġjoin t
Ġansw ers
Ġsu bs
Ġexper iment
Ġfund s
ĠP ublic
Ġstrugg led
Ġst omach
ro s
ĠAs ian
ĠM a
ĠE duc
Ġcandid ates
n i
C l
Ġrelationship s
ĠYor kshire
as y
Ġreal ize
u ana
Ġhapp iness
ĠT own
Ġche ap
aw ay
Ġn ar
Ġclose ly
ate gy
Ġrest rict
ex p
ear ing
ĠAtlant a
iver se
Ġdep ression
p ut
Ġearthqu ake
Ġwall s
Ġhelicop ter
ĠD uchess
Ġcop y
Ġleg end
Ġte ens
Ġch ocolate
Ġon going
Ġch osen
Ġh ate
Ġcont acted
How ever
Ġveget ables
Ġthe rap
Ġenc oun
ic ient
Ġfle w
Ġg e
Ġbad ly
ĠL ady
Ġbur ied
Ġfat al
Ġpred ict
ĠAb b
Ġvolunte ers
Ġkill er
ĠEv ans
ĠFoot ball
h and
ĠS aud
Ġconsum ers
Ġro se
Ġarg ument
Ġrob ber
ĠMour inho
ad en
Ġev ac
Ġsc ale
Ġo dd
Ġb ull
Ġfound ed
Ġsa v
Ġsil ver
Ġcompl ained
ĠS ee
Ġrem ark
ic ts
Ġw aves
Ġcr ack
Ġhead ed
Ġcar bon
st one
ag h
riv als
Ġdescrib es
m o
ĠEver ton
Ġwind ows
Ġplat form
ib and
Ġadop ted
he m
Ġaward ed
Ġl isted
c les
A R
Ġ4 1
ĠF eder
ĠRe v
ĠSant a
ĠM od
ĠDo ct
Ġun ve
od d
Ġteen age
ac her
ĠCath olic
Ġhad n
ĠS k
ar ant
Ġbl ow
Ġacknow led
Ġro c
van ia
th a
ĠAlex ander
ĠOx ford
Ġwitness es
ĠC y
Ġch at
Ġag encies
ĠÂ »
az z
st al
en ch
Ġgu ide
Ġadv oc
y e
we ek
Ġsuc ceed
L e
Ġcl ash
Ġstud ied
Ġexpl ains
ĠScient ists
Ġb ills
er ves
Ġsit u
Ġt um
Ġdep uty
ass y
2 9
ĠF red
Ġtast e
oun ted
Ġbreat h
Ġour selves
Ġh ospitals
Ġart ists
ĠS ometimes
Ġaff il
ĠTh ough
ij uana
Ġjournal ist
ol ved
ĠSom al
Ġcrit ics
ors es
Ġo ptions
ĠAnd erson
ĠMil an
ĠSn ow
u its
Ġdefin itely
og ue
Ġelect ed
end ers
sy l
oun ced
Ġcon cept
Ġexp osed
ĠO cean
ac ity
ĠEx per
Ġansw ered
Ġth row
Ġsu gar
iam ond
Ġus ual
ans as
bur gh
str ong
ĠDis ney
ĠPac ific
3 9
3 7
de g
ĠB ell
ac le
ir ation
Ġr u
ĠIr ish
ĠC op
Ġdeep ly
ĠI ll
ro c
el ine
Ġdes k
Ġun h
w ith
Ġ4 7
Ġairl ine
as er
Ġ /
old s
Ġc raz
ĠHou ston
ĠAll en
ĠB ook
ĠJ ay
Ġb urg
ĠRonald o
ĠF ederal
Ġcover age
ask a
Ġpriv acy
Ġfil med
om ing
Ġref lect
ĠG et
oint ment
Ġamb ulance
ĠAtlant ic
Ġth rew
ĠMil iband
ĠMex ican
Ġposs ession
ĠSt an
um ber
ĠMel bourne
Ġspar ked
ĠR el
R ep
Ġ @
syl vania
im al
af i
ĠMos cow
ĠHar ris
Ġsem i
ult ure
Ġord inary
ĠU N
Ġopin ions
b a
ĠHam ilton
Ġpublic ly
Ġimp ressive
Ġpoll ution
ĠJ ac
Ġrev olution
Ġz one
ĠMar c
Ġb acter
Ġfound er
Ġhead ing
ĠT s
ump ed
Ġwe b
Ġis ol
ĠSp ec
Ġpros ecution
re al
Ġfun ny
ĠLib ya
Ġcomp ens
Ġpro jects
Ġaband oned
Ġter min
ĠM en
Ġmo ves
Ġconserv ative
r ich
ĠW ater
ĠC are
Ġtal ent
and ez
Ġc ateg
Ġf inger
r ates
ĠPrin cess
w rit
ĠBro ok
Ġfamil iar
Ġelectric ity
Ġstr ategy
ĠDef ense
Ġlif estyle
ĠW he
Ġapp ropriate
Ġjournal ists
Ġsc ores
ĠMc G
ul ous
Ġbl amed
ust ed
ord ers
Ġshould n
ĠG all
Ġris ks
ĠMichel le
l an
Ġsc re
Ġpro sp
Ġinquir y
b u
s ec
Ġres ort
c alled
Ġdis s
Ġlangu ages
Ġrep utation
ĠM other
Ġl ift
Ġl ung
Ġdefend ant
Ġwind s
Ġmem ories
er a
ĠU t
Ġsome body
ĠCo le
s ewhere
Ġcut ting
ow ell
Ġrepl ace
p oint
Ġstr ict
Ġscen es
el and
Ġpro ceed
ĠJew ish
Ġpain ting
Ġinf ection
ĠSp ace
Ġobv iously
Ġc ode
Ġr om
Ġprosecut or
Ġco oper
Ġfac ilities
Ġdec or
Ġpl ed
bor ne
Ġdoz en
Ġpolitic ians
Ġmurd ered
Ġto uc
Ġsex ually
Ġn erv
ĠDu ke
Ġcont ains
Ġdis order
ĠSu arez
Ġb ound
Ġimpro ved
l ah
ra f
t urn
Ġsurpr ising
ch ing
ag an
ord on
ĠCh annel
ĠW ild
ĠCo oper
Ġslight ly
ĠC ru
ĠT op
ĠIraq i
ĠJos eph
Wh y
Ġf ill
I P
Ġadv ance
ĠAcad emy
ĠPenn sylvania
ĠSt aff
Ġd rawn
ĠP S
i ot
em a
Ġreb els
ĠCharl ie
ĠMay or
Ġincident s
ĠEd ward
Ġ4 9
quar ters
Ġre ward
Ġste pped
Ġm ine
Ġsm ell
aw n
Ġexc ell
3 8
Ġfire f
Ġpo ison
Ġperson nel
duc ing
ĠA irl
Ġst ations
Ġn om
Ġnorm ally
Ġconclud ed
Ġth in
ĠM u
Ġ19 60
Ġencour aged
Ġd ying
Ġsusp ic
c are
Ġold est
Ġcapt ure
ad el
Ġt ied
Ġpri ze
f ree
Ġcl ient
Ġnew ly
ĠSaud i
Ġp owers
ĠL anc
ĠSh an
ĠK erry
Ġapp ly
ĠR ights
ĠV eg
ĠSoc iety
M any
Ġadop t
Ġany where
Ġinqu est
l ines
Ġval ues
Ġph il
Ġdet ail
Ġto ile
3 2
Ġun known
ĠPh ill
Ġnegot i
ĠF riend
am m
ter ling
ĠOsc ar
Ċ ĠĠĠ
Ġar rival
Ġqu it
Ġmed al
ĠJ ournal
ĠB rian
Ġkeep s
ĠAn y
ort ion
Ġem p
Ġappro ved
Ġuse ful
ĠM ax
Ġh idden
ar ry
Ġo x
âĢ Ķ
ĠLe on
Ġground s
cl ass
Ġer a
Ġcan c
z en
Ġex clusive
Ġvot ed
ĠV illa
ĠS her
esp read
Ġcelebr ity
Ġcour ts
Ġmon it
Ġres ign
oy al
Ġfore st
Ġcamp us
Ġcomb at
r ain
Ġrelative ly
Ġh ide
ust er
Ġtax pay
ĠB oe
ĠSt and
Ġimmig rants
Ġun employ
Ġthere fore
Ġfish ing
Ġm ath
it o
ol i
Ġfoll ows
Ġ199 9
ĠSh ow
Ġcon stitution
ĠN BC
ĠI d
ed ing
Ġfact ors
Ġj ur
c ling
ĠI an
Ġacc ur
Ġdream s
Ġhol idays
ĠAr ch
oot h
Ġp ed
Ġtra il
Ġmat ters
Ġinvestig ate
w hel
Ġrequ ires
Ġdisc ipl
y on
ie v
elf are
Ġob jects
Ġmar ks
ĠL ook
Ġcelebr ates
ĠTur k
I V
Ġcollect ed
ass ador
ĠM arg
Ġtr agic
z h
Ġh y
rif ied
h us
v y
Ġaltern ative
Ġwrit es
ad ow
Ġren t
R A
Ġs isters
ĠSt ill
Ġdeal ing
ĠBec k
Ġl uck
Ġintern al
Ġevery where
Ġm echan
Ġdeg rees
Ġdep end
Ġagg ressive
ob s
n am
Ġst ream
Ġstr ing
Ġag es
Ġst ro
an o
ĠF ood
Ġhard er
Ġlo ves
Ġf ro
Ġcou ples
od es
ol ph
Ġj u
ĠC C
Ġj ew
8 00
Ġmar ked
.... ....
est y
ost er
** **
Ġprison ers
Ġsurve illance
Ġdismiss ed
Ġt ie
Ġtarg ets
Ġst ated
ĠGl ob
Ġsub sequ
Ġcr uc
t wo
ĠH amp
ĠPat rick
Ġcry ing
Ġwin s
ian g
Ġlist ening
ord inary
Ġdiffer ences
l s
Ġmar ry
Ġsearch ing
wor king
Ġappl ication
ĠH od
ĠK ir
Ġrepor ter
Ġm os
Ġr ural
ĠEduc ation
Ġindepend ence
ĠB ul
Ġstrong er
ĠR a
Ġe ur
Ġw et
ug by
ĠGra ham
Ġoverse as
Ġdes ire
om pl
ĠJ ason
Ġtax i
Ġorganiz ations
Ġl aid
ĠR oss
Ġrecomm end
ĠPhil ipp
ĠL as
Ġcomp ar
Ġprom ote
m outh
4 7
Ġsh aring
Ġfe e
Ġconn ect
ĠS ov
Ġper mission
ĠCol umb
Ġactiv ists
ĠG reg
Ġrel ief
Ġvulner able
ob by
Ġb es
over ty
ĠAr m
d og
ĠP ers
ĠO per
Ġprof ile
ĠH u
ĠR ose
Ġmist akes
s he
ĠMess i
ĠR ick
Ġg ained
ĠZ h
Ġentire ly
o ard
d s
ĠF estival
anc er
Ġbr ings
Ġtyp ically
il a
ol n
Ġse ized
Ġloc ked
Ġsupport ing
or r
Ġenjoy ing
Ġp apers
Ġvac c
ĠAb u
t ic
Ġmar ijuana
Ġprep aring
Ġaim ed
p orts
Ġcompet e
ĠMal ays
ĠM ah
te en
Ġcre am
ĠInd ones
ĠF ab
ĠMich igan
ĠR em
Ġcivil ians
Ġappro ached
O h
Ġsurround ed
Ġfact ory
Ġan onym
ĠR ome
Ġins ist
Ġsing ing
Ġgu ys
Ġver dict
Ġbr own
ĠWat son
b ox
Ġg reet
u able
Ġsl am
ff ord
Ġcontin uing
Ġsp ons
w an
Ġsc ared
Ġmem orial
Ġ5 2
iss ions
Ġwid espread
ĠInst agram
Ġoppos ite
Ġexp and
st yle
Ġc igaret
abin et
Ġveter an
ell or
Ġkn ocked
ra ig
ĠN FL
ĠIran ian
ac hel
Ġanalys is
ac re
ĠJ r
ĠFoll owing
e qu
Ġd ial
ĠFI FA
aren ess
m ph
Ġpl us
if ying
ing ly
Ġout break
ĠL am
v in
ut ies
Ġtot ally
Ġcreat ive
Ġcollaps ed
ĠB ang
ĠQue ens
Ġpock et
Ġback ed
Ġexplos ion
ĠS everal
ĠLe ices
D on
ĠK han
Ġgrand father
ĠMuslim s
Ġun n
T wo
5 5
Ġindust rial
ĠM ot
Ġperman ent
t es
Ġcon ce
ecut ive
6 00
ĠW ayne
Ġcontrovers y
Ġread ers
Ġput s
3 3
Ġc rop
Ġprom ise
Ġterror ism
ish op
J ust
Ġkn ee
ĠP ot
Ġv en
S P
ĠAirl ines
Ġint ention
an es
ir a
Ġfact or
z ing
Ġstab bed
ĠP op
Ġnewsp apers
Ġbe er
_ _
Ġunivers ities
Ġg ap
b les
ag ger
ĠL ater
w ear
or al
ec ess
Ġass aul
e or
Ġ ing
Ġv ital
ell er
Ġgovernment s
Ġacc us
ant ic
Ġatt racted
Ġesc aped
inc oln
Ġp ages
Ġcontroll ed
Ġp orn
wh ich
ren ce
Ġfe ared
N ot
ess ions
ra pped
ĠS terling
ĠLa ure
ĠVeg as
ĠC D
Ġoff ences
Ġsh ips
Ġord ers
Ġh orses
Ġgu arant
Ġf itness
Ġadvert ising
Ġdise ases
ĠJos h
Ġnerv ous
Ġhand le
C C
lah oma
ĠLe g
Ġbre ad
ĠWe ek
ĠL aur
Ġd rew
Ġmin imum
al ing
Ġappl ied
i ences
el son
av al
b rit
Ġth ick
Ġch icken
-- --
Ġadm its
m ade
Ġend s
ĠE mp
Ġd u
Ġform al
Ġsurv iv
ĠN ap
4 8
ĠSoc ial
Ġas ks
ĠS af
Ġt act
Ġprofess ion
ph ia
Ġre vel
v ard
er ted
Ġrem arks
ĠS outhern
Ġeng aged
Ġtour ist
et ime
ĠF il
Ġfind s
Ġmention ed
Ġvac ation
Ġplan es
Ġdr unk
Ġjoin ing
ĠLat in
Ġj oke
Ġdesper ate
Ġple ased
Ġreve als
J o
ou ri
Ġ199 8
Ġhom eless
## ##
ol ar
Ġcal c
Ġp ension
Ġsuppl ies
Ġf ake
Ġmix ed
Ġdisc rim
c ol
w all
Ġthreat ening
ĠT est
Ġ( Â£
it age
Ġassist ance
adel phia
Wh ile
ap se
Ġstri kes
az on
Ġrock et
Ġacc ompl
er g
Ġthe at
ĠSu pp
brit ies
Ġlibr ary
ĠRob inson
ĠB ru
Ġins ists
Ġfield s
Ġofficial ly
g ment
ĠB ack
Ġfrequ ently
ĠL and
ĠG en
ĠKing dom
ĠG ulf
Ġvis ion
Ġother wise
or ous
Ġo w
ĠJe an
as ion
av en
it ary
3 4
ar re
Ġuncle ar
Ġp in
Ġsc ar
Ġrelig ion
um ed
ĠAn ton
ĠR h
ĠSw an
Ġtra um
on na
Ġent hus
as ks
Ġear ning
Ġhit ting
Ġem ph
i ques
Ġsw itch
it able
ĠL isa
ĠShe riff
ol itan
Ġp it
Ġcelebr ated
Ġshould er
ather ine
Ġind ic
ĠCr ime
D A
re ck
Ġcho ices
ĠH om
Ġl ake
ath y
Ġcomb ined
Ġatt ending
Ġtax es
ing ton
man n
Ġst unning
ĠOk lahoma
Ġexcell ent
Ġbur ning
I I
f e
ch air
Ġsh ift
ĠN ev
Ġmount ains
Ġhigh l
M A
ĠT erry
t a
ĠAnd re
Ġsub jects
ĠChrist opher
in ating
ol ly
Ġfoll owers
ath on
Ġstr ateg
Ġli qu
em ble
Ġs ac
ĠB as
ĠCol omb
Ġterror ists
ill iant
gh ai
Ġ0 8
ĠF ern
ĠTe am
Ġfr ight
Ġmet ers
. )
et her
Ġmax imum
ĠG h
Ġp ink
Ġc ats
ue z
B l
so ft
Ġp ushing
Ġfac ts
Ġoff ensive
ap es
Ġhot els
Ġclass ic
Ġre in
Ġhom ework
Ġsuccess fully
Ġterrit ory
ĠW ork
ĠCC TV
Ġproced ure
m ers
Ġmet res
Ġjud ges
Ġext ended
Ġdram a
ĠDirect or
Ġtri es
ĠBr other
ĠL incoln
Ġsol id
Ġman age
Ġreg ional
Ġt orn
ul s
Ġfe es
ĠT urn
Ġconsequ ences
u per
Ġto ys
Ġt ail
enn y
Ġpopular ity
ĠB ab
all as
Ġpregn ancy
ĠJon athan
Ġun w
ĠH ear
ann ah
Ġpropos al
Ġc a
Ġc ous
Ġm al
Ġex cess
Ġwa ited
os ition
act ive
Ġshe ll
Ġ x
Ġsix th
Ġsal t
E N
ĠRad io
Ġg ifts
Ġha bits
Ġhun ting
ĠP ope
Ġcont ained
Ġmach ines
Ġrec alled
Ġcritic ised
ĠF air
Ġh ang
Ġin fer
ĠNiger ia
ĠPhil ip
ĠSov iet
g un
Ġn obody
Ġsh out
omm od
id ers
Ġg ro
Ġconv iction
ver se
Ġcas ual
Ġcl ock
Ġw elfare
Ġ5 4
Ġarri ving
ell o
Ġcont em
ĠJenn ifer
ir ates
ĠHaw ai
Ġobtain ed
Ġf ault
Ġis lands
Ġprom pted
Ġtrip s
ĠS ub
Ġr iding
Ġscient ist
Ġover whel
Y es
Ġse vent
Ġyoung est
or ough
ĠJess ica
Ġparticip ants
Ġwal ks
Ġj e
ĠTh anks
P r
Ġcoal ition
Ġcle ared
Ġpers u
p an
x imately
ast y
Ġ rivals
in ent
Ġtra pped
anc ellor
itzer land
ĠCl ass
the y
Ġem br
ĠPhil adelphia
p ass
Ġsh ocking
Ġmus ical
Ġcong ress
Ġappear ances
Ġinform ed
Ġ ?
yp e
Ġreach ing
ĠBro ad
Ġtool s
ut s
ĠEx p
Ġm ile
Ġcap acity
ĠF re
Ġres ulted
Ġgoal keeper
Ġe c
omp son
Ġadminist r
Ġ5 6
Ġoffic es
Ġinvolve ment
in ations
Ġcap able
Ġpos itions
ct ic
ĠAssoci ated
y o
Ġc ock
ĠN ob
Ġh ired
ĠS ix
Ġtown s
cent re
Ġshar p
Ġmark ets
Ġsh all
ere e
ÂłÂłÂłÂł ÂłÂłÂłÂł
r ome
Ġreg ions
Ġreal ised
Ġ199 7
Ġso il
ĠS erv
Ġren ew
Ġtravel ed
Ġsk i
Ġrac ing
ĠO K
Ġbatter y
Ġdel iber
ĠSt one
ab et
Ġathlet es
in ate
i very
ph ic
Ġcommun icate
ol as
ub bed
ĠComm on
Ġsp ell
Ġmethod s
ĠWh it
Ġfant astic
or a
ĠN ich
Ġgr ade
ĠM it
it arian
Ġcon clus
Ġst amp
ail and
Ġrec ording
ĠEm ma
ic ing
Ġded icated
Ġeth nic
l i
ĠSp ring
Ġdocument ary
ĠAsh ley
Ġaut omatic
Ġimp lement
E S
is ers
Ġproper ties
Ġt ank
un ior
Ġbase ball
ĠEgypt ian
Ġaw areness
Ġdem ands
M ost
Ġattack ing
ĠSe attle
Ġwor n
Ġobv ious
im a
Ġvot es
Ġnar row
Ġsh ares
ĠMar sh
Ġneighb ors
ĠG ordon
ĠK o
Ġ5 1
ĠV ill
Ġp overty
Ġpurch ase
ĠR io
Ġeffective ly
ĠMo ore
Ġsatell ite
ĠNA SA
p re
w as
Ġt ies
ac c
ĠTurk ish
Ġentertain ment
t hen
Ġsc an
Ġgu ess
Ġint ent
Ġepis ode
Ġcontr ast
Ġfore ver
ĠF ree
Ġburn ed
ĠG un
Ġend ing
ĠAd minist
Ġam ounts
Ġcount y
Ġult imately
ĠChrist ie
ĠSw itzerland
ĠG irl
Ġf est
ĠAm azon
g irl
4 9
ang es
ĠH ard
ph ones
es us
ate ful
Ġthous and
th at
Ġperform ing
Ġint ense
Ġdis abled
Ġsol ve
Ġcare ful
ĠC raig
Ġperson ality
Ġextra ordinary
ĠG aza
-- -
c ons
ĠF e
Ġsan ctions
Ġwithd raw
ĠWal ker
Ġbreat hing
Ġtest ified
Ġcoc aine
Ġgradu ate
Ġ iron
Ġloc ations
f ound
Ġvis its
Ġav o
Ġarg ue
Ġpunish ment
Ġconcer t
Ġdisapp ointed
Ġtest im
ĠRes earchers
s m
Ġv ent
che ll
pir acy
resp ond
Ġs ector
ĠMic ro
ĠJim my
Ġfir ms
Ġext ensive
ĠLu is
Ġachie ved
Ġelect ronic
Ġl inks
ĠC all
or ious
Ġbra ve
deg ree
A F
Ġne ither
Ġbeh alf
Ġs its
Ġfarm ers
Ġkilomet ers
Ġdisc l
Ġn ick
Ġshel ter
Ġm and
ĠAn na
Ġrad ical
Ġk icked
ow ered
ĠSc ience
Ġd ancing
Ġs am
ĠB ond
ĠShan ghai
Ġcompens ation
ĠW enger
ĠHer n
d oor
Ġpr on
Ġun its
ĠS a
ĠConn ect
l ow
Ġg ent
ay ing
Ġcook ing
Ġh its
ĠP el
Ġst y
ter y
ĠH old
ĠCl ark
Ġinvestig ated
Ġw ire
os h
Ġbl ank
Ġtr ains
Ġcol on
ĠRod gers
Ġp ose
W ell
ĠTh ompson
Ġgu est
d on
Ġinv ent
ĠD ave
Ġpay ments
ĠV iet
Ġmin isters
Ġbomb ing
c ase
Ġdis pl
ĠR ub
ĠA p
Ġphil os
Ġresc ued
Ġstrong ly
ĠP en
ch ildren
ard o
ĠC IA
Ġdes ert
ĠLeices ter
Ġwild life
Ġt ear
Ġw ard
ach ing
Ġtack le
m aker
r ical
ĠY es
Ġbacter ia
Ġb ench
Ġf ing
ĠTh ailand
ĠOther s
Ġt ip
ĠF al
ĠSus an
ĠW right
ĠE astern
Ġdraw ing
Ġbr anch
Ġdemand ed
AT O
Ġremember ed
L A
Ġl ad
ĠP ower
Ġover night
Ġtw enty
Ġcele brities
ĠIn t
Ġout rage
Ġl ock
Ġf ile
Ġpack age
Ġregard ing
Ġinnoc ent
ĠP M
Ġstud io
A d
ĠT echn
Ġacc ommod
ic ut
Ġ urban
Ġc ow
Ġcor ruption
Ġexper im
Ġexist ing
Ġm ut
ide o
Ġtyp ical
ĠHamp shire
ĠN at
idel ines
ĠJam ie
Ġcommit ment
Ġreport ing
Ġrepres ents
ino is
ĠB ry
ear ly
Ġcour age
igh th
ar med
ĠJ en
ĠUkr ain
ĠPortug al
ĠiP ad
o ons
âĢ ī
Ġ0 9
Ġess ential
ĠA my
Ġm ood
ĠMcD onald
Ġwebs ites
Ġt ips
Ġm el
ĠEmp ire
ĠAn ne
Ġsuspic ion
ĠK l
ĠY emen
Ġbr illiant
Ġsp r
ild ing
Ġincre ases
Ġden ies
ĠCamp bell
Ġdisp ute
Ġval uable
ar on
Ġaccept ing
Ġhar ass
Ġcent uries
Ġcap s
Ġfar mer
iec e
Ġmanufact ur
ĠHug hes
ĠH y
Ġspecial ist
Ġbe ars
Ġy ards
Ġcommun ications
Ġcan n
Ġtravel led
ĠLe eds
Ġcompet itive
Ġchampions hip
ĠF ive
Ġinst ance
Ġple a
Ġbeg un
ĠH ull
Ġthe ft
ĠW im
Ġwealth y
ĠServ ices
Ġb icy
ĠN as
Ġsettle ment
ric ane
Ġz oo
Ġg est
Ġton ight
Ġmult i
ou ted
Ġconst ant
ĠP ass
Ġsoc cer
Ġat e
ep ing
ĠZim mer
ĠG ib
Ġinf ected
Ġp osed
Ġact ual
Ġcraz y
b al
el er
Ġdemand ing
âĢ ¦
ĠF el
ĠB all
Ġsole ly
Ġadv ised
ĠLaure n
om y
Ġre un
Ġhead quarters
Ġele ment
3 1
ic ian
M ar
u ous
Ġsa il
ut ing
b urn
ur t
ĠÂłĠÂł ĠÂłĠÂł
ap y
Ġp ump
Ġse lect
Ġdevast ated
ĠSp ort
Ġdel ivery
Ġab used
Ġcross ing
Ġclim b
re ll
ĠBay ern
Ġtouc hed
Ġ( $
Ġel sewhere
Ġprot ected
um es
uc king
Ġdet ained
ĠPalestin ian
y gen
Ġtem porary
wh o
ĠMiss ouri
ult ural
Ġele ments
Ġhard ly
Ġcon ver
Ġattempt ing
Ġreg ret
un ction
ĠAd d
ĠEs sex
Ġtrack s
og ether
ĠL yn
Ġs ke
Ġd ust
Ġlands c
e an
Ġman ner
Ġde als
ot te
Ġfle e
ĠG ov
Ġevery day
Ġ5 3
por ted
ĠSt ew
Ġw ounds
Ġto y
Ġpra ised
Ġent it
Ġp hen
Ġroc ks
ĠBr istol
Ġrob ot
av ed
ĠTrans port
Ġburg l
Ġemot ion
ĠD anny
am i
c ia
Ġadv anced
Ġch a
ab s
ĠPakistan i
b ar
Ġ19 0
Ġaff airs
ĠEd in
ore n
Ġb at
cer tain
het ic
ĠPro v
Ġinterview ed
u ated
Ġpack ed
Ġ0 7
Ġtit les
ĠBrazil ian
Ġdisappear ance
Ġn ights
Ġen orm
Ġdef ending
Ġcont aining
Ġmarket ing
ĠLaur a
min ster
Ġbox es
Ġt y
Ġbut ter
Ġastron aut
Ġp ace
ĠD ad
Ġdec line
Ġh anging
ĠM ajor
ĠAs ked
Ġconst antly
4 4
le te
ĠSt ation
Ġsuper market
Ġsa ving
ĠV is
Ġl oyal
ĠH an
Ġent ering
ay a
ĠR oll
Ġmot ion
ac ement
Ġst un
ĠE nd
Ġal t
in ch
9 5
Ġconv in
Ġless on
Ġchec ks
Ġapp ointed
Ġemph as
ĠF ather
Ġwel com
bled on
ĠSt at
Ġtrans pl
Ġtestim ony
us ive
Ġele v
Ġopp osed
ren e
Ġexpl an
ro it
Ġt ent
Ġse lection
ry stal
Ġe t
lo ad
y ard
Ġatt ached
Ġlove ly
ĠConnect icut
Ġsitu ations
ĠB an
O W
Ġmeet ings
and y
Ġinn ov
ĠP erry
Ġcon ven
Ġgen etic
Ġsy n
d ef
Ġcelebr ation
Ġpl ate
ĠComp any
Ġ5 7
Ġpost ing
ĠJust in
Ġbl ast
ĠPol it
Ġdifficult ies
Ġfeat uring
ĠQ at
ap ore
ĠSu nder
l ad
ĠA ut
ĠIll inois
Ġb ones
ul es
Ġwin ners
Ġproduc er
ĠEn ter
re ts
ĠĠĠĠ Ġ
ĠBrook lyn
Ġfriend ship
ĠHern andez
Ġcl osing
Ġche f
ri ers
ĠComm ons
Ġconvin ced
ĠH a
ĠL t
Ġdet ailed
ĠSpec ial
ĠN ATO
Ġglass es
ĠRod rig
Ġtoile t
Ġor ange
Ġcons piracy
iz arre
Ġaw ards
u zz
Ġbom bs
Ġregister ed
Ġunve iled
Ġn aked
ĠH unt
ĠP res
ĠMar ine
ĠIn sp
L L
ird s
Ġtechn ical
ĠA ff
Ġh unt
ĠBl ue
Ġcruc ial
ĠP ear
ĠTra fford
ier ce
Ġ6 4
Ġpost s
Ġbott les
ĠD ub
ra ph
Ġrap ed
Ġthem e
w en
it ure
ĠC ivil
Ġcour ses
6 5
Ġrecogn ize
ĠSand y
ĠOffic ials
d ie
Ġdis ag
l iest
aw are
Ġoccas ions
Ġrobber y
Ġicon ic
Ġb one
Ġaccomp an
Ġappro val
Ġent rance
Ġbul let
Ġprior ity
og an
ĠBus iness
ĠSunder land
Ġf urn
gg ed
and o
Ġvolunte er
y th
es h
it ting
Ġ19 50
ĠV en
Ġsignificant ly
ĠF ur
Ġnet works
Ġp ill
ĠP C
Ġdest ination
ĠD allas
Ġgl ad
ab ul
Ġchec ked
Ġh yd
ĠBl air
Ġ0 6
Ġexhib ition
ist rates
Ġsafe ly
Ġsom ewhere
Ġhor rific
Ġg ender
Ġu pper
w ick
f ortunately
ĠAbb ott
Ġdef ended
Ġexpl o
Ġ199 6
Ġdiscuss ion
Ġemot ions
c ar
ĠS orry
ĠBru ce
ĠMay be
or age
ĠBo ard
Ġt ape
Ġcl ients
ĠWim bledon
Ġsens itive
Ġappro ximately
Ġattract ive
Ġst able
b ag
ĠV ol
Ġpre par
Ġacad emic
ĠEd wards
Ġ199 4
ĠSw iss
Ġap ology
Ġst ages
Ġent ry
Ġ9 11
Ġcan cel
Ġfall s
ĠTra vel
Ġcomb ination
ĠPer haps
B rit
atter ed
re hens
Ġincred ibly
ĠSwan sea
Ġas leep
Ġpract ices
w ing
ĠCar ter
Ġinit i
ĠPh ot
ĠL ive
Ġfl ow
ro id
N e
Ġm ail
ĠN OT
Ġtr ick
Ġexp ression
Ġvol can
ĠMus ic
in ter
Ġj ihad
ĠF inally
Ġto ll
Ġact ed
Ġrep air
m ans
Ġh iding
Ġsh ark
ĠL in
ĠRuss ell
form ation
Ġm ere
ĠC elt
Ġdiscuss ed
ĠB ull
Ġconst ruct
Ġs ter
or ation
ĠE ve
Ġco at
ĠCh ap
Ġd im
Ġc os
Ġrac ial
2 50
IN G
l ings
Ġox ygen
Ġ5 8
Ġsy mp
Ġd ates
Ġem ails
ĠCle gg
Ġmor al
ĠHill ary
ĠAdminist ration
Ġrepres ented
Ġp ets
ĠStew art
ĠMicro soft
Ġr ally
Ġsil ence
Ġpeace ful
Ġ6 00
u ine
ĠRob in
oy d
es ity
Ġthr owing
Ġa er
ĠY esterday
Ġpresent er
ĠBelg ium
ĠUkrain ian
ure au
esp erson
d ad
ĠR ow
Ġcy cle
ĠA z
ĠZimmer man
Ġupd ated
Ġy es
ic i
Ġcomm ander
ĠHel en
u er
ĠDoct ors
Ġoper ate
ĠAl bert
Ġcur ren
Ġclin ic
Ġacknowled ged
ĠAl aska
ĠNe il
Ġcru el
Ġind eed
Ġarrest s
P h
Ġf ame
Ġab oard
Ġnurs es
exp ected
Ġd yn
Ġdel ighted
Ġvis ible
Ġbur st
c rib
r as
Ġc ake
Ġcrim inals
ene z
ĠStud ents
up s
Ġex ecution
Ġsurv ival
Ġf ighter
ĠBe at
ĠM om
Ġ12 0
Ġrac ist
Ġv it
atur ally
b i
Ġrare ly
Ġm ad
Ġspeak s
Ġrecogn ized
g iving
Ġorgan ized
h at
ĠDet roit
ab ilities
Ġpred icted
M an
Ġhung ry
ĠL A
Ġtechn iques
Ġbreak s
ĠA C
Ġext ent
Ġsal ary
ĠConserv ative
Ġsear ched
Ġperforman ces
ĠMun ich
sh ot
Ġ2 50
Ġprom pt
M ore
ĠMit chell
g ow
Ġany body
Ġinterview s
ip al
Ġ199 5
ĠCl ar
ĠG il
lo aded
Ġf asc
ĠGl as
ĠSing apore
ab ama
bre aking
ĠRog er
Ġsett led
Ġb on
r ard
e als
Ġpat rol
Ġ :
Ġreg ulations
Ġche er
Ġgra ve
Ġn omin
Ġoff ence
Ġdec re
Ġch annel
Ġv ig
ĠT ok
ow a
ob ile
rop olitan
Ġcal ories
Ġmon itor
d y
j a
Ġimp ressed
ing u
Ġne ur
Ġrapid ly
ik h
ĠUt ah
ĠH ills
od ed
Ġdiv ided
Ġreform s
Ġaffil iate
Ġri f
Ġas ide
Ġcover ing
ĠCon st
Ġneighb ours
he im
ĠHawai i
Ġsp ac
ĠAd ams
ĠPl an
ĠJer emy
I T
ĠT em
ac ular
ĠG ab
Ġse ed
Ġinstit utions
Ġnick n
Ġgent le
Ġr aces
Ġemploy ment
c ott
ĠFriend s
Ġse asons
iven ess
Ġhistor ical
um ents
ĠHow ard
Ġconsum er
id en
Ġto ler
ĠW ang
Ġmove ments
i ac
A ss
Ġsum mit
Ġscream ing
e gr
Ġdevast ating
Ġm isc
Ġwar rant
Ġlic ense
Ġcolle ague
Ġestim ates
O S
ĠH IV
Ġpe ak
ĠWood s
Ġsign al
o op
Ġsuggest ing
Ġcelebr ating
u ate
Ġh yp
Ġmyster y
Ġvess el
ĠB on
ĠD ick
Ġpres ents
d ale
Ġw ing
Ġ6 7
ĠSt oke
look ing
Ġapp s
be y
Ġinsp iration
Ġdiv ision
on ing
Ġcomed y
E ven
Ġal ert
r d
ir cle
re te
ĠWest minster
le vel
ĠL ocal
ine z
Ġresult ing
ĠB es
1 50
o a
ĠN ad
Ġrec on
Ġphys ically
ĠN Y
Ġr oles
ĠDav ies
Ġr h
Ġide al
Ġview ed
Ġrough ly
Ġbrut al
Ġbusiness man
z y
Ġanx iety
Ġcomment ary
ĠHe ad
ĠK urd
ĠEdin burgh
rif ying
d is
ĠB udd
we et
Ġown s
Ġpain ted
Ġse qu
Ġequ ival
ĠW ard
ĠCard iff
Ġflood ing
r idge
ĠHod g
Ġ8 00
Ġcr icket
ĠSe an
ĠI b
Ġch ap
g age
Ġsepar ated
ĠOffic ers
Ġgar age
Ġcivil ian
Ġremark able
Ġstop s
Ġexpect ing
Ġkill ings
Ġpar ks
ĠOs borne
Ġal arm
ber ry
Ġamb assador
ĠL aden
ol ve
r ors
ĠEvery one
ut ers
Ġconv ention
Ġmans ion
Ġc ul
Ġhon our
ĠL ow
ĠAl abama
Ġretire ment
Ġtw ins
ĠExper ts
ĠInd epend
ixt ure
r ast
Ġd irty
ĠPol and
um an
Ġdirect ed
Ġhost s
Ġdist urb
Ġinvol ves
Ġpay ment
ĠBer lin
Ġcer t
Ġcoll apse
Ġaccompan ied
am ber
Ġoppon ents
ĠB C
ced es
Ġcrowd s
Ġgrab bed
ĠA venue
Ġf ed
Ġcl er
Ġtherap y
Ġel im
Ġpain ful
ill er
Ġdist inct
end um
it ar
Ġfl ash
Ġgu ards
Ġstri king
Ġbare ly
ĠT ower
ĠBr on
Ġlif ted
P ro
Ġpet ition
Ġreb u
Ġad just
ĠMoham med
ĠC os
Ġspok esperson
O b
ĠBr ight
er m
or g
ĠD ur
Ġph r
ĠN ight
aw s
Ġpercent age
Ġcoun sel
Ġind icated
ĠL l
Ġse lected
ist le
Ġlow est
Ġd ubbed
ĠAm anda
Ġlif etime
d in
ĠMary land
Ġaff ects
Ġn in
ĠF und
ĠCh ancellor
Ġcitiz en
T oday
Ġdipl omatic
ĠCub a
z ed
ret t
Ġun expected
Ġfr ag
el ve
ĠG ill
Ġco vers
ĠGold en
nd rome
Ġmem or
Ġfound ation
ĠJ esus
ĠP ent
se e
arg ed
ĠRodrig uez
Ġminor ity
Ġs ib
ĠCho ices
Ġliqu id
Ġtre as
Ġsubst ant
Ġc ited
ĠH ur
Ġcritic ized
Ġc in
ĠGlas gow
Ġread s
ĠLu ke
Ġsent ences
ĠDep uty
u ay
Ġte x
Ġres olution
Ġtransfer red
ac o
Ġgr ateful
ĠA T
ĠHar vard
Ġpurch ased
ĠCh ild
Ġrecomm ended
g ram
ĠHe ath
Ġresp ective
ĠGer rard
el le
Ġencour aging
Ġunh appy
Ġbl ocks
s k
Ġexpl ore
ĠWin ter
ir o
ec k
Ġproced ures
Ġsm iling
up id
Ġd ict
ĠNet her
U S
ĠT ake
Ġcross ed
ĠIs lands
Ġsh ore
ipp i
iz za
Ġcontrol s
g io
ruct ure
Ġspecific ally
Ġ6 6
Ġengine er
Ġf el
4 6
Ġexp osure
ness ee
Ġer ror
4 2
ĠMc K
Ġcomp ound
Ġchalleng ing
Ġsh outed
ĠC BS
our ce
ĠE lect
Ġfil ming
om es
ul ating
Ġout come
Ġre hab
Ġafter wards
if ted
A C
a ver
Jo hn
Ġlo ving
iat ric
L et
Ġfix ed
Ġlim its
Ġcommon ly
Ġk m
other apy
less ly
Ġannoun ce
Ġenorm ous
ĠBl oom
d a
Ġsport ing
Ġl one
Ġbl ocked
um s
Ġperfect ly
u art
Ġcle ver
ĠSec ret
Ġvot ing
ĠL ane
Ġref eree
Ġden y
â Ĥ
ĠMarg aret
c est
b ie
Ġunder ground
** *
Ġjack et
Ġ0 5
Ġfort une
ĠH aving
Ġ6 2
Ġpartners hip
Ġorgan isation
Ġcamp s
ĠCr ist
Ġcondem ned
Ġpr ide
Ġpos es
us al
Ġpull ing
en h
Ġr ugby
ĠKen ya
Ġar ts
ĠBr om
Ġgreat ly
Ġst ole
sh ips
ĠH ait
Ġpr ote
Ġen emy
Ġrece ption
ĠPri ze
ib et
ĠDemocr at
Ġreb el
th ur
Ġunf air
Ġc ub
Ġ6 8
ion e
ĠC as
Ġre ference
ĠE th
ĠCh ile
Ġs oul
Ġveter ans
roll ed
Ġsched ule
Ġr ush
ĠR on
Ġfing ers
ĠD iv
ĠN ig
ĠD omin
br is
Ġr ic
Ġrequ ests
Ġd ish
Ġall ies
w ent
ĠProsecut ors
Ġclean ing
ĠD id
ra it
Ġl av
ch o
Ġint egr
Ġrefer endum
rou s
Ġpro hib
E ng
Ġ id
ch i
ĠH ope
Ġdr one
ĠL y
Ġgen uine
D av
Ġt ag
Ġconf ront
at oes
Ġappear ing
Ġappl ications
ĠR angers
ĠLe ban
bor ough
Ġw reck
ĠSwed en
Ġ199 2
em ed
Ġdesign s
Ġob st
ĠI owa
Ġcre ation
Ġinc or
For mer
Ġchemical s
. -
Ġdesc ri
Ġwitness ed
Ġequival ent
ĠFer r
R E
Ġloc als
Ġproduc ing
we alth
Ġdown town
ĠB ad
abet es
Ġto x
ĠTok yo
Ġobs erv
âĤ ¬
Ġgrand p
ous ands
Ġwelcom ed
Ġnut rit
Ġw ww
st ep
ĠCelt ic
Ġm our
ĠA y
Ġlaugh ing
F rom
Ġf ires
Ġfir ing
st orm
Ġche aper
ĠMart inez
Ġrefer ring
Ġp icking
Ġhol es
s er
ĠT am
ĠCorn wall
the re
Ġfiref ighters
ĠR et
Ġcous in
Ġprof it
c omm
ĠSud an
ugh t
ff ield
ar ms
Ġperson ally
Ġdelay ed
Ġdon ated
T S
ĠArm strong
st ream
t op
Ġ8 5
ĠTen nessee
est ed
ĠD or
A S
Ġmed ication
Ġr ig
Ġt ons
Ġag ric
Ġbo ats
Ġt iss
ĠN BA
Ġhand ling
Ġin app
ĠS oph
Ġsm iled
a is
ĠMcC ain
Ġengine ering
ĠNether lands
Ġsh y
ĠS uch
Ġabs ence
ĠJew s
ĠDe b
ĠDun can
Ġing red
Ġrepresent ative
ĠArab ia
Ġst im
Ġsp in
Ġstri p
f inal
ĠT ed
ot elli
ĠA ston
l ist
v iously
Ġshe riff
ĠPro ject
Ġimp ression
h ar
Ġp ure
Ġregard ed
ĠN elson
ĠG riff
Ġrad iation
Ġwar ming
Ġp upp
ĠGar cia
Ġgun man
Ġf ence
Ġentit led
7 00
ĠP lease
ĠMor ris
iss ippi
Ġb izarre
ar ted
ĠT rib
Ġpr int
Ġmanag ers
Ġst em
Ġ6 3
ĠS ony
ĠCon tr
cri ption
Ġmin i
Ġgener ations
Ġrestrict ions
ist ory
Ġinvestig ations
ĠFore st
M ay
Ġad apt
Ġcru ise
Ġpattern s
Ġnegoti ations
is ms
ĠKat ie
ĠB os
Ġrepresent ing
Ġdifficult y
ĠD ri
Ġth us
Ġ5 9
ĠBr and
ĠWith out
Ġimpro ving
ĠDe velop
at i
ĠH ave
m ile
ĠT H
ind er
ĠâĢ ¢
app er
Ġphilos oph
Ġencoun ter
Ġexam ples
Ġsteal ing
Ġhear ts
ĠLuc y
Ġstro ke
ĠNot ting
ive ly
Ġmonit oring
undred s
ad h
r ating
Ġ7 8
Ġ7 2
l ock
Ġunemploy ment
ĠHodg son
Ġill ust
Ġign ored
ik i
ĠF orm
Ġpaint ings
Ġ7 7
Ġdon ations
ĠCharl otte
Ġf ab
Ġcor respond
Ġob lig
Ġob esity
Ġpil ots
ĠĠĠĠ ĠĠ
ĠWar ren
Ġwar n
5 6
Ġmod er
h igh
w ill
Ġintro duce
ict ions
tle t
Ġfund ra
ĠEm ily
ou ch
R es
Ġsh ame
k m
Ġsmart phone
Ġmus cle
and om
Ġrec y
ĠCon f
ĠMar io
agh dad
ĠTre as
Ġco ord
Ġwarning s
ĠK ansas
W or
f ace
s ung
Ġtour ism
h as
u ce
ĠK ey
Ġaim s
Ġcomp rom
ĠD j
Ġsp ray
Ġdemocr acy
ĠB attle
Ġe ase
ĠA round
ĠColl ins
ĠNe xt
Ġopt im
ĠT ai
or er
earc her
ĠBeck ham
Ġemploy ed
ĠD og
ĠG over
Ġaccident s
Ġboss es
Ġdetect ives
add y
Ġt ens
Ġc ope
ĠDub ai
Ġh ack
onn ell
ĠFl ight
ĠAm b
Ġdipl om
be at
Ġeleph ant
Ġtw in
Ġover come
ĠW ars
ĠM oy
Ġor g
T A
id al
ĠIndones ia
emb ly
ĠH M
ib ilities
Ġth roat
Ġsm ugg
x ual
Ġcar ries
Ġser v
Ġtro phy
Ġsent encing
he ld
reg on
ĠDef ence
Ġre ven
ĠAuthor ity
Ġd iamond
ĠSnow den
o en
Ġexam ination
ĠL es
Ġres igned
t ra
P S
gr ade
ĠShe ffield
ĠSaf ety
ens us
z es
Ġbene ath
le e
ax y
Ġarr ang
Ġsk ull
Ġ199 3
Ġclim bing
p age
Ġf ool
ĠDer by
c aster
m aking
Ġfor cing
Ġhost ed
Ġv owed
Ġcon stit
Ġp m
ĠA wards
ĠE st
Ġeduc ational
Ġweek ly
Ġmanag ing
Ġtrad ing
ĠBarb ara
ĠMand ela
ĠP y
B ec
Ġsusp icious
Ġfl ames
ĠMiss issippi
Ġmir ror
ĠDon ald
ĠN ov
Ġsust ained
uss ia
Ġcy cl
ĠA st
Ġm amm
Ġdiscrim ination
Ġprotect ing
R O
Ġdest ruction
ĠPr ice
Ġpro be
Ġpro of
Ġkn ock
ĠC rystal
Ġsust ain
ap ing
Ġaccus ations
ĠE mer
f ect
ĠGr ant
aff e
ĠBal otelli
Ġwas h
Ġlong est
rast ructure
Ġr ounds
se ason
Ġexist ence
ĠBre nd
ĠH on
or ia
ust ing
Ġcol ors
Ġprom inent
ĠB art
nes ota
Ġtreat ing
Ġs ed
ing ing
Ġran ked
Ġadd ressed
ĠJu an
Ġr ab
ĠTh rough
Ġn aturally
o ir
ĠH end
Ġass ass
Ġassaul ted
Ġnecess arily
o ves
Ġbus es
Ġobs er
Ġapp ointment
Ġclass mates
for ce
ĠDou gl
Ġb itter
ĠMalays ia
Ġmin istry
com fort
Ġshe d
ĠOffic er
Ġport ray
Ġphen omen
C on
Ġpro port
ug s
aug hed
av ig
pro file
it is
Ġst ressed
im s
Ġmind s
Ġex it
Ġde bris
Ġmig rants
Ġexplan ation
Ġbel t
et ch
Ġy ard
Ġdin ing
Ġr ot
Ġr amp
Ġspec ulation
8 5
om ed
st airs
Ġw oke
on ia
ig hed
Ġinv asion
Ġforg otten
Ġstret ch
d em
Ġlaw makers
ond uct
Ġimp rison
Ġreturn s
Ġfl own
Ġmid night
ĠH it
ĠSt uart
Ġc ore
ĠSh aw
Ġinst rum
ud es
ress ing
Ġlet ting
Ġwood en
ĠV in
ĠPhill ips
ian ts
Ġun certain
Ġhelp ful
Ġwat ches
Ġfr ame
ĠR achel
ograph ic
Ġtow er
Ġball s
Ġext end
f ront
os a
ĠO regon
res ent
ĠMor ning
Ġcrew s
ĠSt ock
ĠG ates
gu ard
st ri
Ġord eal
Ġf er
Ġunc ons
Ġact ors
Ġl aughed
Ġout fit
Ġc ried
Ġtechn ique
o ch
an ne
Ġg ate
Ġshop pers
ĠNob el
anche z
Ġhor ror
ĠA aron
v ised
Ġsk ill
ucking ham
C an
Ġqu ant
Ġconsum ption
oin ting
Ġhigh light
ĠA le
ig ious
Ġfr act
ĠL ion
ĠT ibet
ĠInvestig ators
end a
Ġgl am
Ġrecover ing
f ish
Ġtreat ments
Ġpers p
ĠA ud
Ġcons cious
el ing
Ġrid ic
it ched
ĠEm b
Ġany more
'] ,
Ġconclus ion
by e
Ġtransport ation
ol is
Ġfin ed
ĠH as
Ġactiv ist
ĠWel sh
ĠE conom
ig a
Ġexecut ed
ĠOl iver
ak h
aim ed
Ġeleph ants
ess ing
ig ger
Ġfit ted
aw a
Ġres idence
Ġb ru
Ġp ound
Ġhead lines
Ġyoung sters
Ġdi abetes
Ġpract ical
ĠN ever
Ġconf ron
Ġbre ach
Ġins ects
Ġdress ing
Ġdoll ar
Ġinst all
ĠViet nam
Ġsh r
Ġliter ature
Ġwheel chair
ĠR ice
ĠAl ice
ĠSam sung
Ġan cest
ag a
Ġleg it
Ġear s
ĠDev on
Ġrecogn ition
ĠCap tain
Ġconvers ations
tlet ico
m und
ĠR en
Ġmaintain ed
ĠCast ro
Ġind icate
be an
Ġinv ented
ĠSh ort
m m
Ġwant ing
ĠColumb ia
Ġ198 9
Ġprinc ipal
ĠB ox
ident s
ĠV i
he w
Ġev al
ĠY an
Ġassoci ation
Ġp unch
ob i
Ġexp ans
g t
Ġsav ings
h ost
Ġg rey
Ġ199 1
ul pt
Ġsp aces
ac cept
ait ing
Ġfro zen
ĠB ah
win ning
Ġin ner
um ph
Ġd olph
Ġto dd
ir m
Ġpass es
Ġenthus i
il st
ĠK y
it ated
id ency
Ġsevent h
ĠLaw rence
A m
Ġw ider
at ched
Ġpar ked
rop ical
on z
Ġpleas ure
Ġreg ul
! !
ĠD iana
ĠEn vironment
ĠS aint
am ous
O f
Ġdef ensive
ĠAust in
ĠQ PR
ĠMin nesota
sec ond
ĠC her
th ree
ĠNet work
Ġs ou
pro fit
Ġgather ing
Ġper ce
le ton
Ġtrans ition
Ġsh adow
sh ine
d ri
I l
Ġre ign
Ġqu e
ar th
Ġl asted
Ġcol ours
ĠT an
Ġstorm s
olog ies
Ġen h
int end
Ġfeed ing
j ud
ĠS anchez
ĠSomal ia
ĠM as
rug uay
ĠB uckingham
ĠBe yon
Ġt ech
ous es
Ġharm ful
Ġr ice
ĠW olf
Ġle ct
Ġexam ined
Ġb uck
Ġkid ney
Ġsurviv ors
Ġrelax ed
est one
Ġz ero
ap h
Ġcar ing
Ġant icip
? âĢĻ
Ġy uan
Ġtranspl ant
ĠRe id
ĠCommission er
Ġst orage
ĠF reed
in ts
Ġmiss ile
ĠLouis iana
w ife
el d
it ement
Ġche ese
Ġprosp ect
ĠBrit ons
ar o
ter ror
ĠC air
ĠW y
ĠMer cedes
ĠH ad
Ġgu idelines
att oo
Ġspect acular
Ġair ports
ĠClar ke
Ġpart ly
Ġprof its
m ath
b ling
m ind
s en
Ġeff icient
ĠI TV
ort heast
ĠZ oo
Ġsubst ance
5 7
ĠK ay
Ass ad
Ġprin ted
b ish
ac hers
Ġal ter
Ġinf rastructure
az ed
Ġl apt
ĠMc L
Ġcop ies
Ġequ ally
Ġdes erve
Ġg ri
ĠK night
Ġpo et
c ot
ĠT es
al i
omm y
Ġadvent ure
ĠD ream
4 3
ĠDe an
ĠCor por
Ġad s
Ġre venue
Ġcomp on
Ġemploy ers
enc er
Ġadv iser
Ġe ager
Ġc ab
id ges
ĠA ge
c Ã©
Ġelect rical
f ix
Ġmag ic
ĠR esc
Ġcol umn
ĠCommon wealth
Ġw rest
ier ra
R e
Ġrec all
Ġbe aches
Ġhigh way
o ks
ĠC abinet
Ġh oney
Ġwh is
Ġcreat ures
Ġinvest ors
Ġtr igg
ĠRev olution
Ġapprec iate
Ġwrit ers
Ġjump ing
Ġdescrib ing
Ġcoll abor
Ġisol ated
Ġrel ie
ull ah
Ġcampaign s
ac on
ĠII I
ĠSo on
Bec ause
Ġanaly st
ĠB aker
Ġhuman itarian
Ġex ha
Ġass ets
Ġsm ashed
oc a
ĠNotting ham
ĠDougl as
Ġsp ots
ac co
f our
ĠCast le
S ince
Ġcent ers
Ġpurs ue
act or
Ġsign als
ah l
ect ors
d ays
Ġfl ower
Ġodd s
ĠMem orial
Ġins urg
Ġ0 4
Ġsch olar
Ġfast est
ĠA gu
Ġglob e
ĠBar ry
Ġrec ip
Ġre ject
ĠStud ent
iss a
A ny
w estern
Ġre ass
ach t
ĠBa iley
D r
ĠCh an
Ġfin ishing
Ġh ill
ĠH al
Ġspend s
Ġnation wide
ĠHear t
Ġw rapped
Ġsm ooth
Ġstop ping
ĠAr k
Ġproceed ings
Ġel ite
C ar
Ġre ducing
ĠT un
Ġqu oted
Ġcountry side
j o
Ġdeploy ed
w a
Ġlab our
Ġcult ures
Ġsam ples
enez uel
ĠPent agon
Ġb ite
Ġart ific
Ġpra ise
rep rene
t im
ĠAnt ar
Ġsm iles
o ving
Ġw ishes
ĠT ele
Ġreason able
ĠR af
Ġattorney s
cept ion
ĠBow l
Ġtrans p
h ill
Ġaut umn
Ġde emed
ĠG M
enn a
Ġtwe ets
Ġbrand ed
Ġbi ological
ĠT ri
Ġdet ention
Ġtarget ing
ĠKe ith
ĠM ack
ĠMid lands
a uc
op ping
Dav id
Ġback ing
st ead
ĠS at
Ġrom antic
th rough
Ġsuit able
O r
p ret
Ġfurn iture
ĠN ancy
ĠK rist
Ġshout ing
th al
Ġf lex
Ġboot s
ĠG ro
Ġstr anger
Ġcompet ing
Ġesc al
ĠB at
ins ula
Ġt ensions
Ġinapp ropriate
st an
Ġgold en
Ġdepart ure
ues e
Ġlo ose
E C
il i
Ġv s
ĠL ut
uck er
ĠHam as
Ġrequest ed
ab e
Ġatt rib
ĠA ld
Ġperiod s
Ġbl aze
Ġjur ors
Ġse as
ĠR ight
Ġsl im
Ġout standing
Ġbook ed
ain ts
ĠSom ers
Ġbes ide
Ġleg acy
ĠSur rey
ĠB ud
Ġuncons cious
Ġind ict
ĠK ath
Ġth orough
ĠSil ver
Ġtaxpay ers
leg raph
Ġinter vention
Ġc able
ĠK er
Ġdam ages
ĠN azi
Ġcl ip
uth ors
Ġjud gment
ĠC rit
Ġ6 9
ĠBar cl
5 8
Ġ20 20
Ġconc rete
ĠU ruguay
Ġpoll s
F irst
as p
oc key
ĠCar ib
Ġcal end
Ġroll ed
o is
Ġbut ton
ĠD y
Ġran king
Ġt asks
Ġop ens
5 4
Ġful f
Ġst upid
ĠThat cher
Ġcorpor ate
Ġm arg
s ized
Ġpolic eman
Ġre ly
ĠB ash
ĠJ ong
Ġres earcher
Ġtort ure
Ġin her
Ġexp enses
ett a
ĠQat ar
B r
ĠHol mes
Ġconsult ant
accept able
ĠP arents
ĠOrgan ization
ĠB ureau
Ġquestion ing
Ġl atter
Ġc iting
Ġfin ance
ĠA tletico
Ġref ers
Ġfac ial
ĠGlob al
Ġup coming
Ġlandsc ape
ĠB ra
Ġshow er
p at
an ing
p ower
Ġilleg ally
ĠPhilipp ines
comfort able
Ġdef eated
ĠSe ven
t aking
Ġfor th
ĠF ro
ĠS gt
W ill
ace y
Ġrecru it
ĠPro gram
out heast
Ġcoll ision
Ġto ug
Ġoppon ent
leg es
Ġair pl
Ġj unior
Ġcomp rehens
P l
Ġpolitic ian
amed ics
if fer
Ġcor oner
l ie
Ġc ure
Ġcontin ent
Ġh ip
ĠColomb ia
5 9
c our
ix on
Ġpol ar
Ġf ierce
Ġinflu enced
het t
sh irt
Ġeat en
ĠIndian a
Ġin mates
Ġa ston
Ġant ib
Ġfe ver
ĠH istory
Ġobs erved
cl ub
Ġfort un
Ġcon ced
Ġexpect ations
ner gy
ĠS ierra
ĠV lad
Al though
Ġinter act
Ġprev ented
Ġrepl acement
Ġpsych ological
6 6
Ġd angers
ĠF le
Ġadmit ting
ot ton
ĠL ight
d ed
Ġmilit ant
p erson
Ġend ang
ĠPark er
Ġdress es
is ons
E P
Ġkidn apping
ĠAnton io
Ġspeak er
Ġj okes
e lection
Ġsc ulpt
ĠBen j
ons in
Ġit em
ĠTurn er
R C
ĠMur phy
Ġpron ounced
Ġbicy cle
ĠB iden
Ġloss es
Ġdrag ged
ĠS U
Ġgr ant
l aughter
Ġs ne
Ġoper ated
s elling
it i
Ġl ists
ĠCap ital
Ġsh ake
c hers
isc onsin
Ġh ook
Ġdifferent ly
h op
Ġcompl icated
Ġapp eals
ens ity
ĠV enezuel
Ġpass port
Ġrail way
ar ia
ok en
Ġimp osed
Ġclim bed
Ġsatisf ied
Ġoverwhel ming
Ġ )
Ġr andom
Ġdev oted
Ġcl iff
Ġprob ation
ĠU l
Ġphotograp hed
ĠS ab
ĠTs ar
Ġcrop s
in ion
Ġcr own
rog en
Ġpr ol
it udes
Ġg ear
ip ed
Ġrep eat
Ġsupp orts
Ġl ion
ĠC z
Ġcateg ory
our ing
be ing
Ġser ves
ĠDown ing
Ġint im
Ġbr ands
Ġbr ains
Ġgen es
Ġadvert is
Ġadd iction
Ġprom ises
am ental
ID S
ĠIslam ist
ab is
ĠU r
Ġann oy
im ir
ag ne
Ġt rem
ĠVal ent
Ġp iano
ĠCarib bean
Ġc am
Ġdeal t
ab ove
og a
Ġan k
em eter
ke ys
Ġdep ends
Ġhel l
Ġeng age
Ġwe ighed
ere z
U E
Ġarri ves
or se
ĠR oc
Ġs oph
ver e
H O
Ġout door
Ġd uties
Ġstreng then
ri ages
A b
on i
od ge
Ġrefuge es
Ġ$ <<
Ġvir al
Ġover weight
o h
enc ia
bed room
ĠRe bec
yl um
Ġaccur ate
zh ou
Ġd iver
ec raft
tain ment
Ġste el
Ġbel oved
ĠLab or
Ġtrou bled
Ġliter ally
Ġstr angers
u z
8 8
Ġa unt
ĠAff airs
cent ury
ĠBrad ley
ĠTechn ology
ĠSer ge
ĠR y
ĠIn n
Ġbelief s
e ff
ĠT ry
Ġdro pping
Ġsp are
ĠJul ie
Ġran ks
ĠS ad
Ġsil ent
r ary
Ġabs or
Ġtravel ers
ĠV iew
Ġleg ally
Ġmus cles
it ate
le ans
em ies
Ġpublic ation
Ġf oss
Ġle aked
Ġev olution
Ġpos ing
turn ed
Ġ rib
let t
b ul
Ġpropos als
ĠPe ace
e ating
ĠEur o
is an
ol ves
ĠMed ia
ag g
ĠGreat er
ĠSum mer
ĠC ele
Ġ6 1
ĠS in
ĠH ans
Ġdis ch
ĠI D
ĠDen ver
Ġinstit ution
ĠB M
Ġeng agement
Ġdiscuss ions
Ġtex ts
ĠRebec ca
istor ius
ĠM ull
ĠP ictured
j an
oc ated
Ġairl ines
Ġcompar ison
ĠThanks giving
Ġstruct ures
Ġsurge on
ĠGover nor
Ġorig in
ĠSp urs
Ġcongress ional
Ġc ircle
ĠB aghdad
ĠV ice
ns ic
ĠS ut
Ġparticip ate
b es
om ers
Ġthe ater
am o
Ġsp an
Ġfootball er
Ġinstruct ions
m od
ĠA ward
Ġcl ashes
Ġpop ulations
Ġ18 0
Ġexc itement
Ġrepresent atives
Ġm ud
ĠC ase
itness es
ĠOr leans
ĠPortug uese
Ġsle pt
f rom
vel and
ĠAl f
Ġstat istics
Ġc abin
iet ies
Ġbatt ling
Ġhapp ier
ĠFeder er
Ġdiagn osis
omet own
ĠSp encer
ĠAnd roid
Ġsec ured
Ġab ortion
Ġemb assy
d am
af ter
Ġt attoo
Ġagg rav
Ġgrandp arents
s aid
Ġsome how
Ġje ans
l ined
ag en
ad ers
Ġchalleng ed
Ġdis hes
Ġgrad ually
or ge
Ġgr ades
p son
Ġcar rier
Ġri vers
4 1
f its
Ġliber al
5 2
Ġwhen ever
ĠDel hi
Ġble eding
Ġhope ful
ĠRom a
ĠLib yan
y es
Ġcoast al
ĠBob by
Ġsw ept
Ġto oth
Ġro ots
Ġclass ified
Ġun iverse
Ġunder water
ew hat
Ġl un
d es
ent h
Ġsub urb
Ġac id
Ġburn s
ĠB ed
Ġinst alled
Ġclos est
Ġfair ly
ĠKent ucky
Ġl ik
ĠW isconsin
Ġs od
Ġmagaz ines
Ġle ts
ĠM aur
Ġrob ots
Ġaut om
b ow
Ġdel ays
sc reen
b ab
ont o
Ġv ary
ĠIn f
atic an
Ġgard ens
Ġmurd ers
ĠC ape
Ġavo ided
b ian
Ġ Ã
Ġe ighth
Ġprim arily
Ġcelebr ations
ĠIn formation
Ġfrequ ent
Ġac res
op p
Ġg ene
Ġbul lying
Ġlic ence
Ġs acked
Ġham mer
m un
ĠM ake
ĠAr thur
b us
Ġmid field
ĠMet ropolitan
anc hes
ĠTreas ury
id ance
Ġunder go
are st
Ġachieve ment
rah im
ĠB enn
Ġrub bish
Ġath lete
Ġarg uing
ĠSav ile
Ġanonym ous
pl ess
Ġdep os
cl ock
Ġcha os
i y
Ġor bit
ĠOb am
n an
Ġmans laughter
ĠSus sex
l b
ĠEx pl
Ġde leg
Ġoff enders
Ġarg uments
Ġw ings
Ġed ition
f ive
Ġrequire ments
ĠF ield
Ġ7 00
Y our
hed ral
ĠCle veland
Ġsib lings
Il roy
Ġdep ending
ĠH az
Ġpurp oses
Ġf ate
hn er
ĠContr ol
c r
it ted
ĠA k
uss els
th rop
Ġa x
Ġyoung ster
ĠGard en
Ġl over
Ġsevere ly
Ġhand ful
Ġpers ons
au nd
ĠCon stitution
ĠNig el
ond e
ash a
g ate
Ġquiet ly
atch ing
Ġtable t
Ġp ending
end ment
Ġst ored
on ic
Ġpersp ective
Ġdep th
Ġprot ective
ĠG ame
Ġgot ten
Ġtr igger
adh afi
an tha
Ġl iver
Ġre ar
Ġven ue
Ġdescri ption
Ġtri umph
Ġassess ment
Ġca ution
ĠM ade
ĠDet ective
ĠI van
Ġarchitect ure
Ġnurs ing
io x
ĠP ict
Ġdam aging
ak i
Ġconsist ent
ight ing
Ġinf ant
Ġdisplay ed
Ġreal ise
ĠSim pson
Ġshe ep
ie ber
Ġb ub
ĠShe l
Ġf are
ĠP owell
Ġcurren cy
Ġcont ext
ĠV ideo
igg s
Ġtox ic
Ġh ometown
Ġn arr
Ġwas hing
ĠKn ox
Ġdomin ated
G B
ot ing
Ġmon arch
ĠH ind
Ġconf used
A N
P resident
Ġtiss ue
ĠP istorius
Ġweekend s
Ġimm une
f a
ist ent
ĠTai wan
Ġunder went
ĠF if
ĠNor way
Ġstun ned
Ġarr anged
Ġrec re
Ġattract ion
S W
m are
ĠBoe ing
g ood
is p
ew ay
Ġtri als
Ġgu itar
Ġpriv ile
Ġp ip
iv an
ĠMan uel
Ġcollect ing
Ġasp ects
ic ial
Ġdis g
Ġport ion
Ġvill ages
ĠLou ise
ĠC er
in ction
ĠH annah
per or
au x
Ġmed als
Ġmeas ured
ĠQueens land
ĠPot ter
ol s
op sy
Ġestim ate
ĠE nergy
ia o
ĠIn s
Ġprom ising
ĠH appy
ĠK yle
ĠB illy
is b
ĠAh med
he alth
ĠC atherine
Ġbreat he
ĠJ oy
ine a
Ġhapp ily
ĠS el
ist ant
ĠRe f
ĠBarcl ays
Ġp izza
ĠBer g
Ġfel ony
Ġt one
Ġw age
Ġgover n
ĠJ obs
Ġimprove ment
w ord
ĠV atican
Ġbrief ly
Ġre duction
ĠE t
qu ir
uss ian
Ġpl ain
Ġs essions
orm al
lud ing
ash ire
st ore
Ġpray ers
5 3
ĠBenj amin
r ane
ĠD al
ab out
ĠC row
Ġafter math
Ġent reprene
ced ented
Ġphenomen on
T r
ĠT R
ig ible
Ġseem ingly
ĠB ent
Ġtop ic
Ġplan ets
Ġspir its
Ġdemonstr ators
ĠL an
b ound
al o
ri ent
Ġsuff ers
Ġmean while
ĠTe legraph
ĠPol ish
Ġpar ade
ĠPh oen
Ġun comfortable
Ġmen u
n ity
ĠN a
en z
emble y
Ġb orders
Ġtouch ing
ĠMoy es
ĠS C
Ġorg ans
ur ches
ose xual
Ġa uthors
ĠK it
friend ly
ĠCz ech
Ġinter ior
Ġgrand children
Ġresist ance
Ġf u
Ġregard less
Ġbas ically
k el
Ġexpans ion
sp e
Ġris es
Ġag enda
Ġdis gr
Ġfrust rated
ĠSomers et
ĠCommun ity
ar n
ob b
na ev
p ol
es ome
Ġi Rep
ĠDevelop ment
ĠMag istrates
ĠJ erry
ĠO tt
omet hing
ĠAlex and
A pp
ĠGr ay
. [
F C
em bers
Ġm all
Ġtal ented
Ġharass ment
Ġab duct
ĠInd eed
Ġres erved
Ġcol leges
ĠLi u
Ġpromot ing
ĠWith in
Ġaccident ally
Ġref using
Ġnet working
ect ing
ĠH op
Ġsc ri
Ġball oon
Ġany way
Ġcontrib ute
Ġcreat es
ĠM all
ill o
Ġpal ace
Ġartific ial
ĠM aj
Ġd ies
ĠOn line
ĠZh ang
Ġrele vant
Ġmembers hip
Ġautomatic ally
Ġvig il
un al
Ġaud io
Ġcy cling
Ġvo ices
Ġbuy ers
ĠT ories
Ġear liest
Ġbe ef
ur a
ĠBurn ley
h all
im m
g overnment
Ġwh istle
Ġphilosoph y
an as
ut en
ĠDar ren
ĠW embley
ut er
Ġext rad
Ġscre ens
ĠR AF
s un
ĠD ale
Ġprote in
Ġrel ation
Ġanaly sts
Ġ. "
ĠN athan
ĠEm irates
Ġmet eor
) ;
Ġengine ers
ĠL ank
Ġcho osing
Ġguarant ee
a ired
Ġn avig
av i
Ġgu idance
ard y
ĠR ail
ĠMc Ilroy
Ġsom ewhat
ĠNev ada
Ġdef ined
Ġbo asts
Ġproduc ers
Ġtodd ler
Ġref use
ĠGr ace
Ġexcept ion
Ġiniti ative
ru pted
Ġl obby
ĠAl most
ll a
ĠP ed
Ġph ase
M e
O ffic
ĠM ans
Ġt ong
Ġf o
Ġp ants
ĠA th
ot o
ĠCount ry
Ġurg ing
Ġconstitution al
ok ovic
Ġl y
c over
A cc
ey mar
ĠSupp ort
Ġbatt les
Ġvirt ual
ĠT oy
Ġvers ions
per ial
ov al
R S
Ġorgan ised
gr at
ĠBro oks
Ġpan ic
ent er
Ġr aw
Ġfil es
Ġcalend ar
ĠLind a
ĠLanc ashire
ĠTsar naev
ĠS eb
Ġcanc elled
Ġu m
ĠT u
Ġer up
Ġres erv
Ġem issions
Ġdef icit
Ġas ylum
Ġdon ate
ĠAngel a
F r
ĠC ancer
Ġhor rible
Ġaccept able
Ġpled ged
ĠH ond
Ġher itage
Ġwar s
ĠUk ip
id i
ah u
ĠFor ces
Ġdramatic ally
f ers
den ly
Ġscreen ing
I nd
s ers
r ac
ud ge
Ġ-- -
Ġfore cast
Ġpre st
Ġinter ven
Ġrece ives
Ġr ings
Ġcou p
ĠC ust
ĠLe v
ĠY e
St ud
Ġrespective ly
Th ree
ident ified
Ġle ather
ĠAss ad
Ġw ages
ĠF arm
Ġhero in
Ġfab ric
ĠTor onto
Ġslam med
ott i
Ġsubsequ ently
ope z
ĠW as
ĠBright on
ĠCarl os
ĠAg ain
Ġopen ly
Ġfree zing
Ġqual ified
Ġp enc
Ġult imate
ĠH ung
ĠE c
Ġnow here
ĠHit ler
Ġ198 6
Ġsubsequ ent
ĠC hen
ĠEnter tainment
tern al
ĠPhoen ix
Ġnot orious
ĠProt ection
Ġspac ecraft
am ic
ag le
Ġexp ects
ugg ed
g ets
Ġtrigg ered
Ġ198 8
Ġmar ine
Ġconf essed
Ġint ensive
Ġtravel s
ĠSy stem
W ashington
Ġdivor ced
) :
Ġkidn apped
Ġscr ut
ay ed
bel iev
oc ation
Ġcann abis
v ity
Ġl ip
Ġbed s
Ġcourt room
Ġle af
ĠL ear
Ġproduc es
Ġh orm
Ġunc overed
Ġtable ts
ĠFreed om
u ccess
ĠTh ousands
Ġrec k
ple te
Ġprison er
Ġreveal ing
c ut
ĠC u
ĠB our
ĠW ay
Ġconver ted
ĠT el
Ġcin ema
Ġbe ings
ol t
ĠOl iv
Ġlaunch ing
Ġev il
Ġpoin ting
Ġce ase
Ġresp ected
Ġevac uated
Ġgro cer
ĠW i
Ġsur re
Ġmotiv ated
emeter y
Ġsa fer
sc ale
ĠVlad imir
Ġpr ince
Ġrec ession
ĠL ine
C O
ĠO wen
Ġind ec
Ġnight club
Every one
ĠHolland e
Ġastronaut s
Ġocc urs
Ġun t
ters hire
Ġhealth ier
Ġhost age
ĠNe ighb
Ġ0 3
Ġunn ecess
Ġs ew
ĠCh air
ĠSc en
Ġcigaret tes
Ġsn ake
ĠWhe ther
ate ur
ĠL ang
L ast
Ġwh ale
ĠO ak
Ġthan ked
Ġsp y
ĠL amp
Ġexp anded
Ġresident ial
Ġbut t
Ġprofession als
Ġch ronic
ĠE ight
ĠSwed ish
Ġstr ang
Ġfund amental
Ġsy ndrome
cri pt
m art
Ġacc eler
Ġch ase
Ġment ally
Ġvess els
ens on
ĠI mp
Ġpro ven
Ġg room
ĠBr ussels
Ġclin ical
Ġsn ap
Ġconserv ation
Ġ7 6
Ġst ake
ĠH o
ĠQ C
Ġsusp ension
Ġtraffic king
Ġvacc ine
ĠBrend an
ĠTes co
Ġcon grat
Ġform ally
Ġprefer red
in h
Ġto urs
on el
Ġspread ing
Ġsu ed
Ġ7 1
Ġ9 5
ĠDj okovic
if ting
Ġcloud s
m ir
ĠVal encia
i ples
ĠCr im
Ġc raft
ĠUn like
Ġb arg
ĠMon aco
ĠAust ria
I M
t ake
ĠStaff ord
ĠKir k
ĠVin cent
Ġdoub led
Ġkeep er
om ic
Ġaw ful
Ġtact ics
Ġb orr
Ġproport ion
ĠEmer gency
Ġsh arks
k ers
Ġban king
ĠS ri
ĠHait i
ok o
Ġg al
Ġvol unt
ĠI V
ĠP it
Ġexecut ives
Ġter rified
el lect
Ġsu its
Ġapp le
ĠChrist ians
ĠH undreds
ĠRe ading
Ġflood ed
Ġp uzz
Ġet c
Ġlone ly
Ġsh oe
Ġdefend ants
O ver
ĠC old
ĠProv ince
Ġdri ves
Ġblood y
O ther
ĠY ang
ĠLe ader
ĠBr ady
Ġpromot ion
ĠT rip
ific ations
er ts
Ġfr anch
ĠO bs
Ġsl ipped
y ang
ig ers
Ġinflu ential
or ters
Ġh acking
Ġf isher
ĠBes ides
Ġrun way
Ġme ets
Ġingred ients
ĠI l
ĠCl aire
Ġapolog ised
heim er
Ġst airs
om er
ĠUs ing
Ġp ione
Ġwhe els
Ġad j
ond er
Ġexpl aining
Ġexpl oded
Ġexplos ive
ĠLam bert
ĠBr un
l bs
Ġw ise
at ab
Ġp ole
Ġg ross
5 1
Ġm ph
et ing
ch ild
Ġj oked
Ġexerc ises
Ġphr ase
ĠT ou
ĠN early
iz on
Ġbr on
Ġbr ide
ĠAn field
ĠR est
Ġun l
Ġspe eds
Ġsuff icient
ĠG adhafi
ind ing
old ed
L S
in stein
er man
Ġst ones
ĠMem bers
op es
Ġcy ber
Ġcoin s
h r
Ġ19 30
Ġexperim ents
Ġconfron ted
Ġmere ly
ĠSam antha
Ġroll ing
oth y
ĠHis pan
Ġviol ation
ĠUn til
Ġris en
Ġtraum a
g ly
ring ton
Ġcigaret te
p ack
ĠL opez
Ġtrack ing
ĠSoph ie
Ġcompet itions
ĠKurd ish
Ġpre cious
Ġcrowd ed
ĠMount ain
ĠL arry
bec k
ab ad
ĠLiber al
ĠE le
C H
ĠD aw
ĠR esp
ĠAl ong
ĠSt ra
Ġmar ch
ĠNic ole
Ġinstrum ents
as ant
ĠB ase
ĠEmb assy
am mar
Ġmotor cy
ĠL im
Ġpost er
Ġmass acre
Ġresign ation
ĠK aren
Ġstar ring
Ġdead line
Ġnew born
Ġhighl ights
Ġchec king
Ġoper ator
Ġexam s
Ġ7 3
Ġsurv iving
Ġtrain er
On ce
Ġconv ictions
Ġw inger
ĠF all
Ġmonth ly
ac are
ĠA D
Th ank
Ġwas hed
Ġcar pet
Ġsub mitted
ĠH ud
Ġrest r
ĠUn fortunately
Ġform ation
Ġmort gage
W here
u is
ĠT odd
Ġas h
are th
Ġprepar ation
ĠG i
ĠM itt
ast e
Ġsuggest ions
Ġwh ales
Ġ198 2
Ġconn ections
Ġtw elve
din and
Ġhousehold s
ĠLl oyd
ĠTh ames
ĠPers ie
ĠForm ula
Ġc ared
Ġst unt
Ġan ch
ĠCarol ine
Ġvis ual
angu age
ĠJenn y
Ġintim id
Ġfund ed
ĠNas a
ik a
Ġprinc iple
Ġse eds
ard ed
Ġdis ability
Ġsugg estion
ĠG ay
Ġd ign
Ġqu een
ĠResc ue
ren a
ĠGuard ian
ĠB ishop
Ġint r
Ġsub way
Ġswe at
p iece
ĠJ ill
ows ki
ĠAr ctic
Ġfocus ing
Ġd umped
Ġinst ant
Ġaggrav ated
k inson
oun ce
Ġshoot ings
Ġcoin c
L ook
Ġdemonstr ations
Ġt ables
0 8
Ġfl av
ĠĠĠĠ ĠĠĠ
ĠBoe hner
ellig ence
Ġneighb oring
Ġflo ors
Ġt ap
Ġc ave
Ġexplos ives
Ġlo ans
Ġra ises
k g
ĠPri x
B ay
Ġwh ilst
Ġwid ow
Ġs ample
it ol
Ġpl un
ĠT ro
ĠY ard
Ġemp ire
Ġth irty
book s
Ġ198 4
Ġvol ume
Ġcontrib ution
Ġflo ating
Ġover d
Ġhe els
Ġdet ective
et a
ĠSen ior
ĠMar ie
Ġunp re
ĠF ashion
ĠFr ont
Ġexam ine
Ġappl ic
ĠCh amp
ĠW rit
ĠN eymar
ement ia
d aughter
rane an
Ġt u
Wh o
ĠSteven s
Ġsen ator
ĠD V
Ġtr ucks
ĠDe ath
Ġsim pl
Ġconcent ration
Ġintro duction
Ġd iving
ĠB ath
Ġtechn ologies
Ġerup ted
op ing
Ġju ice
Ġstr ain
M ich
Ġo k
am ily
Ġoccup ied
e ven
ĠBudd h
Ġst ability
Ġcomed ian
ĠI v
ĠOp inion
Ġtheat re
ĠCele br
Ġh o
Ġair stri
Ġmat hem
ĠFerr ari
ic ians
ĠB eth
land o
rent ly
Ġweigh s
Ġover s
Ġrest ore
or gan
ĠM ick
ĠB uck
ĠP oll
ie ves
Wor ld
Ġmed ium
Ġsell s
ĠB ot
ĠSh i
Ġsac rif
Ġmar athon
Ġhar vest
Ġth ri
Ġhand led
Ġa ired
ĠE aster
Ġspeak ers
Ġpar ole
Ġc afe
ĠC ass
Ġsign ature
Ġrel uct
ĠSports mail
Ġp ills
Ġre op
ri ot
ĠF OR
G r
P A
Ġh ire
j i
Ġemer ging
il ia
Ġunpre cedented
Ġsp ark
ĠJul ian
Ġprom oted
1 20
Ġrif le
ĠDiv ision
Ġb ik
Ġdec e
Ġhar sh
f und
Ġwood s
Ġgradu ated
ĠFrank lin
ĠCru z
is le
ou ces
Ġbr anches
Ġtun nel
E FA
Ġor ph
Ġel abor
Ġintellig ent
Ġrat ings
Ġpun ched
ĠLeban on
Ġhope fully
Ġexc use
ĠEar ly
Ġwa ist
ĠCD C
Ġdeter ior
Ġfright ened
m oon
Ġgreet ed
ant e
ling ton
Ġstat ue
Ġcreat ure
Ġf oul
Ġmiss ions
ograp her
Ġr ating
Ġsecond ary
Ġdeliber ately
on ies
Ġg own
Ġmer ch
Ġsurre nder
Ġd raft
Ġbas ement
ĠB ale
Ġsure ly
D uring
m al
S c
Ġdesper ately
ak a
st ration
Ġshould ers
ens ed
Ġendang ered
Ġch urches
s chool
Ġmurder ing
Ġfrust ration
ĠHar rison
Ġlength y
Ġsubstant ial
Ġun acceptable
Ġlast ing
Ġinf ections
ĠSp r
Ġstrugg les
ĠFer dinand
ass es
Ġm akers
Ġrem oving
Ġrecogn ised
Ġpres idency
ast ing
b age
Ġcons ecutive
Ġeng ines
Ġowners hip
Ġcos m
ft en
Ġspons ors
c ill
Ġm ice
ĠC roat
ĠN orman
ĠBl ake
ar ity
Ġapp les
ĠPer u
Ġph arm
Ġdist ress
Ġadm ission
al king
Ġprevent ing
Ġun rest
ĠBol ton
Ġassoci ate
Ġ197 9
ne ver
Ġtem por
Ġgr ows
ĠCair o
Ġsol utions
Ġdispl ays
ĠG onz
f ly
Ġd ated
Ġex ists
Ġign ore
Ġdu o
ric ted
Ġt urb
sp ec
Ġur ge
ĠMarsh all
t ail
v on
Ġep id
ĠS ally
Ġflag s
Ċ ĠĠ
Ġwar ns
Ġt ube
iz er
Ġcons ent
min ister
Ġgall ery
ĠU EFA
Ġfur ious
Ġpe ers
Ġconsider ation
Ġconstit u
n esty
lim inary
Ġg ad
ĠTh ai
Ġped est
ro v
Ġbu g
Ġbomb ings
G ood
Ġce iling
Ġvirt ually
w alk
Ġm ol
ot al
um er
Ġnom ine
ĠDe ad
Ġart icles
Ch rist
Ġwatch dog
Ġenjoy s
ĠPet ers
ĠK u
l av
ĠH us
Ġreview s
Ġarch ae
Ġtransform ed
Ġcooper ation
f olk
ĠT a
Ġsoph ist
Ġm ild
Ġv oc
Ġ19 40
as ked
ig ration
7 6
ĠO z
The ir
Ġke ys
Ġhe ated
Ġ7 4
Ġc ord
ĠIndepend ent
ĠSU V
Ġelect ron
y er
Ch ina
Ġspot light
ĠIb rahim
Ġr anging
Ġen able
ign ment
Ġfore sts
9 8
d i
Ġsh aking
ĠSer gio
ĠJ av
Ġsend s
Ġf iance
Ġgest ure
Ġcup s
Ġdon or
Ġshe et
akes pe
Ġprec ise
Ġd ump
Ġper mit
Ġrad ar
Ġch ips
ĠAr n
Ġwear s
Ġpet rol
Ġdistrib ution
Ġworry ing
on ly
Ġsw all
Ġtrou sers
k ind
Ġp aed
id y
ĠA N
ĠL iving
ĠR aj
Ġank le
akespe are
am ford
Ġsl ip
vent ually
Ġexperi encing
Ġview ing
S ec
Ġst raw
ig en
he astern
Ġco aches
Ġbow l
Ġextrem ists
ĠWe ather
ur ation
ĠG ene
Ġdeep er
ĠTh ank
Ġmiss iles
Ġs ink
at ics
Ġpenal ties
ĠC ro
Ġs id
Ġn est
ĠI T
ier re
Ġbur den
ĠB und
ĠBr isb
Ġnight mare
ĠAb bey
ĠGu inea
ĠCor ps
ĠWind ows
Ġgood bye
Ġwond ered
z er
Ġrep ro
Ġmanufact uring
S E
th reat
ĠSam uel
Ġrout es
ĠNich olas
Ġm ask
ro se
ĠAlex is
Ġtradition ally
ĠDen mark
Ġt el
ĠR ic
ĠBe ing
Ġaccommod ation
Ġmed ic
ĠS ent
Ġdist ract
Ġcart oon
Ġembarrass ing
Ġl ap
Ġres olve
ĠFur ther
Ġdesign ers
Ġlight ing
ĠMed ic
ĠGl ouces
Ġburgl ary
ram s
ĠAbd ul
ann on
Ġvol ley
n ow
Ġcontr acts
Ġdetermin ation
Ġjew ell
ĠBrisb ane
s ay
t oo
eng u
Ġdel icious
ĠFern ando
0 5
Ġhom icide
ĠFoll ow
Ġsty les
= <<
am bers
ĠB ark
ect ives
ĠTr ade
Ġrespond ing
Ġel igible
Ġde er
ĠStud ies
Ġchair s
Ġtaxpay er
ĠHeath row
ĠObam acare
Ġb un
year s
ĠCo al
Ġrac ism
Ġcont am
Ġmy th
Ġbel l
ĠP ard
ĠT ob
ĠD J
Ġpre y
0 9
Ġfather s
Ġsun light
G A
W est
ĠM uch
ĠAl b
ie ge
vere ign
Ġbill ions
ĠOr lando
ĠM ason
ĠF ul
ĠAustral ians
Ġri ot
Ġc roc
ot es
ĠE p
Ġexp ed
% .
r in
ĠS ara
Ġass umed
Ġt iger
Ġint ellect
ĠCar r
ipp er
Ġd ementia
Ġpsych ologist
Ġgradu ates
riv ate
ĠD rug
ĠGal axy
Ġhum or
ĠPal in
ĠAh mad
ĠP ap
pl ed
ĠAr ts
Ġrest ored
ĠW als
isc al
Ġport rait
ĠSpe aker
Ġdemocr atic
ĠSt ur
Ġnom ination
ĠTR UE
ce eds
ub ar
Ġin ev
Ġper pet
ok er
Ġlung s
agger ing
Ġsh irts
Ġfamous ly
ĠN SA
Ġdisapp ointing
ĠFar age
iter ranean
P lease
Ġen emies
in ity
Ġro pe
ĠMiddle ton
ĠAr med
ĠOper ation
Ġend ors
Ġembarrass ed
ĠC ow
ĠHold er
c uff
Ġsear ches
ĠL iga
Ġboard ing
Ġf iction
An other
Ġf ights
ep hew
ĠS ong
Ġinst r
ĠSen ator
r aged
Ġp od
Ġmisc onduct
ĠNad al
0 1
Ġen cl
Ġcare ers
ĠPr im
Ġprinc iples
bro ken
lec ts
H ere
w hen
Ġcl ick
Ġob ese
ĠRe agan
I L
Ġrun ner
ĠGer mans
Ġfar ms
ĠWeb b
on so
Ġsn apped
i op
l u
ĠC O
Ġretail ers
ĠAl z
Ġdec iding
Ġ9 9
ĠMan agement
Ġcar go
in f
Ġh i
Ġchar ities
ĠMoham ed
Ġ( "
Ġh ug
Ġadv is
ĠCos by
Ġad ap
Ġbox ing
E L
s l
0 7
we ather
Ġhuman ity
ĠWar ner
ĠP rest
Ġorgan ic
Ġunder going
ull ivan
Ġt ub
ĠE sp
Ġeduc ated
ĠAd rian
Ġcomm em
anc ial
Ġsub stitute
ĠPolit ical
ĠScen ario
Ġl a
Ġse al
Ġl es
ĠBern ard
S m
Ġp ays
Ġqualif y
ĠD ak
Ġinter pret
do ch
ĠK ids
Ġl ined
Ġtong ue
ĠP ay
ast ro
Ġ198 5
Ġdemonstr ated
h yd
Ġth ief
ĠE xt
r ising
Ġpar amedics
Ġprompt ing
ĠBe aut
Ġto b
Ġre aches
Ġdiscuss ing
Ġdist ingu
Ġt ab
en ess
Ġt ropical
Ġs ights
Ġg re
Ġfact ories
stit utes
Ġphotograph y
resp ons
i per
Ġtr ash
Ġcrack down
us hes
h ave
Ġmanufactur ers
al le
Ġaw aiting
ĠStep han
Ġb ands
Ġinsp ire
Ġhighl ighted
ĠN ik
ĠSil va
Ġw and
ĠBr id
ĠD C
Ġun ions
Ġfle et
ĠStan ley
ne ath
Ġdel ight
Ġsqu ee
g ie
Ġd atab
s ome
ĠB ear
Ġcon qu
ortun ate
n ew
ĠO pp
ac les
Ġun identified
ĠSh akespeare
Ġpup il
6 8
f eed
r ini
Ġve t
Ġso vereign
ĠD ise
ĠBelg ian
ĠP erez
Ġlist ened
ĠRo om
Ġcancel ed
ĠS T
ĠH istor
B oth
ĠD ig
ĠHur ricane
h t
ĠUn ivers
Ġgra phic
Ġlay er
Ġp ile
ĠCh all
ĠCamp aign
Ġun aware
ĠHun ter
ĠCrist iano
Ġsh ook
Ġ198 7
usal em
Ġbedroom s
Ġch ann
ĠY ale
Ġrem oval
Ġappeal ing
Ġfest iv
ĠTransport ation
gh azi
Ġmar king
Ġcert ific
Ġne ut
ĠC irc
Ġattack er
c itation
ĠL ist
Ġcomp ass
Ġn erve
ĠAn imal
vent us
Ġmoder ate
S ometimes
ĠGab ri
ow der
Ġlight ning
ĠMed iterranean
ag u
Ġcontem porary
B ar
ri en
Ġweigh ing
ĠLion el
Ġun con
Ġmusic ian
Ġal erted
ĠG add
Ġmain land
un a
Ġtrou bles
ol an
Ġsc rap
Ġstrong est
Ġc age
Ġplay ground
Ġpres erve
ĠAlz heimer
t ry
ol ks
Ġdemon stration
ack er
ĠEx ecutive
Ġbar rier
ĠFeder ation
Ġcom a
Ġgener ous
Ġcomprehens ive
Ġd ivers
Ġg rief
Ġr ang
ĠMed icine
Ġbelong ing
ĠRog ers
Ġacc using
Ġprogram mes
ca o
ĠK ings
G o
Ġsuppor ter
do ing
ĠF u
lud ed
Ġrecogn ise
Ġdeliver ing
ĠCap itol
Th ose
Ġestablish ment
Ġvisit or
Ġmyster ious
Ġcasual ties
ĠT iger
ĠM aine
ster oid
Ġappeal ed
Ġtob acco
ffic ient
re ated
ic ating
Ġteac hes
ĠLiber ia
Ġclos ure
ĠF oster
p a
ĠN SW
Ġfl ies
m ont
n et
Ġre vers
ĠM H
Ġrec alls
ĠV eter
Ġpri est
Ġapolog ized
Ġin hab
Ġconsider able
Ġster e
ĠD ennis
Ġgener ated
Ġmist aken
7 8
Ġtermin al
Ġt anks
Ġf erry
um ing
Ġlo vers
Ġdefin ition
ĠĠĠĠĠĠĠĠĠĠĠĠĠĠĠĠ ĠĠĠĠĠĠĠĠĠĠĠĠĠĠĠĠ
hett ino
Ġd iox
Ġsecret ly
Ġex ceed
ĠPet erson
Ġfore nsic
Ġg ru
ĠA M
Ġpun ished
Ġun believ
ĠInd ust
raw l
Ġsun shine
ĠInsp ector
ĠTr agic
ĠCol in
Ġm ate
os er
ĠF ull
ĠLib rary
Ġpl ates
ĠMer kel
Ġm aps
ĠL amb
Ġval ued
Ġlad ies
ĠBloom berg
Ġsw ing
ĠCub an
ĠLook ing
bec ause
ten ance
Ġlapt op
ort mund
ĠHer itage
Ġurg ent
Ġdisturb ing
ĠK el
Ġcharg ing
Ġkind ness
Ġbelong ed
Ġnutrit ion
Ġn ephew
ang el
r us
Ġter rifying
ĠJul ia
Ġcirc uit
Ġref lected
Ġind ication
Ġfun ctions
ĠN ine
Ġsub jected
ĠPal mer
Ġav iation
ĠExp ress
Ġunnecess ary
Ġs orts
Ġrel ating
ĠMur doch
Ġdisc our
Ġdep ressed
........ ........
ĠM oon
if ford
ĠSh ah
ĠLanc aster
Ġt sun
if ies
Ġpolit ically
ĠP a
Ġ8 2
Ġsol ic
r ise
Ġaut opsy
ĠBen ghazi
Ġincor por
Ġb ump
ap olis
Ġer u
Ġqualif ying
ĠA rena
Ġconv ince
ĠNor folk
ĠN ash
ot ion
Ġwor ries
Ġindict ment
A re
Ġso ap
i ere
ĠAir ways
ĠRoberts on
p o
Ġha z
Ġclass ical
Ġasp ect
T e
Ġsh orter
Ġequ ipped
ĠM ing
9 6
Ġdep ort
s or
Ġd ent
Ġd irt
Ġm erc
um m
h ur
Ġfr uits
Ġtrack ed
Ġl aughter
ort on
Ġext ension
ĠComm and
od ox
Ġexpl icit
Ġairpl ane
Ġarg ues
ĠOr ange
Ġmos que
per ed
Ġdirect ions
abul ary
Ġdevelop ments
gr ad
Ġapolog ise
mer ce
Ġwork place
Ġbul lets
Ġval id
Ġcompl aining
ĠTe h
Ġcatch ing
Ġhal t
Ġnomin ated
idd ing
n ival
umb led
E n
Ġsad d
Ġgrand son
Ġrehab il
Ġgover ning
S outh
Ġmod est
Ġab ilities
ter ing
f inals
Ġs izes
Ġh ij
or i
ur er
Ġinst antly
Ġble w
Ġtor ch
Ġg amb
ass er
ĠKe ep
Ġdiox ide
Ġemploy er
il ies
Ġadopt ion
ĠC ab
ĠW ool
Ġlong time
Ġbo om
Ġupd ate
Ġjewell ery
Ġdiscipl ine
ĠP ic
Ġin aug
Ġtrans ported
ĠValent ine
Ġcome back
ĠAb ove
ĠG ram
crib ed
ĠCor p
ĠPel leg
ĠI ce
Ġsc ary
ĠBab y
Ġvan ished
ĠJosh ua
at re
Ġ8 8
Ġfor b
Ġtr ace
ĠB ieber
Ġanx ious
h aul
is hers
ĠBar nes
Ġcompet itors
ĠH ass
Ġdolph ins
Ġdr ank
Ġbank rupt
Ġchem otherapy
ĠP oint
Ġup loaded
Ġhero es
ĠHud son
Ġse iz
ĠProsecut or
Ġtum our
ĠSing h
ĠPard ew
Ġl ions
ĠG areth
Ġviol ated
Ġhost ages
Ġafford able
Ġri pped
i ors
um in
ĠRe ed
Ġcom ic
ĠBor is
ĠT reat
ĠC amb
pr ise
Ġum bre
eal ous
elt a
ĠD ortmund
Ġback l
ĠCo hen
id av
ĠD ame
ave z
m aster
Ġm ouse
Ġman ip
ĠKar l
Ġsmart phones
Ġsad ness
ĠRec ords
tim ore
Ġexp ense
Mich ael
Ġd ear
Ġd iverse
Ġst aggering
Ġreven ge
ul ent
D e
is dom
Ġfest ive
ĠGl ass
Ġlegit imate
M art
iv a
Ġcomp are
Ġtempor arily
Ġst ir
oc ial
ors et
ĠR ou
ĠE qu
ur red
Ġgl oves
ĠC ome
Ġunder neath
ĠD iamond
bo at
Ġhelicop ters
Ġwreck age
M anchester
Ġha iled
Ġpres cription
ĠInt elligence
Ġassault ing
L ondon
ĠSun ni
Ġle thal
cel and
Ġs in
ĠP sych
ĠB ou
ch ange
Ġst ance
m ons
ĠN az
ĠK enn
m at
Ġm art
Ġridic ulous
Ġst ays
Ġsu ing
Ġcorrect ly
B O
Ġinstr ument
Ġle ak
Ġ0 2
ĠMil itary
ĠArgent ine
ĠBul gar
an j
ĠChrist ine
ĠB uff
Ġpre liminary
Ġprest igious
it ches
ĠH aven
Ġcustom s
Ġcharacter istics
u ers
Ġpublic ity
Ġreact ions
g reat
t ech
rel s
th is
Ġtri o
Ġstab bing
Ġf ox
ad ays
ul um
Ġpe er
Ġad minister
Ġspirit ual
ĠPl ace
Ġt ension
ĠP ly
reg as
Ġbal con
ĠGh ana
Ġb ats
Ġd iversity
Ġl ips
ĠE T
ĠGirl s
Ġj ets
Ġviol ations
Ġequ ality
ĠBrad ford
Ġbron ze
A ust
l us
ĠL iz
Ġback s
ici ency
Eng land
Ġsh ipping
Ġk icking
Ġaff idav
Ġannoun cing
il er
Ġdemonstr ate
Ġblank et
ubar ak
Ġbar r
ĠRos berg
Ġde af
Ġ8 4
Ġstri pped
Ġmuseum s
Ġd rought
ĠMod ern
Ġfranch ise
ĠPelleg rini
Ġgo d
Ġdisapp ointment
bit ious
ĠCase y
h ad
ing e
Ġres ume
Ġhand cuff
Ġatt itudes
se in
Ġspec ially
Ġdepart ments
ĠCat al
Ġstrateg ic
op a
ĠR ain
l on
Ġapp oint
S te
Ġ7 9
Ġattack ers
ĠRober to
wh at
gg ing
ĠJac ob
Ġchann els
Ġhun ger
ĠIn side
Ġprocess es
Ġconduct ing
ĠArk ansas
c m
Ġre verse
Ġsw itched
ĠN ep
ĠG as
az ine
Ġste ady
Ġrub ber
Ġr ides
Ġqu ake
Ġse aled
ĠEng ine
Ġspeed ing
Ġapproach ing
a uthor
Ġu gly
Ġdec k
Ġconf usion
g i
ĠPalestin ians
r ot
Ġdon ation
Brit ish
z ai
Ġh ub
ĠChair man
ĠT oo
Ġres erve
inc ere
ĠFal cao
Ġbom ber
Ġ198 1
ĠSt amford
ĠBenn ett
Ġw ished
ia h
Ġindust ries
Ġland mark
Ġmanufactur er
Ġb ust
ĠK iev
ĠSam ar
Ġsophist icated
m and
Ġflee ing
Ġplan ted
ig e
Ġembr ace
e ks
Ġvis a
Ġinv ention
Ġ14 0
Ġdest ro
ades h
Ġlo aded
Ġaccompl ish
ĠVill age
Ċ Ġ
Ġstar red
Ġacad emy
Ġimprove ments
Ġv ocal
Ġsec rets
Ġexcess ive
M s
ĠP ep
Ġend ured
Ġnovel s
Ġ ,"
Ġaut hen
Ġreun ited
Ġmusic ians
ĠM es
Ġrest ricted
ĠJohn ny
ĠGP S
ĠA ber
c asters
ĠA S
ĠÂ °
ĠW r
ĠLuc as
ĠR and
Ġpray er
ĠM asters
ul us
Ġfire arms
ĠHer ald
ĠHend erson
Ġsou p
Ġscri pt
ĠCoal ition
ĠR un
Ġneg lig
ĠTH E
Ġin ch
ĠH em
Ġbelie ving
Ġtreat y
Ġe ats
Ġsp ill
Ġoff ender
ĠLe one
Ġhard est
ĠBal timore
ĠIm m
ĠA IDS
ĠB erry
Ġpleas ant
Ġp oured
s ur
Ġm ales
Ġprov ision
Americ ans
er ies
ĠT ommy
Ġ13 0
he nd
ĠMad onna
yl an
Ġoccasion ally
Ġhel met
ĠD isc
Ġrele asing
ĠRich mond
ĠWild life
Ġsupport ive
Ġcommission ed
Ġdes erves
Ġdem ol
ford shire
kn app
E ach
Ġt ale
Ġch ains
C ol
ĠAr men
Ġsw ift
ĠPre vention
ot ype
E G
an ium
Ġd iction
ra ught
Ġself ie
Ġearning s
Ġto pped
Ġdr ones
Ġf illing
Ġd re
am as
ĠF o
Ġunder wear
Ġaddress es
Ġindic ates
ĠA ction
Ġess entially
ĠSud denly
0 6
Ġfin als
ĠRem ember
Ġaffect ing
Ġinsist ing
ra e
7 7
rie ve
Ġelabor ate
ĠC ou
wor ld
Ġsatisf action
Ġscrut iny
Ġs ang
ĠM oss
Ġmo lec
Ġconfident ial
Ġvit amin
l ain
p owered
Ġy acht
g al
we g
ĠTun is
E T
ed ed
Ġsh ield
amp s
ĠSc ene
ol o
ro e
Ġreal istic
Ġfl our
Ob ama
Ġsub urban
ĠJer usalem
Ġcommission er
k ick
al t
ĠI celand
ĠF at
ĠSu ff
Ġinfl ation
Ġgrad uation
Ġtrust ed
Ġacqu ired
ĠCh avez
f are
Ġh orn
oll ar
Ġa ide
Ġfeed back
Ġpriv ately
Ġpersu ade
Ġb old
is ive
Ġm aker
ex pl
Ġuns uccess
ĠFab regas
s u
an ed
mark ets
Ġparliament ary
ĠM erc
ĠTy ler
Ġextrem ist
re nd
Ġex em
Ġmotor ists
ĠNat al
ĠGadd afi
Ġhost ing
ĠH alf
ist a
Ġf rog
Ġch ip
Ġadministr ative
Ġd ock
Ġimp ress
Ġfem ales
ĠLamp ard
Ġe cho
ĠL en
ĠB orn
Ġa steroid
Ġpubl ish
ĠVictor ian
ĠNap ole
ĠJ ama
Ġfin es
Ġimag ination
is ations
Ġret reat
Ġmir acle
Ġunn amed
Ġmain stream
ĠC a
Ġdet ected
Ġtorn ado
Ġdr um
p eople
ipp ers
Ġsa iling
Ġdi ary
ĠAgu ero
Ġtsun ami
ut t
Ġdevelop ers
Ġfem in
Ġren ted
ĠM um
ĠBet ween
Ġdial ogue
ĠC hes
Ġtrad itions
Ġrevel ations
ast ian
Ġne arest
Ġtest ify
ĠMount ains
intend ent
Ġref lects
Ġweak ness
ĠJu ventus
ĠPr ison
Ġbatt led
R ussian
On ly
Ġhe s
Ġsu p
Ġin h
Ġg aining
ĠFil m
ĠS ot
Ġwal let
ĠBu ilding
ou b
Ġdon ors
ow een
E l
ĠP ick
ĠM ors
ĠCh ange
ott age
c al
Ġass ume
Ġhuge ly
Ġmain tenance
ĠSal v
Ġl ane
wh ite
at to
Ġp ond
ER E
Ġfoss il
og en
E d
an mar
Ġs ixt
ĠB anks
ric s
ĠP R
Ġtim ing
Ġlegend ary
Ġbillion aire
un ity
ong yang
Ġhealth care
Ġunf ortunate
Ġdecor ated
Ġw ives
ĠLank a
Ġcost ume
ĠM S
Ġreg ulation
ĠRed knapp
iffer ent
Ġg ig
ce ans
Ġdec ent
Ġr ats
Ġillness es
r ina
ĠE ston
p her
Ġn ortheast
Ġ19 20
ĠTeh ran
9 00
Ġb oring
st op
Ġhead er
Ġvolcan o
Ġre leg
Ġbr ush
ĠAl ger
ĠCorpor ation
Ġg iants
ĠL ock
Ġad equ
Ġc af
ĠB ible
ĠSh a
mun ition
Ġforeign ers
ĠDV D
Ġp ave
Ġinter rog
Ġbur ial
ĠDise ase
o vers
Ġb ikes
ĠPly mouth
h ard
Ġr it
ĠMot or
Ġab using
Ġfair y
Ġcitizens hip
ĠSomal i
Ġ8 6
Ġcommem or
Ġ 00
Ġt ipped
am an
Ġv om
Ġmar riages
Ġbatter ies
ĠB ever
Ġpre ced
Ġbr ace
Ġfar ming
ĠHigh way
Ġrep ly
ĠT aking
Ġqual ities
uten ant
Ġval ley
Ġshel ves
ra ham
Ġ8 3
vis or
Ġf olks
ĠP oc
Ġbl onde
ĠDes ign
ĠRaf ael
ĠM ubarak
Ġshoot er
Ġaston ishing
Ġobs c
ĠS ex
n ie
ur bs
ĠCh ad
own er
Ġren ov
Ġf iscal
Ġcoach ing
d r
Ġste am
ĠI P
ĠF un
ĠAbd ullah
sp eed
er als
ĠS et
ĠB ened
gr and
ĠAss embly
raf ted
ĠRuss ians
G et
Ġm ixture
ĠC ant
Ġcomple ting
Ġdisp uted
Ġcons ists
Ġaffidav it
Ġident ical
Ġbe es
w ind
Ġass igned
ĠRep resent
Ġremind ed
ĠAndre a
er b
Ġb ol
8 9
ĠFr ances
Ġsid ew
ĠT M
Ġnin th
ĠHar per
ĠAny one
r ace
Ġdist ant
ĠH and
Ġam munition
Ġdest inations
Ġpur ple
ĠS ale
Ġrecon st
Ġthe ories
ation ally
Ġcomment ed
Ġer rors
ĠW itnesses
ĠArs ene
ĠInter ior
p ot
ĠRy der
e ast
ĠT ax
ol ars
Ġjud icial
Ġstr anded
ah a
found er
ĠL ily
ĠCon ference
Ġachieve ments
ĠS i
ĠL enn
Ġg am
Ġprop ag
Ġh ood
ĠOp rah
Ex per
Ġtrib unal
ĠW ould
Ġsh apes
Ġ16 0
Ġsens ors
D espite
Ġj unk
Ġtel esc
Ġr ank
ĠJ un
ĠK ob
ĠSt art
ĠMar athon
ĠJo an
Ġfil ing
Ġgl ac
Ġbene fic
ĠGriff ith
r ice
h is
ĠI ron
back s
J ack
Ġall erg
Ġcampaign ers
ĠNY PD
Ġw rap
Ġf ond
ĠB ald
ĠD ian
ĠN ature
ener ation
Ġtravel lers
Ġpoor ly
Ġsurvey ed
ĠK as
Ġf t
Ġpl acing
Ġrap ing
Ġsc are
os c
ham ed
Ġcost ing
Ġfirm ly
Ġperce ived
ad i
ĠJack ie
ĠLu k
ant ine
ios ity
s a
ĠE ri
Ġsun ny
Ġpred ecess
Ġabs ent
Ġattend ance
Ġaer ial
Ġal ien
Ġwr ist
ĠHall oween
u ador
Ġwhere ver
Ġ8 1
Ġattract ions
Ġe leg
ĠP as
Ġbl own
Ġmon key
Ġbreak through
ĠShar on
Ġcroc od
Ġs iege
Ġb ored
Ġcand y
Ġunderst ands
Ġs ung
ĠD oes
er ia
ĠH off
Ġsh orts
ick ets
Ġunder cover
ĠCar roll
umb ling
ĠDam asc
est on
amp a
ĠP am
pr int
Ġdirect ors
ĠBash ar
Ġn ic
ĠW ol
igen ous
c at
is ure
ĠCon cer
Ġadv ances
Ġaud iences
ĠRichard son
ĠMont ana
ĠiRep ort
ĠS ue
ric ts
ah oo
Ġ8 7
c ard
Ġgang s
sh aped
Ġdr un
Ġsound ed
h ot
Ġpair s
Ġpaed oph
con f
ĠHol y
Ġcont ents
Ġcreat ivity
ĠH ob
az y
Ġconced ed
Ġsol o
Ġfundra ising
0 2
ĠN atural
aw i
ĠSm all
Ġf ib
ain es
Ġeur os
P aul
n ormal
Ġp el
Ġdistrib uted
Ġexpress ions
Ne ill
Ġout er
Ġprem ier
Ġc ogn
ĠF ried
ĠiP od
Ġha ul
Ġsub mar
Ġcl ues
Ġcent res
Ġrequ iring
ĠNiger ian
Ġc her
health y
ĠJ ake
ĠRes idents
Ġrefuge e
Ġpoison ing
Ġimp ose
Ġbuy er
Ġc ops
Ġhand gun
Ġ197 6
Ġconstruct ed
Ġjew el
Ġcomprom ise
M c
z an
ĠJeff rey
Ġimportant ly
Ġd ug
ĠThe atre
Ġdrop s
threat ening
ĠEur opa
ĠPy ongyang
ĠC re
ĠF DA
Ġarrang ements
k ok
ĠTor res
ĠCrit ics
z i
Ġmatch ing
Ġl od
ard ash
Ġkn ees
Ġc otton
am ine
ĠM idd
Ġhur ricane
Ġcount less
Ġsl aughter
Ġmot ive
ĠE ventually
ĠV ick
ĠStephan ie
ĠP le
Ġdeb ts
Ġrecommend ations
D P
le en
Ġgener ate
ĠSt ore
Ġ198 3
Ġb other
Ġper mitted
uck ily
ari os
Ġric hest
Ġb out
ĠM oney
us ky
Ġam bitious
Ġsucceed ed
Ġam ateur
Ġwar mer
v ious
Ġnot ing
ĠSim ilar
ĠP o
ĠP rop
Ġhom osexual
ĠAss istant
Ġfat ally
Ġflood s
ĠDar win
Ġcon vert
Ġschool girl
G u
__ __
ĠBe h
Ġapolog ize
ĠH ook
ĠBar n
Ġident ification
ri ots
um a
Ġab usive
Ġpart ially
Ġnorth west
Ġep ic
Ġmonit ored
ĠHom eland
ĠDamasc us
v as
ĠK a
Ġpol y
ĠFin ancial
Ġcr ushed
Ġprem ature
Ġch ick
Ġmig ration
bab we
M al
ĠEvery thing
Ġcler k
Ġtw ist
Ġtrem end
s enal
Ġpol ite
Ġactive ly
et ary
ĠW u
Ġ3 60
Ġoper ates
mind ed
Ġch amber
Ġc ater
th irds
c i
k ward
ec hes
Ġ196 9
Ġtrail er
n ia
Ġok ay
p it
Ġh ated
Ġphys ics
Ġinstruct or
ĠDur ham
h anded
Ġh id
ĠN av
ĠBrother hood
r ative
ar ation
Ġche ating
esc rib
Ġbroad caster
Al so
b n
ĠN ative
ask et
Ġsustain able
Ġ197 8
Ġrem embers
Ġneg lect
pro of
Ġinnoc ence
he arted
ok ers
Ġexpand ing
st age
ĠD orset
any ahu
Ġpresident s
ĠMy anmar
ar an
Ġbreak down
inc luding
ĠLu x
Ġsymp athy
Ġpur se
Ġdoub ts
ĠGet ting
O L
ur ious
ĠD ear
Ġl orry
Ġtem ple
O U
ĠR ud
Ġj aw
Ġinf amous
Ġpassion ate
ĠPen insula
Ġs ections
Ġth ieves
ĠG at
ĠShe n
Ġtreat s
Mr s
m el
co very
Ġlabor atory
j iang
ĠNot hing
ĠH ag
7 2
Ġop ener
Ġtrad em
h ome
cl aimed
Ġtit led
ĠSpan i
Ġc ere
Ġhand writ
ĠVenezuel a
0 4
i qu
ĠB order
ĠGl enn
Ġpress ed
Ġpubl ishing
Ġcred ited
Ġcontroll ing
Ġm un
ĠL is
Ġforg ot
Ġc ough
Ġrenew ed
ĠR uth
do ors
Ġunemploy ed
" )
d ec
ĠD elta
Ġpl um
Ġrom ance
in os
Ġoptim istic
ĠWals h
ĠF alk
ĠMor rison
Be fore
Ġtreas ure
ĠDak ota
or ie
t able
Ġp ir
ĠPer th
ag s
Ġ18 6
ol ving
Ġsee ks
Ġins ult
Ġlo ad
Ġremind er
ĠK ardash
ĠP ul
Ġdraw s
s ub
Ġquar ters
Ġchap ter
Ġun law
ĠY outh
Ġshort age
ĠInvestig ation
Ġobser vers
Acc ording
in ness
Ġc abinet
Ġd orm
ent ry
Ġfree ly
ĠCl ay
Ġisol ation
Ġn avy
Ġdis rupt
Ġcontrib utions
ĠRich ards
ĠS aints
Ġraid s
Ġrel iable
Ġrum ours
ĠSm art
Ġchief s
Ġindec ent
raw ling
Ġunbeliev able
the less
Ġsub mit
Ġencour ages
f air
Ã ¡
ĠF C
Ġagric ulture
Ġm elt
ĠS old
ĠU g
ĠStur ridge
ot yp
Ġev olved
Ġneighborhood s
ut or
Ġst aged
th odox
Ġgl ory
Ġread er
Ġdatab ase
ster dam
ĠOr ig
Ġporn ography
g one
ĠB i
ĠR ivers
Ġann ually
M S
ec ute
Ġadvoc ates
ĠR ush
ung le
ĠMan ager
Ġlay ers
Ġcontain er
ĠEc uador
ĠMar co
ĠRep ort
Ġhospital ized
ĠLiber ty
am el
Ġaccomp any
Ġpled ge
Ġdiscipl inary
Ġth igh
Ġfif ty
Ġup stairs
pl us
Ġlav ish
Ġd ive
ĠMar tha
Ġsepar at
Ġimmig rant
lement ary
ĠG ot
hold ers
ĠWeek ly
Ġsing les
Ġconvention al
Ġl ugg
ĠD ark
Ġst icks
ri pp
ie val
Ġconsum ed
ĠR u
Ġste pping
Ġelev ator
c or
Ġw isdom
Ġdec ides
Ġpsych ology
Ġcast le
ĠS on
duc es
lo e
ro ck
Ġf oster
ĠM ach
own ers
d rop
ĠR ab
Ġmon keys
Ġsuper markets
Ġrun ners
Ġcontr acted
Ġprin ting
Ġth under
O K
Ġn aval
Ġex isted
oz one
Ġski ing
Ġl aser
Ġbu zz
Ġins ight
ĠCo x
ĠChurch ill
r ange
ĠNe ither
ur o
ĠM ain
Ġflu id
m ails
Â °
Ġg ains
Ġche ek
ĠP erson
Ġdes erved
ĠEd itor
ĠM ath
Ġreview ed
Ġlog o
e very
Ġ197 4
Ġjump s
Ġmotiv ation
Ġt ire
Is lam
ric ulum
ĠPr inc
ĠHar vey
ĠMag azine
R I
ĠBl ues
Ġt ill
ag ged
Ġinter pre
Ġcond ol
ning s
Ġlot tery
ĠMel issa
ĠNet anyahu
Ġvent ure
weg ian
ĠBre ak
% ,
ol ine
Ġbu ys
Ġfire works
ĠSo chi
p y
Ġf olk
ĠMc M
Ġste ep
7 9
Ġgr id
ĠProt est
iot ics
e em
ĠThe res
Ġsc am
Ġinvestig ator
Ġhabit at
Ġcompon ents
et e
Ġcondem n
Ġairstri kes
M iss
Ġfail s
Ġaccess ible
ĠK r
Ġcur ious
Ġscen arios
aly mp
ĠTou re
ĠGu ang
u um
ĠL iam
Ġsoon er
ĠWal ter
Ġru ined
ĠPhill ip
h u
Ġg ates
Ġunder way
ĠHar am
Ġthr illed
Ġc akes
ĠS ullivan
Ġcirc les
ĠFul ham
Ġn ob
Ġst ating
ĠBoy s
r acts
Ġre acted
" ?
Ġgreen house
Ġexpl oring
ĠGr ade
OW N
im et
ĠCl ose
Ġagre es
ĠWind sor
Ġadv ise
m atch
St ar
ĠAth let
F our
Ġprosecut ing
olute ly
he ster
Ġshe ets
ĠCon vention
he art
Ġf ancy
Ġalleg ation
ĠBeyon cÃ©
ĠG rey
Ġwond ering
Ġbon us
terror ism
Ġsl aves
ĠD ew
ĠX i
de ep
Ġbalcon y
ant ing
ĠK az
ĠMc N
Ġgun shot
Ġpack ages
Ġpoet ry
Ġrelie ved
ĠEd die
r ations
ir i
Ġtri ple
Ġop ted
ĠArab ic
ĠZim babwe
c asts
arth y
uc ed
Ġpat ent
Ġabduct ed
Ġdrun ken
Ġclean er
um per
ĠCl aud
Ġpartic les
par ts
Ġinsp ection
ĠHug o
S cient
ĠChampionship s
raf ts
Ġprocess ing
ac ent
ĠH ague
ct ica
Ġrespons es
irst y
ĠCommun ist
ĠGard ner
Ġd a
Ġapp lying
ĠMor oc
Ġnickn ame
ĠS elf
Ġdre amed
ist ance
Ġmin ing
Ġteam mates
Ġchamp agne
Ġpupp y
uc ked
Ġadvoc ate
oll ah
Ġbr ows
Ġ196 3
Ġsk ies
Ġnon profit
Ġconcent rate
Ġy oga
ĠGu y
mar ks
Ġc attle
ĠB ird
Ġch art
ĠN one
pl aced
Ġh iring
Ġthreat en
Ġc ows
Ġp ic
ig ue
Ġcompl ications
Ġy ield
Ġbre asts
ĠJen kins
Ġto ss
ĠK atherine
Ġret ain
ĠD ylan
Ġout lets
ĠSt ef
ĠSh ould
Ġrespons ibilities
Ġp istol
Ġso fa
Ġprep ares
ĠS lo
Ġunf ortunately
n ut
ad vant
Ġland l
ĠKe ane
uer to
Ġlugg age
er ie
Ġsl ave
ĠSal t
ĠJ ar
Ġdown load
Ġsub urbs
Ġdeal er
ĠPort land
ĠK ane
iol a
Ġunivers al
ĠMad ison
Ġstorm ed
am ents
un es
ĠF ish
ĠO cc
Ġsl ide
Ġconcer ning
ruct ive
ĠS ark
d ep
Ġpost ers
Ġfasc inating
le ading
Ġl ied
Ġdis orders
ar in
Ġl ighter
ag les
Ġtrend s
Ġmat ched
8 6
Ġnot able
Ġaut o
ĠM aking
ound ed
ĠOr der
Ġens uring
Ġrepl acing
is y
Ġg ut
Ġcomp at
Ġbr ick
Ġpurs uit
ĠPrest on
ĠD yn
ĠTem ple
i ago
ail ing
ĠSc ar
pr us
Ġepid emic
or able
Ġ3 50
Ġball ot
Ġcar riers
Ġbre ed
ĠAm sterdam
Ġbe head
ill as
ather s
Ġpot atoes
iff e
ar ked
Ġsil ly
e h
ĠLe ft
h or
Ġg ren
ĠBened ict
w r
ab y
ĠN ation
Ġd uck
ĠCur t
M us
v o
Ġsuper b
Ġcop per
ĠAntar ctica
ĠLut her
ĠT SA
l ay
Ġb unch
ve t
sh ore
ro b
Ġcapt ion
Ġdomin ant
Ġcorpor ation
Ġconfront ation
at on
ĠTh ird
Ġsens ation
Ġp y
ĠK i
arg et
ham mad
Ġp ope
le m
Ġpurs uing
Ġentreprene ur
ĠCh op
Ġperman ently
ĠEth iop
ĠS ay
off s
Ġsmall est
ĠCong o
Ġsouth west
ĠM ills
Ġr ude
gg y
cill or
Ġgun men
Ġdisch arged
ĠBang l
Ġreg ist
Ġinvest ed
Ġbod ily
Ġcook ed
ĠA P
Ġgu ilt
ĠStand ard
Ġappro aches
Ġeng aging
Ġ197 7
Ġprin cess
Ġexpress ing
Ġaff ection
ĠB P
ĠH ell
Ġbeh ave
Ġscen ario
ĠBry an
ĠB rew
ĠSer b
ĠMark et
Ġconsist ently
step s
que z
IC K
ĠNapole on
s uch
Ġf et
ĠMar ines
Ġ19 45
Ġ196 4
Ġsqu ir
Ġprem ium
Ġhand ing
Ġadvant ages
h ma
Ġcook ies
part y
r anged
ition ally
ĠHay es
ĠCrim inal
Ġo rient
Ġcom et
Ġretail er
Ġthe r
or ic
ĠH ERE
ĠW W
iss ance
Ġass ured
ĠCat hedral
Ġal ly
ĠF itz
Ġindepend ently
P er
air y
sp oken
Ġmon ster
Ġdiv ide
Ġdecre ase
ĠHispan ic
ĠM aster
em bled
bour g
s ki
v ol
ĠM ey
Ġcruel ty
0 3
f i
Ġen l
ĠMay weather
ĠWall ace
Ġpig s
F i
p ost
ĠK ens
oz y
ĠA j
Ġsuccess or
ĠP uerto
ĠBang kok
Ġex ternal
Ġcommit ting
Ġalt ogether
Ġp owered
Ġp owder
ĠFl oren
ĠStafford shire
Ġcertific ate
Ġro ot
Ġgrocer y
ĠP age
Ġch asing
Ġv ib
ĠSu z
Ġintegr ity
st ed
ĠL ess
Ġper ception
Ġexpl oration
b ishop
Ġcost ly
ĠMan ning
Ġ197 2
en k
Ġdevelop er
Ġbuck et
Ġalleg es
Ġinsp ector
ĠE sc
ĠRe yn
Ġpenc il
ĠWin ston
ai res
Ġmeaning ful
O C
ĠR ica
ĠCy prus
ĠAl onso
ĠRob b
ĠE lementary
ĠEconom ic
ĠK al
Ġsc ram
Ġlif ting
Ġo v
au er
Ġut ter
hur st
Ġe Bay
ab i
pr ising
Ġmaintain s
Ġp atch
ant an
ĠBrit t
Ġdark ness
ed uc
Ġglam orous
ĠZ ucker
Ġren owned
Ġc aut
ĠW end
Ġr all
sh irts
Ġgra vity
ĠJeff erson
Ġpock ets
M P
ĠF ind
Ġper m
ric ia
ĠN ixon
Ġemer ge
ĠBal i
ĠEll is
ĠM end
oy le
ias m
Ġju ven
Ġc ents
ale z
Ġc emetery
Ġam azed
Ġconven ient
Ġal ike
op ol
Ġthr one
ĠNor wich
A P
Ġcateg ories
Aust ral
Ġcred its
Ġgr at
Ġamong st
s ize
y ers
Ġform at
ĠTh ink
ĠRam sey
Ġo ceans
ch ief
Ġj am
Ġcompass ion
ĠC av
d ahl
M other
ar ming
Ġinv ite
Ġbu ff
ĠTe en
ĠWell s
Ġnickn amed
May be
Ġsacrif ice
Ġ196 8
Ġcr ashing
resp ect
ĠHus sein
ĠL ions
ĠSer ies
ĠBlack pool
Ġover turned
Ġbar riers
our t
ĠK le
ĠConserv atives
Ġb ip
Ġd ancer
ĠPl us
Ġch op
Ġaw kward
Ġrid ers
k ill
Ġparticip ating
K e
ia z
Ġorgan isations
Ġking dom
stan bul
ĠTh or
ĠCap t
Ġupd ates
ict ing
ĠV A
Ġelement ary
Ġb ases
ĠF ast
ĠNew ton
bo ards
Ġimag ined
Ġeur o
od ing
Ġpros per
he ro
Ġref und
Ġconserv atives
ĠDoct or
ĠP il
c ell
em outh
ĠGr an
Ġearthqu akes
ĠH orn
Ġcon vey
Ġacc ent
ĠMcC arthy
Ġrock ets
Ġnegot iate
Ġaband on
ĠD OWN
sh aw
Ġneut ral
ĠMon ica
o ft
ĠB ian
Ġro de
Ġtal ents
Ġauthen tic
m ay
Ġr apper
Ġconfl icts
Ġpro st
Ġr ated
ĠPri or
al og
ill ery
ĠHe ather
Ġind ex
Ġgu ided
Ġprosecut ed
Ġtrib al
iff s
imp se
ĠNev ille
ers en
Ġint eg
ĠAndrew s
ĠCole man
Ġar ray
Ġsk irt
Ġdepend ent
Ġs incere
rie ving
Ġl uc
ĠH at
ĠPar alymp
ĠGo ing
in ted
Ġoper ators
ĠNic olas
Ġcampaign ing
ĠCent ury
Ġcounter parts
Ġdim in
ĠV ar
reg ation
onn ie
im als
os y
ĠDan ish
Ġban ning
ĠD awn
Ġdis advant
ater al
Ġcollect ive
Ġphys ician
Ġparticip ation
Ġf ict
Ġswe eping
Ġf ixture
ĠTh us
ific ance
ĠRoman ia
ud a
ĠK ind
Ġint imate
Ġsub stances
ĠTw enty
ĠMalays ian
Ġp or
op ard
Ġshut down
Ġuniform s
ĠMah m
s ign
Ġepis odes
Ġsurprising ly
Ġjur is
Ġrep ublic
ĠB oko
ĠP iet
Ġtr icks
Ch ar
Ġrelax ing
og ging
Ġrebu ild
s ic
ĠD in
Ġacc ord
Ġ11 0
s ky
Ä ģ
ab outs
Ġapp et
st ock
Ġor al
EN T
Ġphotograp hers
Ġcollect ions
Ġpurch ases
_ .
Ġc ute
ĠIs a
9 2
el ed
ain ted
Ġt an
Ġp engu
Ġas hamed
RO LL
Ġimprison ment
Ġdestro ying
Ġkill ers
Ġpat ience
Ġart work
ĠAd v
a very
Ġbl ocking
ĠAt hens
Ġformer ly
Ġdisp os
ĠWel beck
Ġconven ience
Ġcan s
aim s
Ġart istic
E m
Ġf ert
ative ly
Ġgl impse
Ġavo iding
A A
Ġout doors
Ġind oor
Ġjud g
IC E
Ġlearn t
int age
ĠBron x
Ġassass ination
ĠB and
Ġinv itation
t ar
ke e
ĠAl v
Ġest ranged
w ic
Ġg ases
ĠC art
ĠN orm
ĠRoll ing
us c
Ġbre eding
ĠEurope ans
ĠShort ly
ĠRe uters
Ġn od
ĠG olf
Ġapart ments
Ġbroad er
Ġasp ir
Ġdign ity
Ġdisc ount
ĠJan et
Do ct
Ġsurviv or
ĠT ampa
Ġc ro
aine es
cont rolled
w ed
ĠT itan
ĠB h
Ġch ased
amp ed
Ġh ats
Ġh obby
im on
ĠN umber
Ġple ading
Ġdistinct ive
Ġnomine e
Ġrehabil itation
r ons
Ġwas ted
Ġpan els
ĠChap man
ĠH ugh
en berg
Ċ ĠĠĠĠĠĠĠĠ
Ġj oking
ast on
ĠHel p
Ġcap abilities
Ġspe eches
Ġdr owned
Ġ197 5
ĠNor wegian
ĠOs ama
Ġumbre lla
Ġa ver
Ġhe ating
Ġwhere as
ĠFor bes
Ġfin est
er r
Ġ !
Ġrec l
Ġcoff in
Ġunp aid
Ġbull ied
v ia
Ġd read
ĠGun ners
Ġteam mate
ish a
ĠFred er
Ġout fits
Ġgr ay
ĠBar on
ĠX box
ĠSand usky
Ġgamb ling
Ġr age
Ġpost p
Ġfree ze
Ġbus h
Ġ0 1
t aken
ĠG iven
so le
Ġappl aud
Ġmut ual
Ġagric ultural
a ab
ĠTheres a
al id
Ġpro ving
Ġallow ance
ĠB urg
Ġser ial
Ġz ones
L ike
Ġp and
ĠW igan
ept ion
ĠKn ow
Ġtoug her
ĠS earch
ĠM agn
Ġneck l
boy s
G erman
ĠV o
Ġpo em
M on
W as
Ġj ealous
ĠTr ump
Ġsand wich
Ġantib iotics
Ġn ude
Ġro omm
Ġsad ly
Ġmaintain ing
ĠP ad
Ġmath s
ĠP ur
ĠL ie
ĠR ah
Ġinc l
Ġch ol
Ġtrib es
Ġse g
ĠK am
J ames
g ame
ĠL ar
Ġmor ally
Ġviol in
ĠMal i
Ġinnov ation
w he
Ġinc ent
Ġdis asters
Ġfrequ ency
Ġdiscover ing
ĠAll iance
ĠSC ROLL
Scient ists
Ġfor ming
el i
Ġfl aw
Ġass isted
ub a
ss on
Ġfin ances
Ġassaul ts
Ġattrib uted
ĠM ong
ĠC and
Ġident ifying
Ġwe ird
ĠI RS
ĠM atch
ĠDe ep
Ġcons ol
ĠR over
Ġra ided
ĠSe oul
ubl in
Ġcontract or
ow ay
ĠAd eb
Ġhand bag
Ġcamp ing
ĠR ather
ĠUK IP
Ġrh yth
b ig
ĠP ast
Ġtop ics
Ġrecord ings
Ġthank ful
Ġhy per
Ġback yard
ĠC ulture
ĠRos ie
ĠPit ts
ĠR SP
Ġno on
Ġgr ammar
Ġreluct ant
f rey
r ine
Ġres olved
Ġeff iciency
ul u
ĠIs ab
S e
ot hes
Ġ' '
Ġacc um
T C
Ġstr oll
A uthor
Ġopp ose
ĠAm endment
Ġgar bage
ĠPict ures
Ġaut ism
Ġsem if
ĠCamb od
L C
ot ted
ĠI ss
Ġsign ificance
Ġmod e
Ġrain fall
ĠKardash ian
Ġint ake
Ġ197 3
p ound
qu al
ĠUn it
Ġ9 00
Ġpress ing
Ġpropag anda
O p
b et
Ġg rap
Ġcolor ful
Ġdep uties
Ġflex ible
Ġanch or
Ġgr ace
Ġh ills
Ġm asks
qu et
Ġb ay
Ġg rip
ur an
Ġst ead
Ġfant asy
ĠT ian
ug ar
rib ly
Ġdisag ree
th ouse
Ġcomp osed
ĠY ahoo
udd y
Ġembarrass ment
ĠCroat ia
ĠHe b
ĠF ig
9 7
Ġfail ures
on om
ĠSchool s
Ġbook ing
u ke
ĠB in
ĠPear son
ĠKens ington
! âĢĻ
Ġp ap
Ġlab els
Ġparticip ated
Ġass ert
h it
Ġg host
ĠC oul
Ġv oy
ĠCh i
Ġback pack
Ġsp ite
Ġres ource
ĠBr ig
Ġgrand daughter
Ġ196 7
Ġdist ricts
Ġstamp s
s pr
Ġfinanc ially
Ġsch olars
Ġelectron ics
Ġsurround ings
ĠFA A
Ġdispl aced
Ġdyn asty
Ġl akes
Ġaw ake
Ġprov iders
ĠEm peror
se en
ĠOtt oman
. âĢĿ
Ġresp ects
ĠCar ney
Ġp ipe
ĠT ogether
ĠG em
ĠJ ol
ĠTh orn
Ġprot ocol
G eneral
Ġshut tle
ĠUnivers al
Ġkill s
Ġ197 1
Ġauthor ized
ĠInd ians
Ġrob bed
om o
Ġdocum ented
ĠPaul a
Ġvill agers
Ġfortun ate
z o
Ġv on
Ġsal ad
Ġcouncil s
old ing
Ġconclud e
ĠLind say
ĠBM W
b ands
ĠMon te
Ġwrong doing
Ġend less
ĠSer ie
ĠNatal ie
Ġinsurg ents
ĠH ut
Ġh acked
Ġn ap
ĠMidd les
n est
ind a
Ġpre fix
Ġdeal ers
D ay
ĠF ans
Ġform ula
ĠC ov
Ġinter im
Ġ9 2
keep ing
Ġexch anged
Ġacknow ledge
Ġfl esh
antan amo
ĠM I
ĠSt orm
ĠY ears
ĠCrime a
ĠM ove
Ġir re
ĠS ac
ĠPat rol
E ur
ĠR ut
igg ins
Ġtremend ous
S hab
onym ous
ĠF inal
Ġlaw n
Ġsepar ation
Ġbelong ings
Ġexhib it
Ġexclusive ly
b ucks
ĠR al
Ġhe m
Ġbl asted
Ġrequire ment
ĠT on
Ġdesc end
Ġadap ted
I m
ĠM ul
ro be
ans on
man uel
ĠI stanbul
Ġsp o
Ġenthus iasm
ar is
Ġind icted
it ime
ĠThere fore
Ġhack ers
Ġsp ider
ĠBlack burn
t ion
Ġreck less
op ular
Ġm aid
ĠS ign
ĠN asser
Ġcont acts
Ġkn ives
Ġhor rified
Ġcontr ad
ĠFrench man
Ġliter ary
ater nity
Ġdet ainees
Ġtext ing
ĠFel ipe
ag ine
Ġnot ified
Ġp ale
Ġm ounted
Ġbe aring
Ġover haul
Ġsurf ing
h ole
ar ter
Ġde le
Ġimpl ications
ĠAv iation
ets k
atter ing
c ap
Ġdet on
ĠFranc ois
âĢĿ .
m id
ĠPet e
ĠWork ers
ĠB apt
ess a
th ird
ĠJ ur
Ġuncertain ty
Ġl ump
ĠI N
Ġnot ably
it ating
Ġbound aries
Ġvoc abulary
le v
C hel
Ġin mate
Ġdecl are
Ġenh ance
Ġbackl ash
ĠM ust
ct uary
Ġmeas uring
Ġdoll s
ie u
Ġhum il
ef in
ĠS A
Ġsl avery
Ġcost umes
Ġ201 7
Ġvict ories
ĠGu antanamo
Ġcontrib uting
ĠR ig
Ġconsid ers
Ġathlet ic
ĠSuff olk
Ġrel ay
ÂłÂłÂłÂłÂłÂłÂłÂł ÂłÂłÂłÂłÂłÂłÂłÂł
Ġintellect ual
Ġfocus es
Ġdict ator
Ġinj ection
m ill
Ã Ń
ĠWil s
ĠBoy le
n ell
ĠC raw
ĠO mar
ind y
Ġloc ally
Ġprev ention
Ġappro ve
ĠNe g
ĠMet ro
Ġpension er
ĠLenn on
Ġtradem ark
ĠHe y
Ġmechan ical
er ving
Ġl oses
oll o
Ġsn acks
Ġpred omin
Ġfit ting
ĠF inn
ĠK ier
Ġoverwhel med
ĠC L
ĠH S
Ġag ing
av an
Ġrest ing
Ġup rising
Ġrub ble
Ġt ense
Ġplun ged
Ġt ide
ur bed
ĠK id
ne x
ĠIm perial
ĠPoc hettino
ir s
ĠP orts
ĠCh uck
ĠBl ood
ĠLaw son
ĠMu hammad
Ġm asc
Ġinsp ectors
Ġp add
ĠF isher
Ġoper a
Ġshot gun
it ants
ip h
ĠV iol
Ġadd ict
Ġeconom ies
ĠBur ke
Ġwire less
ĠTM Z
is k
Ġmoment um
l ive
ur i
Ġr het
ĠL az
Ġjud ged
Ġaccept ance
Ġstuff ed
Ġfestiv als
Ġposs ess
ĠGene va
t les
Ġdesign ated
inh ua
] ,
Ġs ank
Ġall iance
ĠUS S
Ġsuper ior
C omp
Ġdis abilities
g ender
ĠPal m
Ġwithdraw al
spe aking
ĠReyn olds
Ġcoun ted
Ġtom atoes
ĠN obody
Ġfif teen
ĠJess e
Ġkilomet res
ĠIndones ian
ere k
ĠP rivate
ĠE ug
ĠU C
Ġover look
ĠRe view
EA L
ĠS ide
oph ob
ĠDou g
ĠBroad way
V ict
ĠP un
uper t
s ection
er able
Ġb orrow
Ġg aming
Ġsc ans
Ġ201 8
ĠTele vision
U s
W he
Ġs outheast
Ġinf ect
ul ates
Ċ ĠĠĠĠĠĠ
h ift
icip al
ĠGall ery
Ġsh aped
Ġsn akes
ĠToy ota
f ood
Ġint end
Ġcl ar
Ġins ect
Ġintro ducing
keep ers
Ġanonym ity
ĠVen ice
ĠKenn eth
an iel
ĠAb raham
ext reme
Ġpersu aded
ĠSerge ant
ĠSeb astian
Ġspect ators
b ear
Ġs ect
Ġf og
Ġbelong s
Pr ince
Ġext ract
Ġprof ound
Ġhun ters
3 50
ott est
S am
Ġsurge ons
dem ean
Ġw are
Ġpro stitution
Ġhon ored
Ġpsych iatric
Ġemphas is
Ġto pp
oc ide
Ġun armed
T w
ĠT ol
Ġev ident
ĠSh in
Ġcondol ences
ĠSark ozy
ĠL av
j ad
in ces
oc c
ĠSh op
Ġpar ach
Ġsuccess ive
Ġconv oy
Ġorient ation
Ġcompan ion
Ġimplement ed
ro ve
ĠG ove
ĠRes erve
ih anna
ĠT ar
ĠC reek
ile e
Ġperform ers
Ġattract ing
ĠK il
anc ers
L iverpool
ĠCh ambers
ĠSc iences
ĠGib son
ic hel
con i
Ġdefend ers
Ġmotorcy cle
ĠGonz alez
Ġdiction ary
w yn
ĠAd vent
Ġmand atory
Ġchem istry
Ġmemor able
anc ies
Ġshow ers
Ġwhere abouts
Ġcontr ary
Ġneighbour hood
Ġinsp iring
ĠBerg dahl
ĠS aid
Ġrevel ation
R ec
ins p
Ġjoin s
f illed
Ġen v
Ġwithd rawn
b est
ĠSc ots
Ġbo ards
Ġbl owing
min ed
ĠEnvironment al
r unning
Ġl oun
ĠStra uss
o os
Â ¿
ĠL oc
Ġast hma
Ġnut s
am il
ĠHop kins
ĠFin land
Ġdece ased
oin ts
ann ers
let cher
Chel sea
at ile
un s
Ġr ider
ĠD a
back ed
he ng
Ġparen ting
Ġbox er
ĠHol iday
at al
Ġman if
Ġpri zes
Ġang le
Ġswe ep
Ġsubs id
Ġgentle man
Ġg onna
it ic
Ġinter action
ĠGl en
Ġpred ators
ri que
as m
Ġrele ases
Ġvac uum
u y
ĠB ody
Ġcount ies
ĠPaul o
B rien
N orth
he ll
ĠD ays
br id
ĠT ah
Ġpresent ation
Ġexplos ions
w art
Ġamb ition
ĠAlf red
r era
oo f
ĠE lection
ĠSt ory
ific ent
ipp a
Ġrecy cling
ĠR eds
Ġcol ony
Ġheav en
B M
ĠHam mond
d isc
h usband
Ġexam ining
ĠRam os
om i
ĠN i
ĠG round
oot ing
o ffic
Ġhalf way
f ig
ĠR ory
Ġbus iest
ĠSw ift
Ġscre amed
Ġcogn itive
c led
f ar
ĠE is
Ġ9 8
Ġsen ators
Ġfright ening
Ġtu ition
ur ers
ĠM ang
ĠM umb
Ġcomp ly
Ġcreat or
ĠU se
Ġdef ine
pr ints
re ction
ik t
ĠGe off
ĠBrother s
Ġle ap
lam m
th ink
ĠTe a
Ġve to
n emouth
ĠF actor
Ġab d
Ġprocess ed
6 4
Ġsu ite
Ġrem orse
ĠBet ty
ers e
Ġobs erve
ĠSand ra
f eld
Ġr ans
Ġur anium
l ic
ĠW HO
Ġhyd rogen
Ġover c
Ġen roll
Ġbr idges
ĠDon etsk
ri or
Ġ196 6
Ġportray ed
Ġconscious ness
G eor
Ċ ĠĠĠĠ
ĠGu inness
Ġcycl ist
Ġextrad ition
ĠSpr ings
ĠN on
Ġso b
ĠEar l
Ġemotion ally
ĠNep al
Ġdig ging
ĠTim othy
Ġlegisl ative
Ġt une
Ġcon sole
ĠL ogan
ple asant
gu ards
Ġanticip ated
ol esc
g or
ĠG ir
pt ic
Ġtra p
Ġ8 9
Ġlim bs
ĠZucker berg
ri ans
op les
ĠJo el
Ġsoc ks
ch a
Ġconcer ts
Ġeconom ics
room s
Ġexha usted
Ġcl oth
Ġfire arm
Ġgen ius
Ġorganiz ers
go ers
Ġball oons
Un fortunately
ang le
ĠCl ick
ĠH app
th ood
ĠD ublin
ph oon
Ġmin im
ĠIs le
Ġprem ises
Ġst al
Ġprov inces
at ers
ĠBut ler
te am
C o
Ġrep ay
Ġpat ron
ĠMiss ion
Ġinher ited
G od
Ġp icks
Ġsa uce
ĠArn old
Ġa isle
ĠPh ys
Ġluc rative
id o
Ġfl ats
ĠGar ner
ĠMont g
Ġun ity
Ġsuppl ied
Ġadvertis ement
b one
l ia
ag her
Ġdr ain
ĠWils here
ĠB il
Ġhom eland
S ur
ĠY u
ĠAm nesty
ĠAnt i
e ats
Ġ9 6
ĠBeat les
Ġrel ate
ĠSh ane
New s
k h
ĠBangl adesh
Ġt ar
ĠJo han
In stead
Ġbal anced
Ġtort ured
Ġeur ozone
ed y
ĠPorts mouth
Ġhe al
Ġd awn
Ġancest ors
Ġb er
ĠSt op
ĠDet ectives
ir teen
Ġpun ct
Ġamb itions
affe ine
Ġp ier
ĠHer o
Ġ196 5
Ġyouth s
ic ular
co on
Ġri ots
Ġrent al
Wh ite
Ġrum ors
ĠCor oner
am ins
ĠZ e
it ans
Ġday light
Ġpast or
Ġadv isers
Ab out
p es
Ġinterven e
Ġcontam inated
Ġpres erved
ĠSh ir
ĠStan ford
atto os
ĠB elf
Ġshe er
Ġf ut
Ġfr ank
ĠD ra
pp o
oca ust
Ġn ail
st ick
ĠS ound
ĠJ oint
ĠOliv ia
D S
s qu
Ġcr ashes
Ġo ught
gr own
Ġeld est
Ġshar ply
he em
Ġbe ans
im ents
uster ity
Ġexperim ental
f irst
Ġaddress ing
Ġarrang ement
e ves
ĠC lear
ag ging
ĠAsh ton
Ġexcept ional
Ġroutine ly
Ġinto x
Ġpre jud
Ch ildren
ĠChall enge
ass o
ĠB ak
Ġrec ipe
che ster
ĠStar bucks
p in
ce pts
ĠG B
Ġcard iac
iz ard
ĠTr ay
Ġboard ed
Ġc ens
es a
Ġsatell ites
P al
ĠK end
br aska
Ġsa ke
ĠJ et
Bl ack
Ġst icking
Ġneighbour ing
Ġsm okers
omet er
Ġ9 99
ĠTe achers
ĠDaw son
Ġ9 3
Ġtop s
on gh
ĠA er
Ġind igenous
ĠAp ollo
s aving
Ġf its
Ġtrans mission
Ġreview ing
Ġtrib e
ĠFo ley
x i
est ing
Ġrisk y
Ġinquir ies
Ġmem oir
Ġsuper star
Ġpsych iat
Ġapplic ants
Ġprem iere
e lect
u ously
ion a
ĠR ugby
Ġmakes hift
ĠChe ster
Ġbrief ing
Ġst ark
Ġguarant eed
Ġm aj
ĠCh ang
nder ing
Ġref lection
ĠShi ite
ĠK abul
ĠBar ca
ĠRay mond
Ġevac uation
B E
Q ue
U K
Ġs ir
Ġfor um
Ġp irates
Ġd il
ĠE cc
ĠTh ings
Ġcor rid
Ġrespond ents
ĠTra vis
Ġvolunt ary
f light
Ġaim ing
Ġsand wic
ĠPol icy
Ġhol y
ĠAmb assador
ĠHaz ard
osy stem
ĠGreg ory
Ġchick ens
c ount
Ġb ans
Ġorder ing
viron ments
Ġinstruct ed
Ġjewel ry
Ġp ains
Ġsh attered
pr ot
Ġs el
ou st
Ġgym n
ĠVis it
ĠBox ing
Ġexped ition
ĠM obile
Ġdis gu
Ġkn ocking
ĠTrip oli
at ical
ĠS leep
el ong
c hest
Ġre ef
Ġv ic
Ġnot ion
Ġnurs ery
Ġgall ons
ĠR ihanna
Ġout put
g reen
6 2
ĠJ unior
ah o
Ġmamm als
ĠBour nemouth
ĠD est
Ġun ited
ĠRec ently
Ġprivile ge
Ġb its
ig s
ĠM ersey
ĠAre a
writ er
A L
h aw
Ġexp ort
ĠI C
8 2
Ġcount ing
Ġhard ware
osa urs
ĠL ed
Ġfam ed
Ġobject ive
ĠLat ino
Ġacqu itted
Ġimprison ed
Ġoccup ation
Ġsail ors
arg o
Ġemer g
Ġachie ving
ĠChes hire
Ġus age
ade qu
.. ."
Ġext inction
fl ies
A ct
ĠPro f
ĠCent ers
ĠR ico
ott o
ĠDis covery
Ġan ten
Ġow ed
C ont
d ge
Ġprog ressive
Ġdist raught
ĠTr ad
Ġban ner
ou ver
Ġtow ers
Ġm ast
ong a
Ġpr isons
ĠV ery
ĠVis itors
Ġpar alle
ĠHer t
Ġterrit ories
Ġtrib utes
NE S
Ġsu ic
Ġdrive way
Every thing
ĠEll en
, .
ĠGard ens
ĠBul ger
it ig
ver ts
ĠPrim ary
w ould
th an
Ġpres cribed
Ġpress ures
Ġscholar ship
Ġhel pless
sp ace
ir it
ĠO ften
Ġpool s
pher d
L ou
ov ak
b in
Ġres erves
fore st
ĠNew town
N S
ĠC able
ĠAl t
Ġstat ute
Ġcrit ically
Ġ196 2
Ġshel ters
z ens
ĠJ in
ry ing
Ġun healthy
Ġmis under
Ġv icious
Ġrep airs
ĠW o
Ġad ul
Ġmagn itude
ĠSpani ard
Ġh ind
Ġl asts
ĠK enny
Ġrob ust
Ġesc orted
Ġmis demean
Ġtransl ated
Ġmedic ines
Ġw olves
Ġc ottage
Ġoverse e
b ot
Ġout s
Ġaccount able
ast rous
Ġac ute
Ġorig inated
Ġscr atch
Ġj ungle
Ġsn ack
Ġsil k
Ġburn t
ĠLt d
Ġb oun
es ar
ow ler
aren cy
Ġsoc ieties
Ġcrit eria
Ġminor ities
est hetic
ĠF letcher
Ġcons p
fund ed
ĠH ilton
ĠDon na
ĠRSP CA
Ã ¢
Ġr aced
Ġref uses
ĠCher yl
anc ouver
Ġtall est
ĠLyn n
Ġchar ts
Ġsimilar ly
W omen
f ighters
al ia
ra ud
Ġwait er
Ġclean ed
Ġly rics
ĠBund es
y r
Ġ icy
ĠT uc
Ġg or
Ġfound ing
Ġintern ationally
ĠGlob e
Ġmar ched
ĠCar a
Ġgen et
girl friend
ĠAle ppo
P art
d id
ĠC ad
ĠR ams
Ġj azz
uff le
Ġproud ly
Ã ±
os ity
.' "
Ġro d
Ġhead line
Ġhead aches
Ġconnect ing
Ġfor ty
ĠB att
Ġen vironments
f aced
Ġcontest ants
ĠEd en
Ġinnov ative
ĠM aid
ĠChe ng
Ġan ts
Ġinc on
Ġmed ieval
Ġtrans it
ĠM ig
ress es
Ġdep orted
Ġ âĤ¬
pl an
ĠColumb us
ĠObs erv
Ġbe ard
ĠP in
ĠO t
ĠPop ular
A ng
at isf
Ġd ose
Ġst air
Ġlay ing
ĠRal ph
ĠC any
ĠL ate
Ġbar red
st ant
Ġg ently
Ġoper ational
ĠBer kshire
beat en
C he
Ġresc uers
Ġbom bers
G l
el ia
ĠB T
ĠV II
Ġfoot steps
Ġgun fire
Ġsitu ated
Ġrecruit ment
ĠC ore
Ġcar riage
ĠChe ck
T om
f ts
ĠS ure
Ġim per
Ġdes cent
Ġresp ir
Ġfac il
inc ing
ĠMcC art
ĠKen yan
ri ents
ĠMumb ai
Ġalbum s
ĠDog s
Ġadvertis ements
ĠWrit ing
on ial
Ġback wards
an im
U p
Ġhear ings
v it
Ġw iped
ĠC ay
Ġgest ures
Ġr ains
ĠAust rian
ĠSur vey
Ġpr ank
ĠCon c
Ġinter active
Ġesc ort
Ġkil og
Ġun st
ĠL ED
Ġsp ree
Ġdr own
Ġpolic emen
ĠStand ards
lus coni
R eal
in ator
ĠM ak
Ġec osystem
T ake
Ġhe n
ĠV iv
ĠApp eal
ĠMcL aren
ĠNe braska
Ġsurf aced
Ġb und
ĠB rent
ĠD om
Ġse af
ale y
Ġsuffer ers
Ġplum met
Ġloc ks
Ġang el
ĠRec ord
ĠG am
sk irts
ĠDem s
8 4
Ġm ock
ĠR ace
Ġfl owing
olog ically
Ġorgan isms
feed ing
e ah
Ġm im
ri et
act ory
Ġbet ray
ĠCar nival
Ġlab elled
8 7
Ġfl ame
ĠAg ric
re hend
Ġapp alling
Ġmod elling
ĠQ ing
Ġprepar ations
ir able
ĠO wn
hab i
Ġt ents
ĠD iet
ĠJ ub
ĠBl as
aun ch
Ġgra ph
le ine
ropri ately
ĠBever ly
Ġeleg ant
ĠSch um
ĠX inhua
il ation
ĠTh om
Res earchers
n els
Ġjust ify
Ġtom b
ĠMir anda
Ġunlaw ful
ĠP GA
ĠAber de
Ġfict ional
st ory
Ġint ensity
Ġforg ive
Ġveget able
Ġrab bit
l asses
Ġt ends
Ġsu e
act ions
Ġcorrespond ent
Ġwh ites
ĠG DP
Ġencoun tered
Ġembr aced
ĠIv ory
ĠCurt is
Ġl azy
uss ion
ĠFam ilies
be k
Ġobserv ation
ĠDian e
in is
ĠDe bor
Ġloc ate
Ġrad i
ĠMir ror
Ġpubl isher
ac ious
ĠEl vis
Ġsal aries
ĠPat ricia
Ġsupposed ly
Ġbarg ain
Ġt attoos
Ġn erves
ad ise
Ġsp ine
Ġsc attered
Ġhel m
ĠWil ts
ĠConf eder
Ġw olf
Ġs inking
op ed
ĠD im
Ġle isure
Ġl inger
Ġst ew
Ġyour s
Ġbattle field
Ġur ine
Ġprosp ects
Ġb ang
oll s
Ġcand les
Ġunsuccess ful
Ġh ockey
ĠP ret
ĠAm ber
w ords
ic ia
ĠP ant
ov ich
Ġtraum atic
Ġb orough
ĠT ab
on ation
Ġf art
Ġun pleasant
ĠBrand on
Ġcollabor ation
Ġd itch
Ġunw anted
i ary
le ments
Ġhe aling
ĠF alls
I G
ĠD anger
ra vel
Ġhum our
r at
ugg ing
Ġare na
Ġdeb ates
ĠPitts burgh
Ġt igers
Ġstar ing
ĠBur ton
Ġtoler ance
ardy ce
art en
Ġtal es
Ġbankrupt cy
Ġjuven ile
D id
d el
ar ts
Ġup gr
Ġposs ibilities
Ġinflu ences
Ġlad der
Ġhaz ard
Ġl anes
Ġeduc ate
ĠGriff in
R ed
ay or
ut ter
Ġp enny
Ġwor s
ĠY ellow
Ġmagn etic
Ġfract ured
ĠSu ccess
Ġsurger ies
Ġven ues
ĠBah rain
M ark
ĠV ancouver
Ġunder gone
E W
Ġv intage
Ġsk illed
ĠDes ert
c ation
lig a
Ġspecial ists
Ġwrong ly
Ġproduct ive
Ġeth ics
Ġmechan ism
Ġw aved
Ġlow ered
ĠEt ihad
ĠE SP
Ġcr ude
ĠBurn s
Q aeda
ĠT ech
ir k
Ġcolour ful
Ġshall ow
Ġab ol
bl ack
Ġappet ite
f ried
ĠChrist ina
Ġsick ness
Ġpredecess or
A M
ĠMe gan
umb ria
Ġhi king
ĠS iber
um ption
Ġout raged
Ġtheat ers
ĠBud get
Eur ope
Ġb ury
ĠD habi
Ġdr ill
ww w
ĠLyn ch
n ered
Ġ vert
Ġd ys
ff iti
ey ed
Ġbatter ed
Ġaccompl ished
ĠShe ikh
Ġrhet oric
Ġsm oked
Ġcap ability
Ġdiscl osed
Ġm ac
ell ar
Ġposs essions
Ġles bian
Ġs ore
ĠB un
Ġcr owned
Ġprov ider
Ġnarrow ly
Ġorph an
Ġpar alys
ĠTal k
ear t
ĠE X
Ġout skirts
arg est
Ġreg ain
ĠCl arks
ĠHor se
Ġcry stal
Ġprol ong
Ġinev itable
Ġh ottest
Ġre wards
ch anging
Ġsh ifts
Ġentertain ing
ĠColomb ian
Ġward robe
A lex
ett i
D ef
Ġtr illion
ĠStat istics
Ġa ides
ans k
ach i
ĠCany on
Ġal lege
Ġwrest ling
ĠAlexand ra
ĠI Q
ĠW orth
ĠD erek
com plete
ĠEston ia
l ights
ĠL ot
Ġtechn ological
Ġtransl ation
ĠCelebr ity
ĠWend y
Ġn ails
ĠMin isters
ĠWin frey
os lav
Ġman ages
Ġer r
Ġir rit
ĠF uture
ra its
Ġro ses
Ġpresent ing
ĠT arget
Ġcomp iled
ĠWor king
Exper ts
h uman
Ġup side
Ġmin imal
Ġinvest ments
Ġhur ting
Ġ194 4
Ġcock tail
Ġnew est
ĠÂ ©
Ġpract icing
ĠMed al
Ġcomb ine
ĠMoham mad
ĠBry ant
ĠDri ve
ar ound
ol in
Ġi OS
ĠHol ocaust
Ġeditor ial
ĠDebor ah
ĠR iley
Ġpl ag
Ġrac ially
Ġw aving
an ie
az or
inc ial
Ġhistor ian
Ġexch anges
Ġwithd rew
Ġconsequ ence
Ġpe an
Ġint ens
ĠRo ose
Ġaccident al
Ġgr ain
Ġjournal ism
Ġind efin
ĠBeyon ce
ĠH ood
ore st
ĠWh atever
Ġsur g
ĠCar lo
at em
Ġr ack
ĠFr aser
Ġass embly
Ġden ying
ĠEm ploy
Ġcock pit
ĠTibet an
Ġconsum e
Ġrecru ited
ĠCru ise
ne g
Ġposs essing
Ġmess aging
pro v
astro phic
M ad
Ġp anc
and als
Ġshow c
Ġdep ri
ĠP ippa
Ġbl ows
Ġ10 1
ĠBer lusconi
Ġcan al
oot s
Ġcosm etic
P at
ĠT as
Ġcar p
ĠM ia
Ġpro ves
Ġman ners
Ġc ripp
or mer
Ġqu ad
Ġneed ing
Ġorig ins
Ġloud ly
S en
z b
Ġp ouring
os aur
Ġcor rupt
Ġstream ing
Ġincor rect
Ġcon j
Ġcand le
rae us
ĠFloren ce
c ts
ĠW ait
av in
Ch inese
Ġstrateg ies
ĠBapt ist
ak u
Ġreg rets
min ent
Ġsung lasses
ĠSt ri
ĠAll ardyce
ĠI M
Ġsec uring
Ġret al
d ate
i ations
ĠS ou
ĠId aho
Ġl ens
ĠB oo
Ġsa ves
Ġwor ship
ĠSte enk
Ġout going
Ġdecl aring
ĠCamer oon
ĠDun n
O M
in ian
re ement
ĠS ak
Ġdis ruption
ĠWor ces
7 3
F amily
s ix
Ġn aming
um mer
oss ip
it ivity
Ġhorm one
Ġd ental
ick ers
Ġmod ified
Ġindic ating
Ġele ven
Ġpoll ing
Ġpro ceeds
Ġ9 1
ĠWilts hire
G M
H aving
vel ope
Ġviol ating
tr ick
Ġconfirm ation
RE E
Will iam
ĠSut ton
Ġbenefic ial
ĠM ik
Ġse gment
ap ova
ie g
Ġsh ipped
og s
Ġinj uring
Ġinfer red
Ġsty lish
Ġint ends
ĠBrit s
Ġtrans mit
ĠL ag
Ġab und
ĠTuc son
ru p
Ġquarter back
Ġcas ino
Ġfrust rating
Ġdis astrous
Ġsex y
rew s
Ġsequ ence
Ġtransp arent
Ġo un
Ġin k
Ġd ense
ĠF ah
ab a
ĠV ogue
Ġret ained
Ġexecut ions
Ġunw illing
Ġprohib ited
Ġranking s
ĠAs k
Ġrefer ences
L ife
Ġ 000
ĠB ren
ĠSt y
Ġsuit case
ĠSal mond
ĠKar zai
ĠMersey side
ĠL ance
Ġar ra
e ur
he y
Ġc udd
ĠC ob
Ġeye br
Ġtast es
A D
Ġr am
Ġroad side
ĠGil bert
Ġthorough ly
ĠBundes liga
R ober
Ġsod a
ĠU pper
qu ality
rit ion
an z
Ġblack s
Ġexam iner
Ġgen ocide
Ġgra ves
Ġnut rients
9 3
g ue
em ale
ane ously
Ġpo ems
Ġcul min
Ġdiplom ats
ĠSteenk amp
Ġrul er
ĠSome one
Ġpe oples
any e
Ġfer til
Shab aab
ĠA w
Ġintr ud
Ġa usterity
ĠS id
Ġ1 000
ĠJud y
Ġfort night
ĠS outheast
ĠComm ander
ais y
R ob
le igh
Ġopp osing
Ġvir uses
Ġdeploy ment
Ġalt itude
Ġle an
Ġmag ical
Ġlin ing
ĠOper a
h um
Ġh ike
Ġh amb
ĠSt ars
lo ading
ĠImm igration
8 1
Ġrit ual
7 4
ĠW onder
Ġmed ics
Ġimm ense
ĠMcC onnell
Ġne at
Ġmake up
ĠSh adow
Ġexc av
ĠVict im
Ġpip eline
Ġsp ared
Ġen abled
ĠR oth
Ġchampionship s
p aid
Ġthem es
Ġcred ibility
Ġbe gged
Ġpot ato
Ġrevolution ary
ĠO d
qu it
N P
b ad
ich uan
Ġcl ay
ore t
Ġab duction
Ġsepar ately
Ġagg ression
% )
Ġp ie
Ġmillion aire
Ġcontain ers
Ġder by
Ġru ins
col m
Ġcolon ial
otyp es
H ave
Ġacad em
Ġcul p
m ain
Ġsp inal
Ġgr im
Ġprot otype
Ġhun ter
ĠCur rently
Ġo ven
ĠSy l
ĠOr thodox
Un ited
ĠN ico
ĠG or
cl osed
Ġpack aging
Ġtransform ation
Ġsadd ened
Ġadequ ate
ĠChop in
ĠH ous
qu er
Ġdr illing
duct ions
ĠStud y
Ġseas ide
h s
im ming
ur u
ĠWal k
Ġenfor ce
Brit ain
Ġhas ht
Ġnation als
Ġdiscl ose
w ait
Ġc ement
ĠH os
ri x
Ġmin ers
Ġsk etch
Ġencour agement
Ġspect rum
Ġconclus ions
Ġdele ted
ĠF ew
Ġsuper vision
F P
Ġvot er
Ġlux urious
ĠNic ola
ĠArch bishop
ĠRepresent atives
Ġpain ter
Ġbit ten
war f
ĠOcc up
in ental
ĠChristian ity
ĠKat rina
Ġelim inate
ĠM ug
ĠH D
ĠH ello
Ġlands l
P arents
Ġc ries
Ġident ities
om ery
ĠA id
ĠCh ase
Ġrepresent ation
ĠIndepend ence
d irect
Ġd ual
ĠN y
Ġk icks
Ġpl aint
Ġdraw ings
ĠDel aware
Ġ@ @
f r
p ine
Ġn asty
atic ally
ĠPark inson
Ġinterpret ation
es y
ĠP itt
ĠSh are
Ġsal mon
Ġhous ed
Ġpaedoph ile
ĠT ina
Ġcapt ive
Ġcompon ent
ĠHass an
Ġneckl ace
c ore
Ġc affeine
ĠPet raeus
Ġd ip
Ġdi ets
7 50
b ably
Ġatt ach
Ġmus h
Ġclos et
Ġbul k
ĠPS G
ĠMade leine
ĠS ao
ail able
hen ko
Ġtro op
ĠPat riots
Ġoccas ional
Ġin equ
ĠJ as
Ġass essed
Ġcur riculum
Ġstret ched
d iction
sh ots
arm a
Ġton nes
ĠVi enna
Ġsh aken
iv ated
ood les
Ġbl aming
Ġcur tain
Ġmag istrates
Ġbra very
Ġarr ange
ĠC owell
ĠP ole
Ġen velope
Ġult ra
Ġh anged
Ġpull s
Ġwork force
less ness
Ġmotor b
Ġborr owed
M o
st ring
ĠN am
Ġad olesc
Ġm ature
âĢ ĺ
Ġconf isc
Ġp ear
ĠS S
Ġvit amins
Ġex otic
Ġdisp utes
ĠMod el
Ġhoney moon
Ġt in
Ġsl ower
Sm ith
ir us
Ġb idding
ĠP oo
ĠE instein
Ġlaun ches
Ġcart el
Ġcalc ulated
Ġdisg usting
ĠH ew
Ġdesc ended
ĠBent ley
Ġfr idge
ree ks
ĠCam illa
ela ide
Ġw ool
ĠH ours
Ġjust ified
Ġkiss ing
B ig
vel t
ac ies
ĠSp eed
Ġmo ist
Ġcontract ors
ack ers
Ġmilit ia
Ġcapt ivity
oub ted
Ġappoint ments
b at
on te
ĠH uss
Ġbub ble
7 1
F K
ĠB ach
ĠSur v
Ġcrocod ile
M en
et on
ĠJ a
Ġtr aced
Ġtw ent
uff y
Ġske leton
ĠH av
ĠO w
Ġexp ose
Ġsupp ose
Ġbackground s
Ġtur key
Author ities
Ġl amb
Ġchat ting
Ġtoile ts
Ġnot or
od ies
ĠEn rique
Ġserv ants
ĠGriffith s
Ġsur rog
Ġblog ger
Ġfiref ighter
ĠAlger ia
S y
a ic
Ġacc use
ĠJane iro
Ġsandwic hes
ĠN ear
Ġflag ship
ĠLo han
ĠESP N
Ġp und
ĠC ut
Ar senal
cont rol
ĠMarc us
ĠConst able
Ġhost ile
ĠAss ange
Ġpray ing
Ġpave ment
N C
Ġc ensus
Ġp als
Ġre duces
ĠL ad
ber ries
for cement
ĠTunis ia
F O
ĠSh ield
Ġconsult ation
m ia
v iol
ett el
Ġstress ful
Ob viously
un ct
ĠLord s
ĠShar apova
Ġsche mes
Ġlibr aries
Ġbru ises
ĠGlouces tershire
Ġb ure
Ġbe gging
ĠF ed
Ġatt racts
ne ider
ĠAntar ctic
ĠQu inn
Be ing
Ġsmugg ling
ĠAl ison
Ġtele vised
ĠSuper intendent
Ġbon uses
ĠIn it
Ġsupp er
Ġintent ions
ane y
Ġemb ry
ĠKat y
Ġinher it
Ġmon itors
ĠAn a
Ġdel icate
ca ution
ĠRel ations
f u
ĠO m
Ġse ated
Ġhat red
ĠÂłĠÂłĠÂłĠÂł ĠÂłĠÂłĠÂłĠÂł
ĠUg anda
s upp
u cc
Ġbo asted
ĠTer ror
Ġmagn ificent
9 4
d ings
Ġl inking
Ġha un
Ġsu ms
Ġpe pper
ĠF ry
ĠTh r
Ġam put
pr om
ĠCl are
Ġinst ruction
ĠWal t
Ġcl utch
Ġaut obi
U nder
s uper
he ard
ĠTr acy
Ġsubmar ine
Ã ¶
reg ular
Ġvom iting
Ġm ug
9 1
Ġsk ate
Ġtrain ers
ĠC ah
oll en
ĠT ell
Ġun le
ĠZ ach
Ġpers istent
ĠCust oms
ou g
Ġexp orts
Ġbit ing
ĠHM S
aund ry
Ġfisher men
ĠMontg omery
Ġmour ning
Ġoverd ose
ĠChamp ion
ĠS ave
Ġlun ar
Ġreleg ation
ber to
er ness
Ġab uses
ĠK in
Ġmurder er
Ġroll er
Ġnarr ative
Ġregist ration
ine jad
Ġun beaten
ne um
ĠBl atter
ar at
ĠB ert
i ott
ĠC ould
ĠSuper ior
ĠThrough out
L a
N BC
at ra
ur able
ĠM eth
ĠL ah
ons ense
ĠTr ue
ĠElect ric
cl iffe
Ġanim ated
Ġaccommod ate
adequ ate
ĠLe o
ĠAgain st
Ġdeport ation
f ashion
Ġl amp
ĠS usp
ĠOak land
Ġvers us
ĠOz il
Ġg orge
Ġqu est
ĠBec ky
Ġprior ities
ĠBlas io
ĠId ol
or ient
ĠMin i
Ġloyal ty
h ouses
Ġf etch
um bs
Ġtr aces
ener y
Ġorgan ize
ĠPlan et
ĠSchum acher
ĠCh loe
Ġint rig
te es
Ġr ushing
ĠLeon ardo
ĠM ata
um ble
Ġover head
Is rael
ĠRa heem
ĠJoy ce
Ġunder grad
Ġeng ulf
Ġgu ides
cle ar
ĠSch war
Ġbi ology
ĠTray von
b rough
Ġcar ved
Ġsur pass
ĠBl anc
Ġclear ing
Ġworth y
Ġhistor ians
Ġind o
Ġcomp uls
Ġtem pt
quar ium
Ġreven ues
T ON
ĠM ult
Ġent ers
Ġsing ers
gg er
Ġspons ored
Ġtelesc ope
Y oung
ĠS add
Ġsm ash
Ġfriend ships
ĠRep orts
ĠAd elaide
ĠDo zens
ĠBet ter
l argest
Ġsh ining
ĠE ye
ott om
Ġrepl ica
Ġque ue
Ġhum ble
ic able
cel otti
Ġdismiss al
Ġramp age
ĠS em
Ġdown stairs
Ġd ancers
Ġg um
l ane
Ġcomp aring
Ġdisgr ace
R em
ĠF ame
Ġcoll ided
m ort
mar ked
Ġlic ensed
Ġtun nels
n is
Ã ¼
al ion
Ġunder lying
inc ome
ĠUp on
bu ilding
6 3
ĠL iter
Ġsh ine
Ġret iring
ĠPed ro
g ov
ĠR upert
ĠMal ala
Ġshel f
ĠR andy
ĠN ike
Ġmount ing
Ġcaps ule
Ġsal v
Ġg rieving
Ġcur b
t w
ĠJ ail
Ġj elly
Ġno ises
Ġ196 1
Ġpurs ued
Ġcanc ers
Ġdish on
ĠL anguage
ĠJ ob
Ġpro x
Ġover th
ot ional
ian cÃ©
the m
ĠRes ort
Ġexerc ising
ĠNov ak
Ġmarg in
ens itive
ĠOut side
Ġprogram ming
ĠSant os
Ġrat io
C ap
em pt
ĠAn imals
Ġbroadcast ing
Ġsp a
h unt
Ġch im
Ġro ver
Ġhead ache
Ġhom em
Ġfrag ile
Ġenthusi astic
ĠObserv atory
Ġr ows
ĠJ od
Ġeconom ist
comm un
Ġvolley ball
Ġcomp osition
Ġcontin uous
Ġadvent ures
Ġpub s
ĠB alls
ump ing
Ġvar ied
Ġrecomm ends
Ġserv ic
ĠRoose velt
Ġphys i
B ook
ab lo
av our
Ġdoub les
ĠMedic are
ĠIsa ac
ĠF iona
ĠShe ll
oid s
Ġkey board
Ġcommand ers
f il
p ress
Ġpaper work
ĠHind u
onom ous
Ġb isc
ult y
port ant
duct ive
Ġban anas
Ġshell s
ĠDomin ic
ĠS EAL
op y
ph is
Ġret ro
: "
H as
ĠT at
xt on
ĠJ ade
Ġrep eal
Ġdri ed
Ġprotest ing
ĠJ ak
Ġsc ope
fl oor
Ġbe ats
Ġear ns
Ġmar sh
Ġcell phone
Ġsal on
Ġcool ing
Ġru in
/ /
Ġhur ts
bl ood
ĠCont rovers
Ġsculpt ure
Ġpersonal ities
ĠAthlet ic
Ġpack s
Ġfashion able
Ġinst ances
ĠGu atem
ĠPlay er
Ġre he
Ġsp elling
ell s
te acher
be h
for ward
ol and
uk a
Ġtack ling
Ġsett ings
lim ited
Ġcoll ar
Ġgri ev
in ery
ĠG ing
Ġtr unk
ex per
ĠAmb ulance
Ġw aking
ĠS ina
her ic
Ġch imp
Ġcons c
Ġver bal
Ġimpl ants
Ġstrang led
D ec
S ir
ĠM ann
ĠCons umer
ĠM olly
Ġsp erm
Ġpl ight
Ġsc ars
Ġdecl ining
Ġdecl aration
Ġd ire
Ġy elling
ĠK ill
ft y
Ġsidew alk
Ġmanif est
ra ve
,' "
Ġhum id
Ġprev ents
Doct ors
ĠJol ie
8 3
Ġm ates
Ġso ared
Ġche ered
ĠBart on
w atch
Ġd ash
Ġcl ips
Ġquick er
ĠCirc uit
Ġsupp lement
AS H
mod el
enz ie
ĠSte in
ĠMal colm
Ġperpet r
ĠSerb ia
Ġsol ved
Ġbi ography
cons cious
ĠWe iner
l estone
1 30
Ġre ver
Ġsuppl iers
Ġstro kes
ĠMors y
ĠCov entry
ig ma
os i
ĠMon roe
Ġcerem onies
Ġreward ed
ĠMoroc co
ian ces
Ġref usal
com es
Ġrhyth m
S em
ĠP orter
Ġelect oral
Ġshoot s
amb oo
ĠBuddh ist
J apan
Ġbl unt
Ġcommun icating
Ġlack ing
C ons
ĠS inger
ĠH uff
ĠW es
Ġpop ulated
Ġfool ish
ĠW en
ĠAn celotti
Ġinvent or
A E
y ll
ĠK ro
iz a
red it
Ġprov oc
Ġreb ell
re ason
ĠA ur
Ġconv incing
ĠBol iv
Ġmand ate
P eter
Ġinv is
ĠNew man
ĠBl u
m eter
Ġp ork
ĠW A
hol m
Ġfert ility
ing le
op ic
ĠF ellow
Ġwho ever
ĠWal mart
Ġbarr ister
ens en
Ġansw ering
Ġpo orest
Ġfavour ites
F ive
est eem
Ġswim mer
Ġagre ements
Ġobserv ations
ĠGabri el
ĠMcCart ney
Ġd airy
ĠK anye
Ġfe athers
eb ook
Ġcolon ies
m aid
Ġinf lamm
Ġsw elling
l ove
Ġbre ached
ĠGood man
ĠHag el
h art
il ateral
ĠSp ect
Ġaccur acy
Ġ12 5
Ġless er
Ġund ers
ĠAl leg
ĠCol onel
ĠEx change
c ould
Ġcontr ac
ĠPh one
Ġcard i
Ġdec isive
sh op
Ġ9 4
Ġappl ies
1 60
Ġn it
Ġexpect ation
Ġess ay
Ġtouc hes
Ġinfect ious
c am
Ġimp orted
Ġpl ug
Ġty coon
Ġdiplom at
Ġfiance e
con n
ra k
ort heastern
L E
Ġbet ting
ĠEll ie
Ġexha ust
Ġext ending
Ġchar ter
Ġbank er
Ġaccur ately
ĠGib bs
Ġl ob
ĠC H
est ab
ĠP hel
ĠAnn ie
ĠBeaut y
ĠHert fordshire
Ġout look
Ġim minent
ĠV ettel
Ġsl ot
Ġsl owed
ĠAir bus
Ġclassroom s
ĠFern andez
Ġdyn amic
Ġbure auc
Ġan gr
og g
ĠV I
Ġdef ault
Ġconf ession
ĠSouth west
Ġhonest ly
ĠHoff man
Ġangr ily
ĠM ov
ĠP ierre
ĠCar son
Ġadv ises
Ġpath s
Ġbrut ally
Ġt ut
ĠRig by
c ul
Ġp ad
ce ptions
ment ed
Ġam p
Ġaccess ories
Ġaccount ing
ym ph
ag ically
oz ni
Ġoff ense
ĠCh in
ĠWhit ney
ĠAhmad inejad
ill i
per ing
over ing
ĠTown s
Ġd ess
ens ing
hip s
Ġstab il
Ġinhab itants
ĠW ade
Ġconf ined
Ġtrans cript
Ġglob ally
Ġhistor ically
Ġpr iced
ĠZ el
ane ous
Ġoccur ring
Ġlack ed
tr ack
ĠStr ong
Ġspons or
Ġun related
Ġres emb
Ġrev ive
ĠMill ions
ĠGre ene
: //
c ross
Ġan throp
ĠEl sewhere
ĠNaz is
ĠJo ey
Ġround ed
ĠJub ilee
ĠM ead
ĠR ange
Ġsun set
ĠReg ional
Ġmel ting
enh ower
Ġpure ly
ĠN aval
Ġsl ogan
Ġref r
Ġobs essed
Ġpunch ing
Ġp ensions
Ġmin es
ĠVeter ans
ĠClarks on
l en
Ġto re
Ġal tered
work ers
Ġmicro sc
f ires
ĠBl ind
Ġgad gets
Ġh us
ar ians
ĠD rew
ys c
Ġpar as
ĠMo z
Ġmis erable
Ġgradu ating
Ġrespir atory
Ġbl essed
Ġsw ord
In c
Ġcoun cillor
fl ix
boy friend
Ġbathroom s
Ġpedest rian
f at
Ġb ent
ut ical
oot er
Ġsim ult
Ġst ing
ĠD ug
Ġroll s
ĠDomin ican
ĠCambod ia
Ġcr acked
Ġinvest ing
Ġ195 3
Eng lish
Ġtransp arency
Ġsel dom
zb ollah
ĠS P
ĠM is
ch t
ĠG iggs
He y
ĠRest aur
respons ible
Ġdent ist
Ġp neum
et ition
ĠE state
Ġv end
Ġinter rupted
ĠSh annon
ocum ented
ĠWel come
d ated
omm on
Ġlist ing
ĠCr icket
tt p
ĠLeon ard
Ġt ended
ĠD ue
br and
ĠMy ers
Ġcollect or
d ollar
Ġwhe at
Ġseason al
Ġdeliber ate
ĠH il
ĠP ink
Ġprin ts
H el
m ines
Ġr ational
ĠHar bor
ĠBo at
Ġign or
ĠSalv ador
ĠLie utenant
I F
Ġf ren
ĠL ower
ie ve
ĠHond a
oubted ly
on ge
Ġoff shore
Ġwond ers
ĠR w
ĠMar ks
ris k
ĠJav ier
Ġb ung
ĠH ub
Ġart illery
ĠP od
ĠK os
Ġmed ications
Ġang ered
Ġscream s
spr ing
ĠL ud
ĠL uckily
ĠG ross
all ah
Ġinst inct
Que en
ound ing
Ġtrans gender
Ġcou ch
Ġheart breaking
e er
ĠEgypt ians
ĠUs ually
ĠC S
Ġch illing
ock et
Ġlit ter
Ġpolic ing
Ġsuper visor
Ġcorn ers
ag in
Ġgra ffiti
Ġmart ial
Ġinc ons
ph ies
Ġtre k
look ers
Ġsuccess ion
Ġimpro per
ap or
Ġspar king
ĠHung ary
ur as
ĠR ap
ak y
Ġteam ed
roll ing
og o
Ġvo iced
Ġblog s
Ġsovereign ty
ĠH ig
man y
Ġattend ant
3 70
ĠN olan
ĠMin or
Ġmob ility
Ġfu els
Ġ iv
Ġfr action
ĠSport ing
Ġsh ade
Ġter rain
Ġsign atures
Ġcopy right
F oll
Ġrecommend ation
I R
b ull
em bl
ĠSp iel
Ġnegoti ating
ĠJ oin
ace utical
Ġdi arr
Ġconcent rated
ĠUr ban
store y
Ġjuris diction
i i
ĠDr agon
Ġswe ets
Ġbes ides
ĠEis enhower
f elt
ĠP ont
iec es
Ġappl ause
ĠPass engers
Ġar son
man ned
Ġph oned
ĠKore ans
Ġeval uation
Ġclin ics
Ġsatisf y
ĠLis bon
Ġware house
Ġt ang
Ġth read
ĠH oy
ĠCh and
Ġadministr ators
Ġinf ring
Ġstation ed
Ġfulf ill
Ġran ch
han i
Ġtight ly
o oney
s ocial
Ġre iter
Ġhe ars
ĠG ate
Ġfore head
ĠBro oke
Ġplant ing
red ict
Ġapprec iation
Ġcycl ists
ĠB ased
rog ba
ĠTan zan
ĠLan za
ĠP oul
ĠCan al
Ġcirc us
Ġm itig
ĠT O
ĠG ina
od a
Ġpal m
he a
Ġgr ams
ĠNew ark
Ġsoc ially
ĠB ass
ĠD ell
Ġdist ances
Ġcross es
ĠLeban ese
Ġn anny
Ġun anim
Ġint act
ĠMont real
ĠS ah
ĠC reat
Ġrob otic
Ġexpert ise
cour se
Ġun tr
Ġdiv isions
Ġwilling ness
] .
Ġ19 00
Ġlif ts
Ġmotor way
Ġprin ter
def ense
n on
Ġun ch
Ġfin ishes
ov an
Ġrock y
ĠMem phis
achel or
---- ----
Ġab ort
ĠSp ot
the med
Ġadvert ised
stitution al
p resident
Ġdin osaurs
eff ective
ĠJama ica
Ġl au
Ġ19 39
Ġdist inction
ĠCo ff
ĠShar p
b ird
un c
Ġprev al
ĠCongress ional
Ġwarm th
lyn n
ĠP ayne
ĠHar riet
f ew
Ġc ables
Ġst yl
ign ant
Ġ4 50
ĠEx eter
ĠBol t
Ġrif les
Ġadminister ed
ĠT aj
ĠS ach
Ġnot ebook
Ġor b
as a
Ġlif elong
Ġpret ending
ĠArab ian
ĠMatthew s
D C
Ġc alf
Ġche ering
ĠPers ian
ĠS ichuan
Ġcon fer
Ġunder mine
F l
Ġcl ashed
rib e
mo il
Ġcooper ate
Ġgovern ors
. :
Ġe cl
Ġan nex
Ġse ize
ĠX ia
yd ia
J udge
Ġdist urbed
ĠDeb bie
Ġg ifted
Ġpro stitutes
Ġpen insula
Ġflo at
Ġqualif ier
squ are
ĠF REE
pt a
Ġ9 7
ĠWal ters
Ġrenew able
ĠN in
Ġadm ired
ĠWr ite
Ġh ugged
ĠE C
Ġext inct
Ġn iece
ĠW oman
Ġno isy
Ġcomm uters
tain ly
ĠĠĠĠĠĠĠĠ Ġ
Ġgun ned
ĠRob son
Ġbail out
im ated
ĠM ort
Ġsh ifted
ĠAl ps
ier y
ge on
At t
Ġtom ato
or um
Ġback drop
Ġpage ant
ĠTrib une
Ġbutt ons
ĠMong ol
F rench
i ating
l it
Ġm asked
Ġfe ud
Ġhold er
ĠFl oyd
Ġsell er
T ime
ĠL arge
ĠL aud
Ġcour thouse
Ġeffect iveness
ĠA ges
ĠD ana
em br
ĠLear ning
ĠN air
sh ow
Ġ18 00
ĠBu y
Ġspell s
Ġpic nic
ĠGing rich
Ġc ares
Ġworld s
Ġconfir ms
ĠLu iz
Ġneglig ence
or ers
ĠF ell
ish ment
Ġimp acts
Ġsec ular
ĠUS B
ĠSe v
Ġcred ible
ĠNo ah
Ġroomm ate
ĠF aith
ĠCh amber
Ġpre caution
Ġsl ashed
Ġecho ed
e u
Ġen rich
Ġcomp ounds
Ġtrans mitted
mond s
cour t
ur ous
Ġha ird
ĠL odge
bu ilt
Ġstrict ly
Ġdecre ased
Ġelim inated
ĠDale y
Ã ³
ĠD aisy
Ġaw esome
Ġpen et
Ġcaut ious
Ġy elled
ĠF ortunately
ab ling
Ġprov oked
Ġjourney s
ĠAberde en
u ably
er k
ĠS z
ĠN CA
ĠG ur
Ġalter cation
ĠS ources
ual a
Ġchar itable
Ġpract iced
ĠHas an
k ar
Ġw ax
ĠS aw
ĠV inc
ĠBor ussia
worth y
Ġat roc
Ġdist racted
Ġmeant ime
ĠStr at
ĠVen us
isp here
Ġsolic itor
ic io
Ġheart broken
bel ief
Ġbip art
P C
Ġo we
ĠD oyle
ust ers
ĠK ick
ĠHe zbollah
B en
M B
Ġj ersey
ĠSc out
ĠVol unte
Ġto e
Ġwas ting
od ka
Ġsol ving
ĠLincoln shire
Ġoblig ation
ĠJo h
ĠStand ing
Ġfart her
ĠS W
Ġab normal
ĠSh aun
Ġtweet ing
Ġplatform s
ĠVi king
prising ly
f in
Ġe co
ĠC PR
oc ate
Ġwar fare
Ġdet ection
ott a
ĠRob bie
ĠâĢ ¦
ĠBer m
Ġlimit ations
offic ial
ĠCah ill
Ġport raits
ĠIV F
ĠG reeks
ĠMag ic
Ġsymbol s
ĠPear l
Ġnet ted
ĠIsrael is
Ġheav ier
ĠJohan nes
r ays
ch arge
Ġpart ial
Ġcar n
Ġser vant
Ġhands ome
Ġestablish ing
ĠC ode
ĠW ozni
Ġun for
Ġtr im
ĠPre vious
Ġreop ened
Ġpredomin antly
Ġmisdemean or
y t
ĠT ara
Ġgad get
N obody
Ġt aun
ĠG C
Ġrel ied
ĠSe vent
Ġbot hered
extreme ly
Ġl aundry
ĠG and
Ġtourn aments
ĠBoy d
Ġrib s
Ġs q
Ġm m
as ive
ĠConserv ation
Ġbe e
ĠS aund
Ġsw orn
ester ol
Ġbehavi ors
ul ously
Ġr ays
ĠN ice
ist rate
Ġinc omp
Ġhal ted
Ġpredict ions
c ry
Ġdis l
Ġ19 14
Ġhur d
Ġlaws uits
Ġport ions
Ġdepos it
quir y
Ġo usted
ĠL ost
Ġage ing
Ġenjoy able
Ġreun ion
Ph il
W ar
Ġplot ting
ĠF ear
Ġsimilar ities
Ġpick up
pe ace
Ġwed dings
Ġmis leading
Ġcub s
Ġlive ly
f unction
Ġd warf
Ġinc omes
Ġmet er
Ġthreat ens
Ġindo ors
Ġst ap
ĠLe go
ĠPar ks
Ġhur ry
Ġfresh man
Ġg reed
ĠW ag
ĠSt re
Ġbr icks
ains bury
ĠSupp orters
q a
ĠBrit on
t aker
Ġf iancÃ©
Ġadd icted
Ġter ribly
ĠGold man
ĠLauren t
Ġjihad ist
ĠRobb en
enn ium
ĠWhite hall
Ġtro phies
ĠProt esters
Ġmarry ing
anj ing
Ġvoy age
U R
ĠT rou
ĠP i
ĠL er
Ġcomple tion
ĠDen ise
Ġder ived
Ġfaith ful
ĠSpiel berg
i pt
Ġt ender
ĠW a
ĠW elling
ĠRoman ian
enh agen
ĠKier an
ĠHuss ain
ol ics
Ġle mon
Ġlinger ie
Ġinvis ible
Ġth resh
Ġj ar
Ġout spoken
ĠTr ain
ĠTr agedy
Ġagree ing
ant i
Ġun av
ĠMid west
pp ers
Ġra ft
Ġr av
ĠR at
ĠG oth
Ġhold ers
Ġut ility
storm s
Ġpod ium
ro ft
ul in
ĠV it
Ġkiss ed
Ġautobi ography
ĠD rogba
ĠF uk
ĠAs da
Ġcapt uring
ĠComp uter
Ġsan ctuary
Ġf old
Ġpret end
ĠLow e
Ġrevers ed
Ġdispos al
R ight
ĠPiet ersen
ĠCL ICK
Ġc odes
ĠS r
oc us
Ġfl ows
ÂłÂł Âł
Ġsymp ath
ĠMahm oud
Ġhomem ade
C all
L ove
on line
Ġex ter
ib o
w ere
Ġp orts
ĠS ed
Ġal arming
ru gged
ath ing
ĠJohn s
ĠRom ans
Ġstret ches
Ġb io
ĠS or
ĠB ri
Ġcl own
ĠGuard iola
ĠPan ama
Ġtur moil
ĠLeg al
Ġseiz ure
O ut
ĠW ik
Ġcoast line
18 0
a hn
ĠC ond
Ġby pass
Ġkind erg
ĠTr aining
Ġconsider ably
ĠQu estions
ĠBelf ast
N ever
ĠT amer
Ġpass ports
Ġsl ain
form ed
Ġmis ery
ĠClass ic
ĠKle in
se at
ĠBut ton
Ġremain der
ĠKn ights
Ġunp opular
Ġcous ins
Ġth umb
Ġv andal
Ġle aking
Ġsent iment
Ġpig e
Ġbureauc r
Ġm og
Ġup s
Ġsk ysc
Ġoutrage ous
Ġsurg ical
l oss
r ots
ĠC ord
Ġst iff
iv est
ĠFor um
Ġperf ormer
Ġfig ured
t ree
ur ry
Ġinter f
ble m
ĠBarb ie
Ġlect ure
Ġle aks
Ġuns ure
Ġam endment
Ġpsych ologists
ĠT ree
out heastern
ĠAr rest
Ġcompet ed
Ġsurf aces
Ġ195 9
ĠV ic
the tic
Ġboy cott
ĠEvery body
Ġign oring
u ity
qu iao
ĠHer rera
Ġ194 8
F ar
ĠC ash
Ġche at
ĠRe y
Ġdig est
ĠRiver a
qual ified
he id
ĠSqu ad
Not hing
ĠAl ways
Ġmin erals
ĠF ant
Ġprov isions
ĠAll an
Ġaltern atives
Ġrecon cil
J an
Ġf ug
Ġun born
Ġloun ge
Ġto uring
Ġsp at
ist ical
Ġphr ases
en os
ĠS kin
ĠL em
ĠG aga
gr owing
ĠCal der
ĠSchwar z
6 9
Ġh alls
ĠCl imate
Ġdisp at
Ġcanc ell
Ġobst acles
Ġpros ecute
Ġwel coming
l as
u i
al g
Ġpro jected
Ġus eless
com be
Ġbik ini
4 50
Ġins ec
Ġqual ification
Ġadministr ator
intend o
em ia
ĠPl aza
uls ion
Ġbutter fly
6 1
Ġsp ying
bro ok
m i
Ġt ally
Ġst int
iv ic
ĠCh or
Ġfl ip
ĠBar r
ĠSant iago
Ġchol esterol
c overed
Ġhome owners
Le aks
ĠSub s
Ġiniti atives
u ations
Ġm ant
Ġr anges
ĠG ive
Ġout lined
R ich
st ud
ter bury
Ġwom b
Ġself ies
Ġremember ing
Ġesc aping
Ġpoison ous
ass ed
Ġqu ote
ĠSy ndrome
Ġtrick y
ĠE y
Ġpar aly
ĠZ ara
ĠAfric ans
ĠN ortheast
ĠHar old
Ġfundra iser
H ope
ve z
ĠC indy
Ġen rolled
ult an
Ġmon ument
Ġbre w
Ġment or
Ġrecy cled
ĠC omb
St ation
Ġut il
am ework
Ġshoot out
Ġcharacter istic
ĠEll iott
ĠWars aw
Ġwand ering
Ġhe dge
ish ops
Ġunder age
Ġmet re
Ġfear ing
Ġ194 1
ĠEr in
ĠW ing
ĠN ar
lo ved
Ġgenuine ly
lud e
ĠAbb as
Ġp ard
Ġed ited
Ġbal let
ĠNet flix
ĠCur rent
ĠCatal an
ĠB E
ĠR ing
ist ically
Ġbl asts
ĠBen z
ĠGreen wich
Ġpil gr
ĠDick ens
eli hood
re a
ĠF ac
ru it
ger y
Ġprov incial
ins ky
Ġdep icted
ĠNorth ampton
Every body
Ġmort ality
Ġquant ity
s i
ust rated
Ġmot ors
Ġf ist
Ġimm unity
ĠDisney land
t ook
Ġb end
et hel
Ġind ul
Ġbirth s
Ġconn ects
Ġun in
ĠV ald
Ġmig rant
Ġadvoc acy
Ġannoy ed
chest ra
l ast
ĠR out
Ġmem o
rem lin
uff ed
ĠVer mont
ĠTre v
Mus lim
Ġhus bands
Ġp iled
ĠM ol
ĠH ang
ĠPort o
ici ary
Ġtoler ate
d ig
y our
Ġkn ot
ters on
iers hip
Ġlaugh s
ĠFl owers
ĠMore over
ĠKim ber
ĠAgric ulture
l anguage
m iss
Ġl onel
Ġal ley
Ġtravel er
erv ation
Ġpri ests
ĠTer rit
Ġstret ching
H igh
o ise
ĠB ene
Ġbl essing
izz y
ĠBald win
Ġd ull
th s
ĠV ine
alf ord
Ġwait ress
for man
Ġeth ical
gi ene
Ġstead ily
ĠP ars
ĠW iki
Ġle ase
Ġout let
ĠV el
ilar ious
sign ificant
ĠF lying
ast ics
ash i
Ġinvest or
Ġple ad
Ġmid st
Ġdeleg ation
as se
all ana
Ġend uring
Ġprost hetic
ĠM TV
ĠE ff
Ġpre ference
Ġem bed
Ġsign ings
s ays
ri ors
Ġv est
ount ain
Ġdeep est
Ġprecise ly
ĠConc ord
l ifting
Ġh ipp
ĠG ang
ĠY ous
Ġcar c
Ġho ax
ĠA Z
Ġadm ire
Ġsurve ys
ĠGram my
Ġt ires
Ġarg uably
Americ a
Ġb aff
Ġpoor er
Ġgas oline
ĠIm agine
m ary
her ty
Ġwork out
ĠK ris
Ġoff ended
Ġsexual ity
Ġprotest ed
dri ving
h istor
Ġinv aded
lin ing
Ġcontem pt
Ġmour ners
ĠNever theless
ĠMiddles brough
ic ity
I ON
Ġin put
ĠP oy
lin er
on str
board ing
Ġcontroll er
ĠJac qu
Ġquant ities
G reat
Ġo d
oy s
ĠCop y
M in
le man
ĠN ou
ond a
Ġsupp lier
Ġstr ongh
Ġinj ections
ĠGP s
Ġcorpor ations
D em
Ġsp rawling
Ġdist ressed
ĠHun ting
c ost
Ġassist ing
ĠHond uras
d uty
ĠT ang
Ġvolcan ic
ĠBulgar ia
insp ired
m l
at hetic
ĠP ain
Ġbr ink
Ġhous ework
Ġvill a
Ġdetail ing
ĠYemen i
educ ated
ro d
cl air
Ġprom in
af ia
Ġpeace fully
acc ur
ol fer
em e
qu in
ĠMar cel
Ġpurch asing
Geor ge
Ġhasht ag
C ome
N D
ĠG avin
Ġres id
Ġbel ly
Ġsw am
K A
al in
ĠB irds
ĠP ablo
Ġfin ale
Ġsens or
Ġwound ing
ĠGo als
ĠOsc ars
ĠEthiop ia
p oints
Ġex agger
ra pping
Ġstud ios
ĠHer oes
Ġc rafts
Ġsu g
Ġpred ator
ĠLes lie
ĠTitan ic
Ġparalle l
H ar
ĠW ake
Ġcomp os
Ġass embled
Ġperform s
ĠMcC ann
Ġdemonstr ates
ĠFire fighters
Ġfunction ing
ĠPart ners
ĠTer min
Ġmun icipal
ethel ess
Ġg ossip
get ic
ĠCl ifford
Ġdesign ing
ĠAct ress
dog an
c amp
ĠRed d
Ġfalse ly
Ġdiscover ies
ĠSaund ers
Ġover looking
Ġass ign
obb ies
and ro
Ġday time
Ġac cepts
ĠOn t
ĠCraw ford
per fect
Ġcat astrophic
Ġenh anced
Ġanten na
ke ley
ĠN anjing
Ġres umed
Ġequal iser
Ġdolph in
Ġlik elihood
ĠD ifferent
ily n
Ġinf ants
Ġcommit ments
Ġtur tles
ĠIvan ovic
Ġovers ight
Ġin ability
Ġher s
Ġobs ession
Ġsens ible
ĠUs ers
ĠCommun ications
Ġhy brid
S chool
ĠL ith
Ġres on
Ġpass word
ĠSh ip
Ġbud gets
Ġstim ulus
Ġvary ing
Ġpl ac
Ġup held
ass ing
io let
ĠZ ur
Ġcompet itor
Ġpred icts
Ġcomfort ably
Ġpen is
Ġforb idden
ber ger
Ġschool boy
Ġcounter part
Ġgru esome
ĠS ep
ĠL oren
Ġvolunt arily
Ġlod ged
Ġutter ly
Ġbar n
g eneral
ĠI p
Ġsl ice
Ġsk ipper
Ġfat igue
Ġsymbol ic
ad ows
ĠAut umn
Ġrecip es
ĠBreak fast
c os
Ġd iam
ĠS ainsbury
us ement
Ġacc l
u v
Ġlearn s
Ġglam our
Ġfisher man
Ġrehe ars
ĠM ous
raz y
ĠAct or
Ġjihad ists
E ar
U T
ab il
ome z
ĠSimilar ly
ro ads
Ġrel ent
Ġco ats
Ġcapt ures
ĠLind sey
ĠB it
ple x
Ġcharacter ized
Ġcool er
Ġind irect
Ġdef eats
St ep
che str
ĠMull er
M ed
an ked
ĠK or
ĠMic he
ĠAbd el
Ġeru ption
" .'
S uper
Ġto es
ĠP ra
Ġen er
ump s
ĠCop enhagen
d ev
ĠD iaz
ĠG ener
arent ly
ĠReg iment
Ġcounsel ing
ĠUl t
Ġlandl ord
Ġsc orer
Ġdri ft
Ġi T
ding ton
Ġalcohol ic
Ġcast ing
ixt ures
Ġgreet ing
eart hed
Ġpneum onia
Ġpill ow
Ġvib rant
Ġperm its
ĠP ew
ĠIn vest
Ġjust ices
Ġlo ads
Ġvar ieties
Ġbicy cles
Ġl ending
ĠC T
ĠD h
Ġad verts
Ġso aring
Ġadm issions
ser ious
ĠÃ ¢
ĠC ly
Ġfix ing
**** **
rit is
Ġconsult ing
ĠSk ype
Ġdeleg ates
f amily
i ens
ĠS omething
Ġsu cc
Ġpro state
ber y
Ġdes ks
Ġport able
Ġdism ant
Ġexplo itation
Ġannoy ing
F riend
x x
Ġdevelop s
I E
at an
Ġn oodles
ĠN ut
Ġlabel ed
Ġunus ually
Ġbond s
Ġtent h
Ġcl ause
Ġhur ried
Ġcalm ly
Ġcolumn ist
f ol
Ġsc oop
Ġacc uses
Ġcent imet
Ġins ider
Ġinv iting
ograph s
ĠHam mers
Ġdomin ate
Ġf ury
Ġas hes
ast ically
ard i
Ġsum mon
Ġcheap est
Ġdies el
ĠStef an
Ġd aring
Ġem peror
ĠCan terbury
Ġ24 0
bor o
r ust
s omething
Ġhe ir
Ġg ir
Ġwe aker
Ġnow adays
ocr acy
Ġgrat itude
Ġp ine
ĠL allana
Ġour s
Ġmen ing
Ġnation ally
Ġbra kes
Ġ195 5
Ġsan ction
Ġadj acent
D is
it ical
ig o
ster y
Ġsettle ments
ĠPlay ers
EP T
F ace
ge ant
Ġag ony
Ġban ana
Ġbit es
ĠInter state
ĠN intendo
ra ped
Ġfl oral
att led
ĠEver est
Ġlav a
n atural
Ã ¨
ĠM au
Ġassist ants
ĠCharl ton
ĠW id
ĠJ iang
Ġafter ward
Ġcontin ually
Ġself ish
Ġhar bour
ĠOrgan isation
Ġax e
ĠFurther more
Ġhomosexual ity
ĠBaron ess
s burg
ĠG ut
Ġcor al
ĠPac quiao
ĠMack ay
ĠAj ax
ĠM ental
ĠB ing
ĠM ald
Ġche ated
Ġfootball ers
Ġdest ructive
Ġweak ened
ĠRh ode
ĠN urs
Ġprot ects
head ed
t hes
Ġ-- --
ĠSol ar
Ġencl osure
S w
m ist
Ġl aps
sh aring
Ġimpro ves
hold er
Ġparent al
Ġmathem atics
b irth
Ġd amp
ĠD ancing
ĠBian ca
ĠR av
Ġair space
Ġmisc ar
6 7
Ġe agle
ĠC ec
Ġal umin
ĠHol t
B erry
M ex
ĠC inc
el in
Ġsa iled
ĠR id
ĠMos ul
C om
L ab
Ġcontem pl
ĠG os
Ġcont ing
ty pe
ĠBos nia
Ġkilog rams
ĠOccup y
L os
ĠC ell
Ġ' [
Ġmanufact ured
ĠG az
Ġv ivid
Ġdis respect
Ġacc ounted
Ġunf olded
ĠRh odes
ed e
Ġc m
ĠB rett
og y
Ġbutter flies
Ġinequ ality
Ġd rafted
Ġre ct
ĠS weet
Ġsc enery
ĠSer ena
ri o
ĠG iving
Ġsm ashing
Ġpres um
Ġrecru iting
Ġinteract ions
B ill
L aw
en ko
Ġb og
Ġd ensity
ĠH ab
Ġcomp r
ĠBr anson
be it
Ġgrab s
ĠKaz akh
h ou
n ames
Ġt apes
Ġfor k
Ġde hyd
ev a
Ġheight ened
Ġroc ked
Ġbr ig
az er
Ġiss uing
Ġoblig ations
Ġsquee ze
ĠV ers
ĠRe illy
ĠWest wood
Ġavail ability
Ġintention ally
Ġdes ired
Ġend ure
ĠGem ma
ĠS lam
sh ould
form ing
ĠSp irit
Ġste ering
Ġswitch ing
ill es
Ġimp osing
ĠMar ina
ĠCare y
ĠS ugar
ĠC itiz
iz ations
An n
ING TON
ĠOnt ario
Ġb amboo
ic ism
ĠC umbria
Ġen ables
Ġcourt esy
Ġtransl ate
ĠWy oming
ĠGC SE
L ear
an throp
ĠW ine
ĠF resh
Ġsw ollen
omin ated
ĠHum ph
ON D
ĠKo eman
Ġad verse
ick er
Ġmicro phone
ĠKath leen
Ġmerch and
Ġjudg ement
Ġgorge ous
ĠWiki Leaks
C R
E M
re ported
Ġc uis
ĠS ag
Ġcollect ors
Ġsens es
d ist
im i
ell ers
ĠSer bian
ĠEr dogan
Ġtoug hest
or ig
ĠC ool
um my
ĠLe igh
ck er
Ġthr ows
ĠCom pl
Ġhonest y
F inally
S ee
Ġre nder
Ġe ve
Ġhar ness
Ġund oubtedly
ĠMarc os
Ġintegr ated
Ġdiver ted
ĠTanzan ia
is i
ĠC oca
Ġanalys ed
Ġinstall ation
S aid
d iv
Ġat op
Ġun e
so ever
Ġmil estone
Ġcat walk
Fr ank
Ġprolong ed
ĠAn aly
br idges
ĠKo h
ĠD w
ist ing
Ġneed le
ĠMiss ing
Ġbow el
Ġarchitect ural
ĠRub y
Ġ ;
ĠA R
ĠK athy
Ġbr ides
Th anks
Ġbid s
ĠB uch
ĠD escrib
Ġtrans actions
inn ati
Ġec st
ĠS asha
ast ated
Ġtra its
Ġcommun ist
ĠRub io
Ġcin em
ĠNash ville
Ġswift ly
ad der
ĠM A
ĠM ind
ĠN ina
ik er
ĠL yon
Ġjud ging
ĠMe g
Ġbur ger
Ġcart oons
Ġborr owing
Ġconstitu ency
Ġb acon
am ation
ĠB irth
ĠMil ton
Ġuns afe
Ġbipart isan
Ġm i
Ġre lying
st art
Ġv odka
Ġres orts
ĠFred die
Ġsup reme
Ġseparat ists
Ġoff ending
ful l
ĠPr om
Ġsn atched
Ġexpect ancy
Ġwild erness
Ġeyebr ows
1 10
ĠT igers
ĠM oses
Ġmet ab
ĠSan ford
ĠTreat y
V I
Ġland marks
w ark
Ġm att
ĠM itch
Ġsuccess es
Ġinflu x
ĠOver all
Ġblank ets
Ġdiamond s
ĠGlouces ter
Ġp anda
Ġd are
Ġmin ors
Ġsub tle
Ġstep father
Ġmater nity
Ġacqu ire
Ġshell ing
ĠGro ves
ĠTob y
ĠEX C
Ġ â
Ġp ause
Ġres il
erc ise
Ġextra v
ĠPict ure
ĠFif ty
e ve
ĠV IP
Ġsupp lements
Ġbuild s
Ġjack ets
Ġabd omen
re ach
ĠT ests
ĠC esc
ĠD ixon
Ġsh ores
ĠSt ones
Ġcol oured
Ġchar m
Ġtext books
Ġten ure
tr ans
ĠKu wait
ĠPhel ps
G irl
Ġcom r
Ġun manned
ĠHe at
Ġdisappear ing
Ġin adequate
ĠR iv
Ġ" .
Ġchild care
Ġbi as
Ġs idelines
Ġre pt
Ġun earthed
ered ith
Ġinstit ute
ĠCy rus
or f
ĠS ax
ĠC ock
Ġhead master
ĠBeh ind
ĠR ever
ĠZ oe
Ġpedest rians
ĠWelling ton
w al
Ġhe ights
ĠS afe
ry s
Ġcl ue
up iter
ah an
ĠP roud
ĠD ust
arch y
Ġemp ower
Ġmolec ules
m ake
Ġl am
Ġfr on
Ġsu ited
act ic
Ġunl ucky
is ition
ĠNew port
Ġrel ies
ĠBrew er
ĠH ost
ĠF ighting
Ġgl ow
Ġ17 0
Ġtechn ically
ĠBurg ess
u fficient
in fl
is man
Ġth irteen
Ġg ast
im mer
Ġout law
Ġsomet ime
Ġent ries
erc her
Ġcart els
Ġl end
Ġgr ants
ĠHu ang
Ġrestr aining
embr ance
H ad
ĠF owler
ĠK em
ĠSand ers
ĠRec ent
ĠFar rell
ĠY aya
Ġprot ester
ĠBer keley
Ġdrag ging
Ġprob able
ĠFre eman
mid t
1 40
ĠW ald
ĠG omez
Ġcomp elling
ĠY uan
Ġtrad ed
Ġhands et
iet h
Ġded ication
Ġabsor bed
Ġst ocks
Ġgrand ma
Ġgrab bing
abs olutely
ĠiT unes
Ġcontin uously
Ġtouch down
ĠOffic ial
Ġtall er
Ġrab bits
Ġflex ibility
Ġthresh old
B el
ul ator
cent er
Ġchar ming
ĠRock y
ĠRick y
Ġinterrog ation
R oy
ential s
fashion ed
st ill
Ġwh oles
sw ich
ĠMe h
ĠFle et
er ting
ĠC ensus
ĠP E
Ġpo ised
Ġdetermin ing
Ġtub es
A ir
Ġc od
Ġp aus
ĠD uck
ĠY un
Ġred und
lin son
m il
ĠB ac
ĠR emy
ip es
ĠZ ar
by ter
Ġto ast
iz able
Ġdisc ont
Ġinj ust
12 5
Ġham string
Ġpar ish
Ġsmell s
Ġhandwrit ing
f old
Ġn ets
Ġch ores
pl ing
Ġexp elled
Ġpubl ishers
Ġseiz ures
H arry
c ity
ĠD art
Ġwhat soever
Ġcor ps
ĠiPh ones
Ġt ed
Ġend anger
ĠWal king
Ġunc ommon
zh ok
ĠDyn asty
h oe
ĠA ires
Ġring ing
Stud ents
ĠSt arr
ĠAst ron
ĠAud i
ĠMove ment
Ġup grade
ib i
Ġevac uate
Ġdistingu ish
ĠDig ital
ĠTamer lan
ĠA ub
ĠK remlin
Ġevent ual
ograph ical
Ġbenef ited
Ġli ability
asc ular
Ġcongress man
F ather
Ġsp iders
Ġaw a
Ġreal izing
Ġbar rel
ĠX I
ĠHoll oway
Ġcor p
ĠNe ed
Ġencoun ters
ĠHard y
p ur
Ġoff spring
Ġalleg ing
ĠQ uran
omb ie
Ġdesp air
ĠOp ening
GB T
forman ce
Ġinter ference
Ġsever ed
Ġcompan ions
Ġdepos its
ĠD I
ĠR us
ĠG arr
art a
ĠU pton
hel p
ĠSl av
Ġpostp oned
ĠB og
ĠD olph
ĠSund ays
Ġcomment ator
ĠWil kinson
ĠClin ic
f al
il ot
ĠD A
ight on
ĠAn cient
Ġcre ep
Ġorgan isers
Ġmist ress
Ġurg es
Ġabsor b
ĠHans en
ĠBark ley
ĠLe x
ĠA A
ĠH ack
Ġpack ing
ar us
ĠD od
ru gg
Ġdec omp
Ġconvers ion
ĠPlay Station
Ġdisgr aced
ĠVo ice
Ġpsychiat rist
M il
Ġm assage
as ia
ĠBar rett
cri ptions
Ġscar f
ĠPeters burg
ĠTer esa
ĠHy de
Ġsponsors hip
c ur
ĠS ene
Ġout comes
Ġar bit
ĠRe ady
app ointed
Ġsk irts
Ġtherap ist
Ġaccord ance
E E
om on
ĠT oni
un ks
Ġman hunt
ĠShe pherd
Ġground ed
ĠMil es
Ġexplo it
K ing
Ġ195 8
Ġconce aled
Ġparach ute
ĠBerm uda
Ġal ph
ĠW it
Ġliber ty
Ġlonel iness
h y
ad oes
Ġcon str
Ġch in
ĠCh ong
Ġden ial
Ġcheck point
Ġwa its
Ġingred ient
p en
ust s
ĠK ercher
ĠCur iosity
Offic ers
Ġener getic
b ra
Ġeduc ators
lo ads
ĠCharl eston
Ġdevast ation
ĠCinc innati
Ġg olfer
Ġsc andals
Ġcons ensus
ĠMin utes
Ġallerg ic
ic he
im eter
ĠK um
Ġclass mate
Lou is
ĠRestaur ant
am y
ĠSc he
ĠFel ix
Ġnomin ations
ĠMeth od
Ġn ortheastern
al ke
Ġv ows
Ġregul ators
J im
Ġt am
st ro
Ġman ned
ĠGer ald
ĠTr acey
Ġrev ol
Ġfro st
u ire
Ġc ove
ĠC afe
Ġpr one
Ġass ignment
Ġtack led
U N
ĠS eth
Ġsa us
ĠE ss
raw led
Ġcontroll ers
writ ten
ĠSin clair
mort em
Ġha il
ĠV ince
ball s
aff er
ih u
Ġske let
Ġpengu ins
ĠSch neider
Ġsac red
it ably
ĠS alford
ĠM orm
ĠJ orge
Ġout bur
Ġhapp iest
Ġsl opes
ĠShir ley
ĠH anc
ĠD ata
Ġfe eds
ĠGer ard
ĠCup s
ĠiP ads
ĠIndian apolis
Ġviol ently
Ġcontest ant
Ġprol ific
l ived
re cy
Ġk g
Ġsc ales
ĠMar ilyn
Ġsl apped
aj o
Ġqual ifications
Sec ond
Ġdistract ion
ĠC ala
ĠF ay
ĠE W
Ġpl ots
Ġshow case
Ġcent ered
Ġmob il
Ġrain y
Ġproduct ivity
ĠDet ails
Ġincon ven
Ġrefr iger
ed ay
ĠS ixt
Ġsh am
Ġwr ink
Ġdisplay ing
Ġge ography
le ader
am ount
ĠN O
ĠLe vy
Ġrest oration
Ġey el
Ġairl ifted
ĠK ap
ĠLe ah
ĠPresident ial
ĠEd ison
ĠUnder ground
ĠG ear
lo ving
Ġow ning
Ġaccompany ing
ĠSlo ven
i ya
l ake
Ġg er
us ions
Ġdis like
ĠFranc o
ĠBook s
Ġhorm ones
ĠKel ley
ĠA part
ra red
ne apolis
Ġshow down
Ġcal orie
ĠBrun o
ĠBeaut iful
C or
S ays
ad ic
ĠB ae
ĠF ey
ĠR aw
Ġinter section
Ġdown loaded
Ġide ology
Ġprofess ors
Ġapprec iated
Ġiv ory
ĠS ig
Ġsp ear
ĠAri as
Ġfault y
Ġo bey
Ġc av
th y
Ġlunch time
ĠR um
Ġtw isted
Ġtrad ers
Ġens ured
ĠHen ri
met re
g ay
l ength
is se
Ġoff enses
ans w
ĠW anted
Ġv ibr
Ġ7 50
ĠL ing
ab el
aw ays
Ġpract ically
Ġremark ably
Ġconce pts
( ,
ĠR ot
Ġeven ings
ĠZ ah
Ġbar rels
ĠDaniel le
Ġpand as
Ġmotorb ike
2 40
re asing
ĠP av
ĠJ agu
ĠTra ffic
Ġscre ened
Ġenthusi asts
ĠAlb ion
ĠPars ons
D onald
Ġfr amework
ĠIn j
Ġbel ts
Ch ris
Ġtact ical
Ġor chestr
ĠWeb ster
ĠBeat rice
ĠMig uel
Ġw ishing
Ġp est
Ġlength s
ĠFreder ick
ĠIp swich
Ġf eder
ĠJ FK
ĠLe y
Ġconf using
app ro
echn ology
ĠBark er
Ġtab lo
ĠThom son
ASH INGTON
mar ried
Ġ195 2
ĠFif th
R ussia
b uster
q ing
ĠB le
os itive
Ġsc iences
Ġsuper hero
ĠSant orum
ĠRoll s
ĠPear ce
Ġh ilarious
Ġext ends
Ġbot ched
h al
Ġattend s
ĠC in
Ġint est
Ġfear ful
e ky
i ency
Ġinit iated
Ġdin ners
Ġcat hedral
Ġseek ers
ĠDew ani
ĠEXC EPT
W ould
as ers
Ġ195 7
Ġhook ed
Ġfrank ly
b ank
omp any
ĠBu enos
bu ild
ĠC auc
ĠF an
ĠJ upiter
ĠEv an
Ġextrem ism
ĠArch it
i ability
im ens
Ġsp illed
Ġk ings
Ġbab ys
Ġhon ors
Gr and
W atch
b ons
c ock
Ġpur ported
odd ed
u ating
op en
pt ical
ĠSch oles
ĠD ol
ĠL il
Ġor anges
Ġbl ames
ale igh
Ġer ected
Ġdisp atched
ĠNCA A
s im
Ġm ocked
ĠPat terson
Ġhy ster
Ġoptim ism
Ġbol ster
Ġplag ued
w right
at ri
Ġb ailed
Ġf ixtures
ĠL ucky
Ġch ic
Ġher d
Ġpro stitute
ĠGl oria
Ġcondition ing
ĠDu ell
ĠSum mit
Ġprosp ective
Ġlapt ops
Ġ vel
ĠG ifford
esp ecially
Ġemb ro
ĠChe ney
Ġreconst ruction
re ally
ack i
ĠSt ay
Ġgr asp
Ġbag gage
Ġfre ak
Ġremind s
Ġunp redict
App le
Ġp ec
ĠTh irty
ves on
Ġbed side
Ġprosper ity
u h
ĠB ag
Ġbl ues
ĠEn forcement
reason able
ant a
uss ions
ĠNob le
ĠStock holm
ĠC ot
ĠG ore
Ġde ed
Ġsw ap
Ġinfl icted
Ġforth coming
Ġf ried
Ġgr in
ĠAmeric as
Ġsk ating
ĠPro per
ĠGe a
Ġren amed
l ade
al ogue
ĠSt acey
ret ion
Ġpat ri
ĠPar ish
ĠKe eping
ĠTy son
Ġpin ned
at able
al so
ĠK ee
Ġman ual
Ġser geant
Ġmar ble
rend ous
f ur
ĠG ul
Ġrece iver
att i
Ġregul atory
it ives
Ġd oses
ad os
ĠM oor
ĠM eredith
Ġv ine
ire z
ocr atic
he rent
Ġb rawl
or us
Ġbr ighter
Ġsm og
ĠCl ive
ĠDerby shire
Ġregul ator
ĠEcc lestone
ch at
ĠD zhok
hib ition
Ġterrit orial
lec ito
st ated
Ġbusiness men
ĠIbrahim ovic
iz ers
Ġtake over
ov y
ĠMcC l
Ġrein force
Ġmal aria
ĠHistor ic
Ġfr aternity
Ġcirc ulation
Ġvolunte ered
ĠLabor atory
ic ist
ĠP ors
Ġdes erted
names e
Ġcur few
Ġdel ivers
Ġsens itivity
Ġtend ency
Offic ials
u ish
Ġon lookers
Ġres ur
ree ze
Ġreg ards
Ġdis par
Ġhop eless
Ġhar med
Ġlisten ers
f alls
g ener
ĠM anc
Ġcr acks
Ġsl owing
Ġsub t
Ġsub mer
Ġsight ings
Ġrein for
ĠEth an
ĠProtest ant
F oot
ĠS ource
Ġdisc om
ĠCam bridges
P re
Ġbl ess
ĠPr act
Ġ11 1
ĠHam burg
Ġupset ting
ĠFull er
P ut
j u
Ġf ries
ĠL ough
ey e
Ġrelie ve
Ġentreprene urs
i enced
Ġb ounce
as ar
Ġfl ock
Ġgl ance
ĠHar bour
ĠParalymp ic
Ġo ath
Ġ194 7
Ġbreast feeding
Ġcler ic
B ack
Ġh ugs
ĠO il
let te
Ġswim s
ĠOxford shire
Ġhandcuff s
ĠSamar itans
Ġl ingu
ĠI ain
ĠWhite head
Ġb aked
Ġgo ds
Ġqu otes
ov o
Ġinform al
iest a
ĠFam ous
Ġsyn thetic
Ġrecip ient
ĠSat urn
ĠC umm
Ġsl aying
Ġcampaign er
Ġinsp ir
Ġste ak
Ġtow el
ĠReg ister
ĠDutch man
Ġhandcuff ed
re qu
ĠU ber
ĠSouth wark
Ġbro ker
Ġpositive ly
ĠJohannes burg
ĠL ov
In tern
Ġsafe guard
Ġpupp ies
ĠFalk lands
ĠI BM
ield ing
Ġir regular
h un
ĠT ul
ĠS ne
ĠA nder
reat h
Ġpart ying
ĠCl ooney
Ġfilm maker
ĠItal ians
ĠCopy right
a que
j e
ir med
Ġout p
Ġbar ric
Ġdark er
ĠBritt any
ĠSadd am
Ġbe am
ĠC ats
Ġch anting
Ġby stand
ra ven
Ġim perial
Ġver ify
ĠWat ts
ĠArch ae
ĠMug abe
Ġn odded
Ġbl end
ĠMin neapolis
Ġclos es
ĠMic key
Ġstruct ural
ĠDown ton
ĠR other
ĠV ent
Ġed itors
ĠFour th
Ġmin eral
Ġey ew
St ate
ĠBlack Berry
Ġp our
ur ities
ain i
Ġsl og
ĠAct iv
Ġvacc ines
M om
Ġd ough
Ġass et
Ġpop ped
ĠPrem iership
P ros
p rop
Ġ195 4
ĠCath olics
ĠGir oud
Ġp ens
ĠH ann
ors hip
count ry
us ch
ĠV e
Ġmet ropolitan
Ġpension ers
ĠSad ly
ĠMaj esty
Ġmerc y
v ic
velop ed
ush ima
Ġconfir ming
Ġrob bers
ĠWat kins
Ġdiscl osure
Ġcomprom ised
ĠLe aders
Ġstra pped
Ġboost ed
Ġfortun es
b ach
Ġl ured
Ġr ash
Ġex ile
Ġshort ages
Ġlim iting
ĠSale h
Whe ther
Ġl ymph
Ġviol ate
ĠSe lect
ĠPl ant
Ġconsum ing
Ġmotor ist
Ġmer it
Ġprec ip
Ġreflect ing
ĠLith uan
Ġreg ulate
ĠGu ide
ĠStud ios
Ġthin ner
Ġcorrid or
Ġp ant
Ġres emble
Ġsusp end
Ġprop ose
Ġsculpt ures
ĠKit ty
Ġdiam eter
Ã ĥ
com p
Ġrecru its
Ġlect ures
Ġgren ade
C ou
Ġl ig
ut o
ĠO S
se ven
Ġup ro
Ġten ants
Ġpers ist
Ġgal axy
Ġadj our
Ġin accur
ol son
ĠA x
ĠSt rict
irl ing
In ter
ĠNot re
Ġ20 22
illion aire
ĠCl aus
es is
ĠP ric
Ġcon cess
ĠJ our
Ġex ting
ĠAll ied
ĠEnglish man
Ġtum or
ĠNap oli
Ġfare well
ivest ock
ĠM iley
Ġinc umb
Ġav al
Ġexc uses
Ġholiday makers
Ġmir rors
Europe an
Ġst all
ĠO val
Ġam usement
aul ts
Ġfuel ed
ĠH oo
ĠL ydia
Ġtheir s
ĠVict ims
Ġlog ic
Ġunexpected ly
ĠNair obi
ian i
Ġdev ote
ĠDam ien
Ġsail or
ĠGuatem ala
Ġan a
ĠG one
Ġbl ade
Ġmar ching
ik ers
ĠNeighb ours
G oogle
ĠS it
ĠC ork
Ġal beit
ĠP ubl
Ġget away
Ġemploy s
Ġforg iveness
ĠInc red
Ġbacter ial
Ġpuzz led
Ġw rec
Ġf iber
ĠSn ap
b oth
l io
Ġo live
Ġh inted
ĠP oor
ĠSl ovak
Ġobtain ing
ĠFall on
ol er
ĠS lim
ur ring
Ġund ocumented
Ġlock er
ĠZur ich
" ),
P M
p ies
ĠIn g
ĠHe avy
Ġprocess ion
Ġcateg or
Ġinaug ural
t ub
t ails
ene gger
Ġadv ising
Ġexc luded
Ġsun k
person al
Ġmog ul
Ġcuis ine
or ne
ĠSyri ans
ĠQu ick
Ġkidn app
ĠPrinc eton
Ġsimult aneously
ĠC out
ĠD O
Ġbut cher
Ġout cry
ĠProfess ional
ĠAdd itionally
ĠTon ight
Ġvert ical
H D
ĠR ena
Ġexp osing
Ġcre ations
Ġid ol
ĠLear n
Ġretal iation
Ġl id
ĠD over
ĠK urt
Ġhom ophob
es are
el come
Ġdam ning
str om
ĠTom as
Ġpul se
S B
Ġb ureau
ĠH oms
em i
ust y
umber land
Ġd ared
ĠT roy
us k
ĠE agle
ĠY ug
Ġhy giene
C ity
Ġt aped
Ġre nd
ĠC oo
ĠB ast
ĠHe ights
Ġpart isan
the ning
Ġgl oss
ĠBur ma
ĠRos en
ĠFle ming
iped ia
C ham
Ġn a
Ġcard board
il ight
ĠL GBT
ber ra
Ġstr ay
Ġdet ain
ĠViet namese
ĠMaur icio
ĠR an
ĠEven ing
ĠSol lecito
âĤ¬ âĢĿ
S ch
i u
Ġb ore
Ġfr ames
Ġsh ifting
Ġro oft
ĠSte el
Ġgard ening
Ġadvis ory
ĠB ates
ĠCon nor
Ġdead liest
Ġthird s
ĠDan i
Ġgen re
ĠLy nd
Ġengulf ed
ĠTowns end
S er
ou fl
ent ions
ĠB erc
ĠO g
Ġenter prise
Ġbright ly
Ġburgl ar
Ġincorpor ated
Ġfrog s
i ates
n ik
ĠZ one
ĠDen is
Ar t
Ġspray ed
Ġdemol ished
Ġskin ny
Ġmix ing
Ġadapt ation
quir ies
amil iar
z man
Ġb ass
ĠP ack
ĠE ld
ĠAl berto
Ġmar itime
ĠCle an
K ahn
m ember
ĠCar rie
Ġcred entials
Ġpen ned
With out
Ġhall way
2 000
m n
ip ing
ĠD und
ĠR aul
ĠJ agger
ab ilia
Ġvac ant
Ġlegisl ature
unning ham
ĠSher wood
ĠVenezuel an
ĠPoy et
Ġembro iled
n ock
Ġp int
ĠS ales
Ġbott led
Ġprejud ice
D ad
ĠD addy
Ġj umper
Ġro pes
Ġtrans fers
Ġbuild er
Ġill um
Ġbeautiful ly
ĠRel ief
T H
Ġsect arian
Ġa rose
ĠS ic
ĠC oc
Ġsupp lying
ric ate
ĠInd ex
Ġ, .
Ġvol atile
ĠAngel ina
ĠHot sp
Ġintox icated
Ġf res
Ġl ing
im ity
ro ph
Ġvide ot
Ġstri kers
Ġdomin ance
Ġar c
Th rough
ĠWor ks
EA D
ĠLuk aku
Per haps
Ġunder taken
hen ge
ĠSy m
ĠCle ment
Ġescal ated
t age
ent e
ĠThe o
ĠF i
ĠMore no
Ġcold er
ĠPhilipp e
Ġad am
ĠAl ban
ah aw
Ġread ily
Ġver ge
Ġpor ch
ĠAur ora
Ġembed ded
ĠDzhok har
in to
ĠB R
ĠE agles
Ġv iable
Ġtr agically
Ġnegot iated
ĠDou ble
ĠChap el
Ġarchae ologists
H ouse
ĠM az
ĠH udd
Ġtra ils
Ġsk ip
Ġinj ected
Ġshare holders
Ġaud it
Ġhun ted
S everal
on ents
ul ances
ĠD ance
ry n
ĠSt yle
Ġport fol
Ġassoci ates
TS B
f ighting
Ġc ites
ĠC B
Ġqu izz
ĠAng er
Ġrespond ers
Ġconduct or
Ġmeasure ments
Ġcurren ts
g eneration
or ate
ar f
ip se
Ġrespond s
Ġpictures que
ĠEv idence
ĠLet ter
ien ne
Ġdistrib ute
ĠIndust ry
Ġcan vas
Ġpass words
ĠBe g
Ġadm ir
ĠHel mand
F rance
Ġv ain
Ġcont ention
Ġarchit ects
Ġrival ry
Ġaffil iated
Ġreject ion
Ġbug s
Ġindefin itely
Rober t
D ep
p res
ĠM ist
Ġpoll uted
Ġspread s
ĠChor ley
c igaret
ĠM IT
Ġnavig ate
c oin
h appy
ĠT oul
Ġtrou bling
ĠPat el
Ġdom est
ĠInter est
ĠAc ross
Ġrum oured
Ġdisch arge
ĠH utch
ĠN ile
Ġman us
Ġun im
Ġme g
ĠSt rip
any a
Ġstre ak
Ġpray ed
ĠPhot os
byter ian
J ones
Ġw itch
Ġl ads
ent on
ĠG iants
Ġche ss
Ġ194 2
ĠSchwarz enegger
M ary
ĠWal ton
Ġkidn ap
Ġsemif inal
Ġrans om
Ġoun ces
Ġp iles
ĠM ap
ĠE b
ĠN ord
Ġdangerous ly
ĠOliv ier
ĠBren nan
j oin
em er
Ġwe pt
ood y
Ġdis rupted
ĠSh ocking
Ġbo oming
the ir
Ġmiss es
ĠOpp osition
ĠB eng
Ġse als
Ġtr act
ĠCl int
li ked
Ġspin ning
ĠRail way
I ts
ĠD ob
Ġinvestig ative
Ġbar bec
Ġaggressive ly
an ies
ĠR BS
Ġunder est
ĠNorth west
ĠPl at
Ġpredict ing
ĠKer r
histor ic
at ories
an ity
Ġl ure
Ġv ou
Ġcar er
Ġcol ored
ĠFl ores
ĠAng ry
Ġclim bers
ha ired
D ear
D aniel
b ottom
ar cer
ĠH ospitals
ard less
Ġcr ush
Ġbru ising
e ight
Ġb ou
ĠB oss
Ġcomm ands
ĠSo f
Ġgoals c
Ġunc ont
Ġmistaken ly
per ate
ĠDep ression
ĠNews night
Ġwild ly
ĠTra il
U C
ĠK ash
Ġsen iors
Ġsp ouse
Ġcomb ines
Ġathlet ics
oc ese
ĠK au
Ġgl itter
Ġorgan izing
Ġris ked
ĠGu ards
Ġimag ery
Ġsett lers
Ġastron omers
Ġemphas ized
Ġprompt ly
ĠBat man
d et
Ġp ent
Ġst akes
Ġsp ed
Ġsc ent
ĠChe m
ĠNick y
Ġdrown ing
S ix
ĠE asy
Ġyear ly
Ġinc oming
aren ce
Ġpass ers
Ġche ers
ĠGu ests
Ġpret ended
ĠHel ena
ĠLo ch
Ġstream s
Ġdo d
te gr
Ġbo ast
Ġimplement ation
ĠRow ling
Ġpip es
ĠClay ton
N ational
R ead
c orn
ur ger
ĠC ultural
ĠD ong
Ġch lor
ĠK un
Ġun author
Ġcons ulate
ten ham
ĠEm my
ĠBlack s
ha o
u j
Ġres isted
Ġapp rehend
ram ent
ĠBuff alo
Ġdiscom fort
m ass
id as
Ġprof iles
eter mined
Ġlic enses
ĠRad amel
Ġasp iring
Ġreact or
Ġconfisc ated
T er
Ġspecial ized
ĠCan berra
Ġmic row
OR E
Ġdeterior ated
Ġsup rem
Ġst ared
ĠL ay
ĠK w
Ġinter cepted
ĠSp ider
ĠGr ad
Ġvar iation
Ġthr ill
ĠSoc cer
ĠTour ism
Ġsett ling
ĠA qu
Ġst umbled
ĠP ier
ord in
Ġres ear
Ġsc rapped
we iler
Ġfac ulty
ran king
ĠRo ch
Ġrelig ions
Ġpromot ional
ĠAT P
ĠYug oslav
v oc
ol ley
Ġapp rent
ĠViol ence
m or
ĠA fford
ĠM og
Ġcl ergy
bl ower
Ġradio active
on omy
Ġbe ast
Ġneg lected
ĠBur ger
ĠMag gie
Ġbrut ality
Ġdistingu ished
ĠFuk ushima
Ġkinderg arten
Ġparaly zed
m us
Ġre acts
os henko
Ġharm less
ĠPoul ter
Ġh ttp
ĠR acing
Ġins ufficient
ins ki
ĠRoc hester
H T
ĠO F
Ġter r
Ġbad ge
reg n
Ke ep
ĠMo ving
sm ith
ĠF E
Ġart if
Ġinvent ions
Ġmening itis
o ven
Ġt asked
al p
Ġar rivals
Ġdep arted
ĠMor ales
Ġtoss ed
ĠIss a
ĠR ita
ĠN iss
Ġabs urd
Ġbow ling
Ġsolid arity
asket ball
D onnell
P ort
Ġd umb
os ion
ĠBut t
Ġsubs crib
ĠW earing
ĠF ury
uc us
Ġ19 18
ĠDe e
Ġflu ids
Ġservic emen
G roup
ign e
Ġprog ressed
Ġculp rit
ĠInit ially
Ġpast a
h on
Ġer ad
ĠVan essa
ĠPhot ographer
Ġdepri ved
v ine
ĠL ip
ast air
Ġdisc ounts
Ġreward ing
ĠBerc ow
U Z
v ian
Ġs outheastern
Ġpre fers
ĠGro ve
Ġpione ering
ĠHanc ock
ĠD ram
Ġle agues
Ġup hold
to is
ER S
Ġcha otic
ĠChan el
ĠCu omo
Ġconsol id
C omes
l if
ib e
duc ts
Ġgl orious
Ġmouth s
Ġchef s
Ġvigil ant
ĠPam ela
' '
u ber
Ġw ires
el ius
ke es
ĠL ump
Ġen abling
ĠV ern
Ġret rieve
Ġcontin ents
Ġsw earing
iff any
Ġstere otypes
Ġd uration
ul ing
Ġcur ve
Ġlight ly
arm ac
ij i
Ġdisag reed
Ġprox imity
c ond
ĠR udd
Ġcommand ing
ĠDid ier
Ġintimid ation
l oo
ch ard
th am
Ġex h
Ġdis reg
ĠY az
Ġcaf es
Ġs ack
Ġc rawl
ĠL ama
Ġ2 20
Ġsn aps
Ġannoun ces
Ġspl ash
Ġ195 6
Ġconce ived
Ġoverc row
NES CO
Ġintrud er
Ġinterf ere
b ral
Ġd ances
Ġst ub
ĠF a
ant on
Ġrem inis
Ġschool ing
Ġaccess ed
Ġtur tle
Ġfoss ils
Ġswall owed
Ġsubsid ies
ĠL if
ĠK ompany
Ġresearch ing
Ġimpl ant
Ġrall ies
ĠKind le
ĠDavid son
Ġphys icians
Ġposition ed
Ġtrust s
Ġenfor ced
Ġsom eday
ĠRam irez
Ġtorn adoes
Ġpean ut
m ith
ĠH i
ĠP or
Ġsh iny
Ġtr actor
ĠLe veson
ĠChr on
Ġcontin ental
Ġcivil ization
Ġprovoc ative
Ġs idel
Ġh ay
Ġg inger
ĠDe al
Ġfat ty
ĠEv a
ĠEug en
Ġlau ndering
Ġd oping
Ġn ost
Ġdirect ing
Ġfore casters
ĠGr owing
Bl ue
is closed
ĠP ensions
ĠW er
ush i
reg ate
Ġdecor ations
Ġtraum at
Ġpump s
Ġacadem ics
Ġun int
Ġdis belief
ĠSav annah
Ġunfair ly
ĠCambridges hire
G reen
Y et
l ost
Ġworks hop
Ġaccount ability
ĠRevolution ary
z one
ink a
ĠBr an
ĠZ ak
Ġcry st
ĠSocial ist
Ġreserv ations
ĠIM F
Ġbisc uits
l isted
s n
Ġn onsense
ĠR ene
Ġass ure
ĠSch alke
Ġinsurg ency
Ġdeton ated
p op
ect omy
Ġenvironment ally
ĠMajor ity
Ġmerchand ise
D et
Ġexp ired
ĠOld ham
Ġ194 9
ĠFil ip
Ph ot
Ġcheer ful
ĠNa omi
Ġnavig ation
S im
Ġcl ocks
ĠSp ears
ĠWar ning
Ġsib ling
Ġmini ature
Ġh ut
ac er
ĠW ear
ĠAd mir
ĠPors che
as is
Ġg raz
Ġice berg
Ġhero ic
Ġcompar able
Ġc aves
ĠP A
ĠK on
Ġdream ing
Ġanaly zed
Ġfatal ities
Ġw ipe
Ġinter fer
Ġche eks
Ġcampaign ed
Ġmeas les
Ġhon oured
rep ared
Ġtact ic
Ġinaug uration
H appy
ĠL akes
ĠG ru
ĠCl iff
ĠVal erie
Ġburg ers
ĠAfford able
ĠC PS
Ġsc rew
Ġob jected
Ġview er
ĠAng lo
ĠHotsp ur
ĠUn cle
ĠAn s
ĠX in
Ġtim et
Ġbull ies
ĠA K
Ġsm arter
Ġmarg inal
Ġrecre ational
l ies
ĠB ony
Ġlit ig
ĠLaw yers
ĠHeb do
ick y
Ġcraz e
ĠLatin os
H A
Ġh obbies
ĠC unningham
Ġnot ices
Ġsp ike
amb ia
Ġpromot es
Ġgenet ically
r il
ĠO y
Ġun well
Ġres ent
Ġinc arcer
ĠPat erson
A g
os ures
Ġad orable
Ġen acted
oy a
Ġeas iest
Ġb aking
ĠY oun
ĠWilliam son
Ġrap ist
ch y
Ġreg ained
There fore
Ġenv oy
A h
b ud
ic ons
ĠS tern
ĠF it
Ġbre aching
Ġdep icting
ĠOb viously
ĠCorn ell
ĠCorpor al
Ġpy ram
Ġamput ated
le vard
Ġcontact ing
Ġendors ed
C omm
ĠS ikh
ĠA FP
ĠP esh
Ġhand y
ĠDe le
sw orth
ĠChief s
ĠHaw king
Ġrail road
N L
st ars
ĠC ul
Ġr uth
ere es
Ġbehav ed
abe u
Ġmonarch y
Ġpuzz le
ĠAt kinson
Ġd azz
Ġl odge
Ġhigh s
ĠChel tenham
ĠSil icon
ĠKas em
Ġfil ter
Ġve ts
ĠGr im
Ġswe ater
Ġdiplom acy
ĠArmen ian
ĠT B
ĠT ennis
ĠW ord
ham pton
ĠVict ory
Ġremote ly
Ġbreath taking
ĠRo vers
Ġri p
Ġthri ving
, âĢĿ
C r
Ġl oot
ri ft
Ġsp oon
Ġreason ably
Ġadop ting
ĠLeg end
ĠAN D
N ext
ĠD ow
ant ically
ex am
Ġsurrender ed
Ġcr ater
Ġcare taker
Ġstat ues
Ġconclud es
A dd
G O
and ra
ĠY OU
Ġapp ropriately
Ġsl ipping
Ġcolle cts
Ġver b
z el
as ure
ĠM ut
Ġch rom
ĠCar ole
ĠMel anie
Ġpoison ed
Ġnutrit ional
Ġgovern ance
Ġsixt y
Austral ia
Ġsh akes
end ant
Ġcall er
ĠMar ion
Ġgener osity
Ġclear ance
Ġlack s
ili ating
Ġincent ive
ĠC oke
ĠR idge
ĠIn v
ĠRef eree
ĠWozni acki
Ġg aps
Ġhor izon
ĠBel le
Ġconce al
Cham ber
E ver
en za
Ġfor ged
ist on
ĠBut ter
Ġswim mers
ĠHor izon
deg C
Ġsuspic ions
Con nor
fig ure
ĠT ouch
Ġab rupt
Ġ20 50
Ġ19 36
ĠZ he
Ġsens ational
Ġcaution ed
ĠStart ing
ĠCoul son
Ġpol es
ĠLe vel
ĠJohn ston
ĠCo ach
ĠPat ients
Ġvolunte ering
Ġconsc ience
Ġextrav ag
r ill
on ica
ar c
Ġtr am
Ġprev iew
ĠWill is
ĠCr is
Ġfavor ites
Ġunh armed
ĠWik ipedia
Ġk its
Ġfound ations
ĠBern abeu
conf idence
Ġs ectors
Ġl ivestock
ĠM aced
Ġat omic
ĠL one
ild a
Ġsubmer ged
Ġb ins
th ritis
ĠSh ore
br inging
Ġcomb ining
ĠGeorg ian
ĠBuckingham shire
ĠBuddh ism
Ġpharm aceutical
Lab our
ĠCor respond
Ġmult ip
Ġru pt
ĠYan uk
Ġcongrat ulated
ĠRw anda
M od
s hed
ĠHe in
Ġlim b
Ġdin osaur
Ġ194 3
lu ent
ĠAZ UZ
Ġf ares
ĠC emetery
ĠR oland
ric anes
ĠAm ir
head s
Ġmass es
Ġeyes ight
Ġsnow fall
ĠTal king
c ular
Ġe uth
ib a
ĠSc outs
Ġwrit ings
Ġrul ers
Ġcompl iment
ĠPros ecution
ĠOper ations
ĠRother ham
Ġp ity
ag ain
Ġthought ful
Ġfunction al
Ġsac rific
Ġsp ont
Ġcomput ing
ĠAtt ack
n umber
Ġan them
ĠN orton
Ġins ulin
Ġtra ff
He alth
Ġhor rifying
Ġundergrad uate
Ġdess ert
Ġl ur
Ġall ig
ĠMar ian
Ġset back
Ġpatrol s
ĠWol ver
ĠBenz ema
G overnment
Ġp ushes
Ġcar avan
Ġrece ipt
Ġfre el
Ġund isclosed
ĠFab io
Ġlik ened
Ġuncon stitutional
ĠJ ihad
Ġar ist
Ġwar rants
ĠCl arence
ĠEx c
Ġorphan age
Ġo ct
Ġm asters
Ġwear er
Ġaccus ation
ĠIndust rial
ĠMerc ury
iv ik
av or
Ġstr icken
ĠSe ason
Ġir responsible
esty les
r ings
ch urch
ink y
20 12
Ġant ics
ĠZh ou
Pl ay
G iven
f urt
en y
Ġd ye
ĠM ell
ĠJo anne
ger ald
Ġdrink ers
ĠLuk as
deep ly
in el
ĠH ir
uck land
with out
ĠFur ious
Ġhandwrit ten
Ġinjust ice
Ġslog ans
t i
ĠH ers
ĠL izz
ĠF aw
Ġj og
ĠAl cohol
ham s
Ġfasc inated
B et
C ola
L ee
air d
Ġinst ability
Ġsoc i
ev il
Ġvar ies
ĠQue bec
Ġexhib its
Ġrall ied
pt ons
Ġbus hes
Ġsum mary
ĠHuff ington
ĠT it
ĠF ly
ĠF ine
ĠPr ague
sp ot
ĠHam id
Ġmanufact ure
ĠPre viously
Ġmemor abilia
H ome
art ime
ĠRe eves
Ġprof itable
Ġsleep y
Ġincl usion
Ġd ucks
Ġemb arked
ĠSac rament
um atic
Ġcap ac
ĠBe yond
Ġmor ph
ĠAm azing
Ġdoor step
Ġamb ulances
ĠKar im
Ġelev ated
Ġfrag ments
Ġmamm oth
Ġextrad ited
Ġdispat cher
M ake
d oes
Ġf a
ĠH icks
ĠN est
Ġhome owner
Ġmom s
ĠPar ade
Ġrebu ilt
ĠRena issance
ĠE gg
ess e
ĠCle ver
Ġaccompl ice
ĠGay le
ĠEri ks
ĠFell aini
C ur
Ġto ured
ĠM am
Ġha irc
ag han
ĠK C
ber cul
ĠGu ild
ĠFar ah
ĠPel osi
Ġexplo ited
mans hip
Ġcam oufl
Ġw ary
Ġcr unch
ĠTw ain
Ġcompat riot
kill ers
complete ly
ĠNam ib
old en
Ġres embl
Ġdin ers
fe it
Ġunst able
Ġperpetr ators
l ittle
Ġp iv
ro ots
Ġdo omed
ĠChile an
Ġcoord inator
Ġd anced
im b
Ġun real
ĠV as
ĠCol lection
ĠCom merce
ĠWhe eler
Ġdict ators
Ġreass ure
ĠIns urance
ĠRe form
ĠKo ch
ĠSoph ia
ĠArmen ia
ĠMov ie
Ġst itches
Ġtim eline
weet ed
occ up
m issions
Ġr ant
ab al
Ġk ang
ub s
Ġinc ap
ox ide
ĠWood ward
Ġmir ac
Ġfinger prints
ĠMay a
ĠBill board
Any one
ĠPoo le
Chamber lain
B u
I ran
ĠR if
Ġcar rots
de ath
Ġconsist ing
t el
Ġvis ibility
ĠEm manuel
Ġcat ches
Ġcooper ating
bus iness
E v
ĠS end
ĠA be
Ġk o
Th ough
Ġexpl ored
Ġdial ect
Ġmal icious
Ġinev itably
ĠGat wick
D ri
en o
th ia
Ġout ing
Ġcont ests
Ġsit com
unt ary
Ġdom ain
Ġfraud ulent
Ġpione er
Ġendors ement
ĠPic asso
ĠDund ee
S an
Ġm alf
Ġwh ip
ĠW ant
Ġdef eating
ĠTre k
ĠBor ough
ĠFro st
Ġevolution ary
Ã §
ĠWe ight
ĠMon k
Ġmult im
found ed
Ġther mal
W ASHINGTON
Ġad vers
Ġcre m
Ġaff irm
ĠYork ers
ĠMay er
Ġeight een
ĠGrand ma
rec ord
Ġcong regation
Ġoverlook ed
M E
U I
Ġw ig
Ġh ier
ast rop
Ġun limited
Ġsl umped
Ġsever ity
ĠTV s
Ġassoci ations
ĠCal vin
Ġcert ified
gor ith
n ation
at ches
ĠG us
ĠK uala
man i
ĠAcc used
Ġpack et
uct ions
Ġphil anthrop
V ER
t orn
ĠM aps
ĠK iss
Ġind uced
ĠZ am
het amine
ĠAct ually
rec ogn
Ġdiscipl ined
ĠNich olson
p ublic
Ġh int
ir ky
Ġright ly
ĠĠĠĠĠĠĠĠ ĠĠĠĠĠĠ
ĠSim mons
irm ary
Ġplun ge
B ob
B razil
Ġl ace
ec es
ĠW H
ĠG wyn
ĠMar vel
Ġmar row
Ġsl iding
Ġstand off
ĠBu zz
L ater
Ġf iery
ĠP ath
Ġpl aster
ren ched
Ġ19 37
Ġmin us
ĠBe e
Ġturn out
ĠHam pton
Ġmountain ous
ĠPan etta
Ġkiss es
Ġrebu ilding
T im
w icks
ch ar
atch i
spec ial
ĠCore y
Ġinspir ational
F I
af a
ĠFl ower
ĠOf sted
Ġbra ke
Ġcontam ination
Ġlandsl ide
Ġreconcil iation
S al
f ax
st aking
Ġfe ast
att a
Ġeconom ically
ĠOr d
play ing
Ġadm iration
ĠTal ent
f amous
Ġcons ulted
ĠAm elia
Ġhor rendous
Ġspir al
Ġment ality
Ġped iatric
ĠHon or
T op
m is
p sey
u ates
Ġsell ers
Ġrain bow
Ġobser ving
ĠFitz gerald
ĠTrev or
ĠLump ur
Ġfor wards
ĠB A
Ġv ag
Ġill icit
ĠJac obs
Ġnob le
Ġcompuls ory
U se
Ġc ush
Ġren ting
Ġrain forest
Ġheavy weight
Ġcease fire
Ġst are
ers ed
ĠN ato
ong o
Ġcont ender
ĠGib ral
Ġairpl anes
Ġs orrow
ot ine
im an
Ġam ph
aut ions
ĠMo D
ĠHod ge
ĠCala is
ĠT ucker
ĠU V
ĠSt ev
arg es
ĠLe ading
ĠKy r
Ġreiter ated
ĠE to
Ġab str
augh ty
ĠAb ram
Ġquar antine
Ġreop en
Ġmerch ant
N Y
Ġst aging
Ġup wards
Ġcomp oser
Ġfl ashing
Ġsuper model
ĠHard ing
Ġgren ades
d ue
on omic
Ġl ia
ĠB atter
ĠH BO
and an
Ġar rog
Ġbre aches
ĠCor onation
ĠBu ild
Ġhyp othes
d an
it ations
ĠHar lem
Ġjoin ts
Ġcomment ators
Ġinstrum ental
Ġdefin itive
unc iation
ur r
ĠM ao
qu is
Ġimp acted
Ġmet aph
Ġsw oop
ĠNat asha
Ġreserv oir
Ġunpredict able
ĠS ang
Ġ11 5
Ġindivid ually
ĠIsab ella
Face book
bercul osis
1 000
ar ling
ĠK ass
Ġad ren
**** *
ĠPres byterian
ĠVinc i
Ġb ald
ĠS ultan
Ġcr ushing
Ġcho oses
ĠSch midt
Ġglac iers
U D
v ideo
Ġst alking
ĠH in
ĠMar quez
Ġmid day
ĠFern and
Ġgro in
Ġmel ted
ĠMorm on
Ġportfol io
k il
ĠM ush
ĠOx lade
Ġhigh ways
Ġlaw maker
Ġmet als
Ġball ots
Ġdefin ing
Ġlog ical
ĠObs er
ĠNiss an
F ree
w itz
it as
Ġag on
Ġins erted
Ġ10 5
Ġsl ices
Ġinsp ections
Ġroyal ty
R eg
e fficient
Ġe cc
Ġfr ail
Ġle opard
Ġadvent urous
ĠGall agher
ĠCD s
ĠHM RC
ĠKit chen
Stud y
3 80
al ine
ĠH oney
ip her
au kee
Ġperf ection
ĠMay fair
ĠRyan air
Ġvolcan oes
OND ON
Ġresembl ance
am on
ro le
ĠP ater
Ġch ill
ĠV augh
Ġinf ilt
Ġref urb
ĠMy stery
Ġfav ored
Ġcreat ors
Ġexam inations
Ġinsult ing
Ġc ob
Ġb ishops
Ġimp orts
Ġcr acking
for mer
At lant
Ġsales man
ĠMedic aid
ĠSacrament o
Ġf uss
st icks
ĠL un
ĠN ote
Ġall ied
Ġdis in
Ġel bow
Ġinsp ect
Ġpreced ent
H i
ĠR aleigh
ĠU NESCO
Ġsc out
Ġrec ons
ĠAn ch
ĠMar l
Ġref res
Ġwear able
ĠIr vine
dri ven
Ġadul thood
Ġg el
ĠL oss
Ġhor iz
Ġheav iest
Ġacknowled ges
Ġfug itive
Ġ âĢĻ
ĠA uckland
Ġal oud
rou ch
ĠK ep
Ġup right
Ġhar bor
ĠBrig ade
ĠBatt alion
an qu
Ġn ause
Ġpot s
ĠBre ivik
Ġinteg ral
Ġflaw ed
? âĢĿ
J ul
ĠR onnie
rit z
ĠY ao
ĠSudan ese
Ġlegit im
ĠTas man
ad an
Ġon board
Ġend e
Ġdet ached
Ġpat ches
ĠSam oa
Ġcy cles
Ġseaf ood
ĠN TSB
ĠK an
Ġbl oom
Ġcr ane
Ġed ges
ĠHer bert
Ġcult iv
ĠEll iot
wicks hire
F ire
f ight
ĠT iffany
Ġsec recy
Ġdr agon
amb a
Ġmeth ane
Ġp ony
ĠM ile
ĠW ick
ĠK ou
reat ing
iz oph
Ġany time
Ġdef iant
Ġdisc retion
Ġcur iosity
In vestig
Ġpresent ers
medi ately
ĠIraq is
Ġcritic ize
ĠHay ley
ĠCust omers
Ġhorn s
ĠHS BC
ec ca
ĠUn ite
Ġdes irable
ĠWe i
ĠDe ila
B o
ĠC A
ĠNY C
Ġcorp se
al ian
ot hel
Ġg au
ĠThe ater
ĠSp a
ĠAs hes
ĠMail online
Ġurg ently
Ġrecip ients
Ġinteg ration
Ġw it
Ġh atch
Ġk ay
uch y
Ġmed ian
Ġrebell ion
" ).
ĠC aught
Ġal ight
ust ain
ich i
Ġroy als
Ġjack pot
ĠBase ball
ĠRedd it
Pros ecut
ĠAdmir al
M ag
ĠT all
Ġal gorith
Ġmean ings
Ġdest ined
writ ing
ĠStat en
ĠC roy
ĠR ound
Ġj ockey
ĠK ur
Ġun sc
ĠAs cot
ĠMan ila
Ġinterview ing
Ġcirc ulated
Ġrev ival
Ġver te
ĠCom ing
P ar
am ics
Ġex clus
ok ia
Ġdon ating
ik o
Ġadv ancing
ĠAll ison
Ġpers ecution
ĠEle ph
Ġapplaud ed
Ġg y
ĠG ust
Ġsk yd
aun ting
go al
ĠEn t
Ġash ore
Ġsh outs
Ġcom merce
ass ic
Ġrep aired
Ġpost c
ĠAd vis
Ġsn iper
Ġvar iations
Ġlif estyles
Ġmach inery
fess ional
Ġmathem atical
Ġcer v
ĠTy phoon
Ġl ashed
Ġover sh
Ġdev il
ĠMcC ull
Ġacqu aint
ĠSee ing
Ġatroc ities
ĠMiche le
ĠN ur
Ġab us
ĠCour tois
ĠFin ance
ĠBah amas
Ġinterven ed
Ġenroll ment
ĠSene gal
J on
Ġp aired
ĠS ever
ĠI RA
Ġst rap
ĠY ing
Ġbo iling
Ġactiv ated
Ġconc ussion
Ġsymp athetic
ĠEri k
ĠSev illa
izoph ren
Ġf aint
ook ed
Ġcont ag
ount y
aut iful
Ġfinal ists
ĠIslam ists
arr owing
Ġbound ary
ĠStone henge
Ġdump ing
ĠKazakh stan
s list
z uk
ol ith
Ġ" (
aff ected
ĠRo jo
Ġdeliver ies
Ġproceed ed
Ġprote ins
Ġp oo
ĠC V
Ġsuper vised
ĠIran ians
.... ..
alys is
Ġcompar isons
Ġswall ow
Ġb illed
ĠS NP
Ġst ove
Ġas c
Ġab dom
Ġhand les
get table
ĠMe et
Ġaud ition
Ġenl isted
ĠDra ke
Ġstrongh old
ĠS ears
ould er
Ġle aning
ĠU AE
Ġman kind
Ġresist ant
Ġknock out
Ġefficient ly
n ational
Ġt resp
ĠJo anna
ĠKing ston
sex ual
ĠGo al
ĠStrict ly
U SA
y en
ĠT ito
im age
ĠR ac
Ġwe ights
Ġse aw
ort ing
Ġcl aw
Ġar ise
ĠV ie
Ġass ail
Ġpublic ist
Ġhabit ats
Ġsav age
ĠFal con
Ġc ured
Ġb iod
ĠT ate
ĠT ube
ad vert
Ġcomp ares
Ġter race
Ġmar vel
Ġhaird ress
ĠGer ry
Ġenjoy ment
Ġmax im
ĠMot ors
ĠBarn ett
Rich ard
Ġbaff led
ĠLizz ie
b irds
ĠB ella
ĠIS S
Ġpan icked
Ġpenc ils
ieg el
Ġtablo id
d ong
Ġth umbs
Ġ2 60
ĠJ eb
per atures
Ġdown turn
Ġgra pp
Ġsatisf ying
Ġadam ant
c oun
Ġto pless
ĠN an
Ġgr ains
Ġcle ans
Ġrev ised
L U
ut ches
um bers
aw ned
Ġgroom ing
Ġsuic idal
Ġd up
ĠB omb
Ġcom ics
ĠSt ella
ĠCath y
star ter
Ġgall eries
sec urity
Ġeval uate
ĠHung arian
ĠGibral tar
ĠS pl
ĠW iggins
ĠO sw
Ġexp end
ĠSh ades
ĠFor rest
Ġclear er
Ġfav oured
ĠNow adays
Ġcoinc idence
ent ric
Ġst alled
ib l
Ġcontrib utor
ĠTom linson
Ġpun ches
Ġtreas ures
Ġsquir rel
Ġtr olley
Ġcont enders
Ġgl owing
Ġed iting
Ġbul b
O ld
Ġc apped
Ġso f
Ġmilit ias
Ġunf amiliar
Ġauction ed
Ġcoord inated
f eller
ĠS ul
ĠH ak
ra ising
ied ad
Ġcomm od
ov sky
ĠCl ippers
ĠTw elve
Ġaccount ant
Ġattend ees
ĠComp etition
Ġtur f
Ġstadium s
Ġtor rent
ĠRick ie
Ġthri ve
S ad
et z
em bourg
ult z
Ġreg ulated
Ġsal ute
ĠMill ie
ĠMcD onnell
Ġdiss ent
ĠKurd s
Islam ic
viol ent
Ġb ounced
Ġb inge
Ġd addy
ur ances
ĠN ag
Ġad orn
ĠApp ro
Ġcat alogue
ĠEr nest
l os
im o
ĠH ast
ĠJon ny
ĠGifford s
e ach
ĠAl astair
Ġtake away
Ġhard ship
Ġbath tub
Ġess ence
V E
Ġso ber
Ġsur real
Ġsl ope
bl ue
ing ham
ĠB end
Ġch ron
ĠAr lington
Ġmar ital
Ġcare less
Ġsol itary
icken ham
ĠArt ist
ĠDin ner
German y
C E
Ġb ak
ot ive
ust omed
Ġrep eating
Ġro gue
int ro
Ġacqu isition
Pr ot
ĠCroy don
Ġsh ades
ĠU FO
ap est
Ġam end
Ġpred iction
Ġbul ly
Ġsmooth ly
Ġw artime
Ġres h
Ġhel lo
ĠSh ay
Ġsk et
Ġaff luent
Ġbank ers
play ed
ĠHav ana
o gh
ĠC el
est ation
ĠD eng
Ġanaly ze
Un iversity
Ġabort ions
Ġschool children
ull en
Ġpublic ations
Ġfair ness
mo ving
ĠClear ly
D es
S uch
Ġc yn
ĠG ian
Ġsl ides
app iness
ĠChe v
Ġ194 6
ĠEngine ers
ĠZhe jiang
r ator
w ild
Ġc urs
ĠA EG
ong s
Ġdr ills
ĠSu k
rie ved
cri pts
ĠAlexand ria
ĠCoff ee
Ġpresum ably
ĠA ly
Ġover ly
Ġlo oph
Ġsleep s
Ġaspir ations
Ġincumb ent
C aliforn
H ello
ĠT rent
ĠH uck
Ġbel ls
Ġtear ful
Ġclutch ing
B re
B ron
ĠB ub
Ġperf ume
ĠMc In
St op
ĠDirect ion
erm ain
Ġfab ulous
ri ott
ib el
ĠUn iverse
Ġinf rared
Ġcou pled
ĠLiber ation
Ġcommemor ate
ĠBoliv ia
Ġsummon ed
Ġcont end
ru ly
ĠMon is
ator ial
Ġattend ants
Ġguard ed
Ġspect acle
ĠG ig
gh ans
ib al
ĠAd vert
Ġcompl iance
Ġb rib
im ental
ĠM LS
ra ved
Ġpass er
Ġfour teen
ĠBr as
Ġcho ked
ĠCourt ney
ĠIslam abad
ĠWait rose
ĠI vy
Ġun just
Ġsc or
Ġz inc
ĠStr as
Ġmaster mind
ĠRever end
s ided
Ġ2 30
se ek
com pass
amed ic
ĠGreen land
ĠSl oot
Ġdepth s
ĠSty les
ĠTermin al
us ra
ĠSt okes
Ġpol itely
Ġser vers
ys is
ĠBro s
Ġgar nered
ĠI rene
ĠH ul
Ġcr ust
ĠPres ley
ĠInf irmary
Ġmelt down
Ġresemb les
T ur
Ġexpl orer
not hing
Ġsecret ive
Sp ace
C amp
c hel
w aukee
Ġin nings
Ġm aul
ĠR anch
ĠG ior
Ġwealth iest
ĠWat ford
ĠSent encing
ĠF lynn
ĠMil ner
ĠPalest ine
Ġguarant ees
Ġrig orous
Ġrestr aint
Ġgrap es
M ur
Ġf aded
Ġp ies
Ġnew com
ool s
Ġro oted
Ġlit re
Th ousands
ĠCard inal
Ġexplan ations
bag s
Ġbarr acks
Ġpir acy
C ourt
S ar
oper ation
col oured
Ġcock tails
ĠBM I
Ġbun ker
Ġp umped
ĠT otal
Ġpe aks
ĠLe ad
Ġcour ty
ĠDay ton
Ġvir gin
ĠC ody
Ġvol umes
Ġcontest ed
Ġcollaps ing
Ġbru ised
Ġancest ry
ĠBou levard
ĠGeoff rey
ĠJagu ar
P I
t ax
in um
ĠJ i
int osh
Ġ195 1
ĠPenn y
ĠNA S
.' '
Ġbr ass
Ġvis ibly
Ġhum iliating
ĠNorth western
Ġharass ed
Ġstrengthen ed
L uc
Ġunder take
Ġgard ener
Ġembr acing
Ġger ms
ex c
Ġz oos
Ġwood land
Ġske ptical
Ġtiss ues
Ġautom obile
Ġaval anche
H en
un ned
and ing
ew ater
Ġdeb ated
medi ate
ĠBern ie
Ġdisg usted
Ġcere bral
Ġcomr ades
ĠA uss
ĠB Y
Ġadd icts
ĠTw ickenham
Ġblood shed
yl ie
Ġyouth ful
ĠPlay ing
ĠLo ft
ĠEngine ering
Ġted dy
ĠB aines
ĠL ink
ĠY as
Ġdown s
Ġpop ulous
ĠBl ock
Ġsing led
Ġill usion
ĠSa atchi
Ġbrows er
Ġabdom inal
z hen
in ers
an or
om ical
ĠT ac
Ġtechn ician
Ġcam el
ĠSystem s
l iving
Ġw ander
id an
um en
Ġar thritis
Ġ19 12
Ġdef ect
ĠAll ah
oles cent
Ġliter acy
ĠJess ie
ĠWhe never
Ġallerg ies
Ġconsp iring
ĠKro os
in ting
ier ry
Ġrest ed
Ġpain ts
Ġblack mail
Ġlun ches
T oo
d est
Ġa ided
ĠE ton
oun cing
Ġun expl
ĠY ong
Ġpay out
enn ial
ĠDem psey
ĠSun shine
Ġunve iling
ĠTam ara
Ġpund it
ĠControvers ial
Ġinflamm ation
C lear
k us
Ġhe fty
Ġen vy
Ġfl ick
Ġpass ive
ĠSc and
ah ua
Ġcur ved
ĠHar ley
Ġpain killers
Ġment ions
Ġtum ours
k ov
Ġanim ation
Ġrespect ful
ĠInter view
Ġbrief ed
ĠFood s
B us
J et
in av
Ġthe fts
Ġwh opping
Ġover l
Ġrec ounted
ĠWe ibo
Ġrecord er
ma res
light en
ĠJer ome
ĠFoot age
orr aine
Ġhazard ous
Ġadjour ned
W ork
v ation
Ġ. .
ĠT rier
Ġsh adows
ell ini
Ġimp aired
Ġaut onomous
ĠKn own
ols ki
ĠHast ings
P ass
W il
Ġw ickets
Ġn oses
ĠC R
ĠSer ious
ĠBrown e
ĠGra eme
ĠKir by
Br own
ĠSuz anne
Ġcove ted
at ivity
ut ory
ĠAf ghans
urg ers
Ġgen ome
Ġnur t
Ġcalc ulate
Ġ77 7
ĠSiber ia
orient ed
Ġreminis cent
b il
l iter
ĠG ren
are a
ĠAl ph
Ġsn iff
Ġdoct rine
Ġbul bs
Ġdemonstr ating
orr h
Ġfemin ine
ĠDanger ous
Ġthere by
Ġreason ing
Ġbroad ly
Ġfer oc
ĠAld i
Ġtopp led
Ġsurrog ate
Ġconfer ences
ĠRoch dale
n ian
Ġ ?"
Ġs ings
Ġv ow
Ġplay ful
Ġrem n
Friend s
b as
l iv
Ġb atch
eng ine
reg or
ĠSoc iedad
Ġscan ning
ĠWag ner
J oe
ob e
Ġref erees
Ġpack ets
ĠCow boys
ĠBh ut
ou ched
ad ona
Ġpar ag
ĠHam m
gu ided
Ġlandsc apes
Ġauthentic ity
Ġh arrowing
ĠLe i
Ġvis as
Ġfo am
Ġs us
ant as
Ġam assed
Ġsub stit
Ġavoid ance
Ġlin er
Ġkit ten
Ġparalys ed
Rem ember
ĠC yp
ĠH ogan
Ġfore casts
Ġdiss atisf
Ġquit ting
ĠLeg isl
ĠWes ley
C ong
O k
m ot
in ement
Ġw oes
Ġc ort
our age
Ġpro c
pl aces
Ġco ached
Ġli able
ĠLev i
ĠBulgar ian
Ġmaj ors
i q
m atic
â Ħ
if ficult
Ġman eu
Ġgener ating
Ġarch ive
IM E
ĠSh ak
Wh atever
Ġarchae ological
Ġdys function
V ideo
Ġs ire
ĠS ens
Ġbl o
Ġbefore hand
Ġrequest ing
Ġaband oning
ĠHey wood
ĠLad ies
our se
str icken
Ġscar ce
Austral ian
L ittle
Y eah
x ia
om ayor
Ġg ays
ĠP and
ah i
Ġsl ap
Ġdeb uted
Ġbirth days
Ġenc ry
Ġsun rise
Ġstreng thening
ĠDal ai
Ġexceed ed
commun ications
Ġtimet able
âĦ ¢
b ay
ĠT ype
Ġch anted
Ġv ague
rib ution
rid ges
ĠCont inental
ĠMax well
Ġcann on
3 60
in ley
Ġdev otion
Ġsincere ly
Ġwh it
ĠN RA
osp ace
Ġpar adise
ĠCol bert
ĠWar wickshire
bo hyd
Ġfract ures
Mart in
O D
Ġd ot
Ġ. ,
ĠC otton
yl on
Ġcop ied
Ġprec autions
yth on
ĠOw ens
ĠCalder on
c ases
or o
ĠR aid
ric ter
Th omas
Ġdr ums
Ġstat s
Ġstaff ers
" ;
ar er
ur ally
Ġimp erson
Ġcomment ing
Ġthr illing
ĠStephen s
Ġcliff s
Ste ven
Ġexter ior
p ath
Ġs urn
uss en
Ġfail ings
Ġpra ising
ĠScient ific
ĠHay den
oren t
ICE F
Ġhack er
Ġreign ing
ĠNottingham shire
opp y
angel ical
Ġsp urred
osp ice
Ġpain staking
ĠSuper man
Ġow es
Ġhang s
Ġglac ier
Ġpe as
Ġind ications
Ġobject ions
ĠBrom wich
ĠYan kees
ĠLux embourg
ĠH R
ath lon
Ġbroad band
Al most
Ġblock buster
g art
ar oo
ac erb
ĠB od
ĠD orn
ĠG ent
Ġcl oning
ĠK ell
ĠMar riage
Ġequ ity
Ġpan or
fl ower
ĠMill ennium
Ġstrength s
Ġsch izophren
ĠBook ed
Ġc ad
Ġb achelor
ĠShe ila
Ġsouth western
fess or
Ġoutbreak s
ĠBra ve
Mal iki
ĠWorces ter
Ġinherit ance
Ġartif acts
p our
ĠM EP
et ooth
Ġst igma
Ġsw at
ĠChar ity
Ġim aging
ens ual
ĠSh opping
Ġext ortion
Ġchall enger
Ġden ounced
ĠWal cott
ĠKe ys
ic ates
Ġelect ro
ahaw ks
Ġen erg
oy ds
ĠMur der
ĠMors i
ĠNorm andy
Ġc ig
ĠA bs
ĠH P
ĠD mit
Ġph on
ov ascular
ĠWest on
Ġmid term
Ġinsp ected
ĠRos a
Ġextensive ly
Ġkidney s
................ ................
ĠPater no
Ġa quarium
ic ans
Ġpl ung
Ġ3 70
ĠWe eks
Ġread ings
Ġobst acle
Ġoverwhelming ly
Ġconstitu ents
Ġseparat ist
Ġinterpre ted
im er
ĠC ress
Ġk in
Ġ19 10
Ġem ailed
ĠRe fer
ĠBe gin
Ġdem ographic
Ġchar ism
ĠCas illas
Ġmim ic
y ne
ĠT ut
ĠCh a
Ġheart felt
Ġdig it
ĠBre aking
ĠPul is
Ġclar ify
Ġplummet ed
Ġadolesc ents
b enc
Ġapp alled
ĠLe ver
ĠAn onymous
ĠAr ist
Ġquestion able
ĠRef uge
Ġmush rooms
g row
in ous
ic z
Ġch unk
rit ical
Ġsex ist
Ġtax is
Ġdisp rop
Ġstraight forward
ĠDaniel s
ĠRoss i
Ġric her
Ġwand ered
Ġsus cept
t em
Ġin und
ĠM ob
Ġal iens
ĠD ud
Ġj ugg
ĠOr t
ĠWat ers
Ġpump ing
ĠWool wich
Ġemerg ence
Ġbe gg
ĠC ON
Ġr aging
ĠF en
pp e
ord ered
Ġred es
Ġnational ity
ĠGre ens
ser ving
spec ified
Ġoversee ing
ĠSach s
G S
re f
ĠE at
Ġj ogging
ĠAd olf
Ġcho king
ĠSloven ia
Ġha uled
Ġfl ipped
Ġgood ness
leg al
Ġtrans action
Ġoccup y
Ġtex ted
ĠHope fully
Ġlect urer
Ġoverth row
ĠJ ed
Ġfront man
Ġrobber ies
S atur
d istance
ad io
ĠC ain
ĠB ard
Ġsa uc
Ġj ams
Ġinterview er
Ġnecess ity
Ġarm ies
ĠLeg ion
mand u
Ġnotor iously
T en
a a
ĠC yn
ĠJu arez
Ġmum s
ĠStrat ford
ĠSof ia
astrop he
e lected
Ġt apped
ĠB ears
ĠE ating
ood le
Ġro ok
orm ack
Ġgover ned
ĠMon a
ĠCarol yn
ĠBur berry
Af ric
ĠWeb ber
Ġresist ing
ĠTown ship
ĠSak ho
f ed
Ġor n
ĠWill ie
Ġbroad casts
Ġbul ld
Un til
ĠSot omayor
Ġmisunder standing
ĠTerrit ory
Californ ia
Ġt ucked
le ased
id able
ĠP aren
ul ative
ĠJ azz
met ics
Rep ort
Ġhij acked
w ave
on ut
Ġp enn
Ġacc ustomed
ob al
ier i
20 13
Ġmarket place
ĠCons ider
Ġadjust ed
ĠRet urn
ĠKrist ina
J esus
P ay
S L
ĠC pl
Ġch ore
Ġarrest ing
ĠCop a
Ġcasual ty
G ermain
ure en
reat ment
ix ed
Ġrecogn izes
uk i
ga ard
W ow
Ġst ocking
ĠL ima
ĠApp eals
Ġthr ust
ĠOf com
Ġcup c
ĠFro ch
ĠBed ford
Ġrecre ate
ĠLaud er
ĠDescrib ing
Ġbak ery
A v
A round
ĠR ide
ĠR unning
ĠJ ude
Ġconf ess
20 14
Ġfarm land
Ġbrand ing
sec ret
Ġchap el
Ġintens ified
ol ism
Ġnew er
Ġ19 17
Ġcr am
Ġpar an
Ġfact ions
Ġcontrib utes
ĠRet ail
Ġcondemn ation
h ours
Ġal erts
Ġbl oc
Ġent r
Ġgun shots
Ġcirc ular
ĠDar ling
ĠJournal ist
ĠSher man
ĠKy i
ĠCer tainly
respons ive
ĠFig ures
M ill
ed ge
Ġc ages
ic ulous
ĠFl ood
ĠSl ow
Ġcere al
s kin
Ġthe oret
Ġn u
ad ish
ĠM uk
ĠR i
ator ium
Ġnorth western
Ġadvis or
Ġbats man
ovy ch
3 20
f lying
Ġa rous
act ing
ĠAl s
Ġdisc arded
Ġbo asting
Ġlegisl ators
Ġsubs idi
Ġfinger print
Ġspr int
Ste ve
E ast
c roft
Ġw icket
ĠC ort
Ġst ems
Ġpro cl
Ġover t
ne eded
ink le
Ġaw ait
ĠCon rad
ĠEd gar
ĠMil waukee
Ġtransl ates
ĠHart ley
ĠEp stein
Ġdisprop ortion
Ġd well
Ġr aining
ĠN okia
ĠG ol
ĠAl ready
ĠBe ast
ĠEn joy
Ġdescend ants
Ġe ch
Ġorgan ism
Ar thur
ĠSurv iv
ur ai
Ġcom for
ĠN uclear
qu ito
Ġover turn
Ġsw ear
Ġmarket ed
ĠHam za
Ġcerem onial
Ġeld ers
Ġwors ened
Cou ple
d ream
p sy
Ġth ugs
Ġcl amp
IS IS
Ġchat ted
Ġtoler ated
ĠW are
Ġout right
Ġlight weight
ĠEm otional
Ġlobby ing
Ġhe ter
ĠM ee
Ġmor ale
ĠGu pta
Ġfreed oms
Ġaston ished
Ġfu elled
Ġtu berculosis
Ġsquir rels
ĠMey er
ĠCorrespond ent
f ill
m ic
Ġup bringing
ĠPh D
isl av
ĠPolit ics
Ġdisag reement
ĠA L
Ġst ricter
ĠH imal
ĠP f
ĠHe aven
Ġpr ow
Ġass umption
Ġname ly
Ġshop per
ĠDr ag
work er
ĠNe ur
Ġep ile
Ġforg iven
azz i
Ġsne ak
Ġturb ines
Ġgast ric
l arge
Ġin land
Ġ" [
ra per
ĠK eller
Ġtime ly
Ġdr astic
Ġpat ents
Ġhon ours
Ġoffer ings
Ġattrib utes
Ġtwent ies
A w
Ġm ould
ĠP izza
Ġfund ament
che ck
Rep ublic
ĠLut on
ĠExt ra
Ġsemif inals
w omen
ou ble
ĠS amp
ĠC ory
ĠB ouch
ĠW ess
ĠG lam
Ġsw inging
aid a
be fore
Ġbath ing
exp ensive
Ġmanifest o
Ġbog us
Ġlitig ation
K n
L ist
n ine
ill on
ĠH ouses
Ġex acerb
Ġj unction
Ġup ward
Ġint ricate
Ġcons isted
ĠMal ia
Ġimag in
Ġreact ors
Ġt earing
ĠK ut
Ġpol o
Ġdem ise
Ġrelax ation
ĠAv iv
Ġmos aic
Ġdisgu ise
Ġstew ard
V is
ass ies
Ġfil ters
Ġbook store
ĠSm oke
Ġthr iller
ĠRec overy
Ġcup board
Ġtow ed
Ġeager ly
Mex ico
ĠChron icle
ĠScand inav
Ġl ag
ĠIn quiry
Ġser ver
ĠWed ding
Ġstock p
ĠRub en
n ame
ĠK ham
Ġqu irky
br other
Ġ_ ____
ept une
Ġste er
Ġsick ening
Ġtun a
ĠExper ience
âĤ¬ âĦ¢
Ġsou ven
a vers
en ary
ang ling
ft ime
Ġsurpr ises
ĠGood ison
Ġurg ency
ĠKep ler
ĠStras bourg
g ot
Ġt asted
Ġcomm uter
Ġspec ify
Ġmess y
Ġhous ew
ĠAri el
Ġmechan ic
i otic
Ġd ads
ĠT owers
ch ant
Ġmon etary
Ġhighlight ing
ĠCauc as
d ead
Ġt ant
Ġc ant
ĠC esar
ĠF emale
ĠParliament ary
= $
t ank
om enal
ĠL ille
Ġpr icing
Ġrest oring
Ġstand ings
ĠSatur days
ĠVal le
Ġscram bled
ĠT ough
ĠE rit
Ġpost al
Ġprob ability
che c
Ġbom bed
Ġmagn et
Ġow l
Ġmaid en
ĠKend all
a ft
r int
Ġl ou
et een
ile m
ĠMar adona
ĠSe pp
ĠCan nes
Ġserious ness
ĠCor in
Ġfavor able
Ġsight ing
Ġcow boy
st ra
Ġg uru
ĠR ash
Ġear rings
Ġ6 50
Ġche wing
Bar celona
Ġextravag ant
Ġh udd
ĠP ow
ĠE D
Ġdown hill
Ġappl iances
ĠRom ero
b ly
ax ies
ĠSe ahawks
ĠShar pton
Ġdial ects
Ġgor illa
ĠBach mann
le vant
Ġl ent
ĠP og
Ġ" ...
Ġrepl ies
Ġrh ino
Ġsequ el
bek ah
M el
j ar
n ar
in qu
ou f
il ated
et tle
Ġbl adder
Ġrev oked
Ġemp athy
ĠBas il
sm all
quit oes
ĠSina i
orig inal
F ox
M ike
T een
ĠMar se
ĠEx am
Ġprotect ions
Ġanonym ously
O ff
t ale
re b
ĠB asketball
ĠW ins
Ġch ambers
ĠTh ur
aw r
Ġam ounted
Ġmed ically
Ġreal ising
Ġdep icts
Ġposs essed
ĠMan or
ĠNe ander
Ġpoll ed
ĠHait ian
ĠNeighb ors
h ops
Ġc asket
id is
if iable
Ġcl uster
Ġrel ocated
Ġstr ains
Ġdisc onn
ann i
Ġeconom ists
ĠBro ck
Ġrev olt
icks on
Ġexhib itions
C D
S ky
al most
Ġtr ump
Ġpres umed
ĠSh ock
osp el
cast ing
ĠMal ta
ĠDon caster
ĠNich ols
ĠTu val
Ġhumil iation
ĠV ale
Ġmag istrate
Ġwild fire
ĠStep h
ĠCom cast
Ġblind ness
ĠDam on
ĠWi i
Ġconqu ered
Ġrelent less
b ath
g rove
l uck
is able
Ġun specified
ĠV a
ale b
Ġcho ir
iff el
ĠCraig slist
ĠKash mir
orent ina
g ae
j ian
v i
ĠLondon ers
Ġtele v
ĠX u
Ġvac ations
Ġlower ing
opol y
rection al
ĠDim it
Ġw oken
ĠK FC
ĠSh awn
Ġche eky
Ġclass ification
Ġmorning s
Ġfront line
Ġtransport ing
Ġdimin ished
ĠDI Y
Satur day
ĠI A
ke feller
Ġse am
ud ding
Ġbl oss
Ġsw apped
ĠRes ources
Ġbrig ade
ic ultural
ĠW ide
ĠL ap
Ġch oke
ĠY ates
Ġwind ing
Ġsat ir
Ġrecogn izing
Ġtouch line
Ġadvert ise
Ġapolog ies
Ġtail ored
ĠLl oyds
Ġsquee zed
ĠCheng du
ĠC ircle
Ġj aws
ĠV az
Ġcounter terrorism
ĠFrank furt
ĠGar ry
ĠHawai ian
Ġcorrespond ence
Ġrandom ly
Ġhumid ity
Ġorb iting
Ġt armac
en burg
Ġm alls
ĠT ak
ĠP on
Ġen quiries
ĠMar x
ĠWe ir
Ġass uming
Ġ10 3
ĠCol lect
Ġjoint ly
Ġsmugg led
Hope fully
ĠArchit ect
ĠDele ving
M ac
Ġh oll
Ġch ancellor
ĠJ ag
ĠSh ab
ĠPr ide
ĠSu u
alif ax
Ġcertain ty
Ġcondem ning
ĠConst ant
Ġunav ailable
ĠManc ini
Ġs atur
ĠAnd ers
ĠHer man
u o
Ġw ines
at ar
Ġm uddy
ĠP asc
ate au
Ġrem anded
Ġster oids
Ġdiscour aged
e i
ĠL ac
aw ar
ee ing
ĠAv on
ĠPhilipp ine
Ġcourage ous
Ġtranspl ants
ĠAut o
Ġsubstant ially
Ġanticip ation
Ġemerg encies
ĠHous ing
Ġunfor gettable
ĠLoren zo
ĠS ection
ĠS oul
ac a
Ġfr antic
ĠD R
Ġbuild ers
Ġsw ine
Ġweak en
Ġgrocer ies
ĠLim ited
Ġsacrif ices
is ly
Ġl en
ĠB B
ĠP riv
Ġar tery
Ġcover t
Ġhal ftime
Ġprivile ged
Ġignor ance
Ġb ishop
Ġl amps
Ġnight mares
Ġoccur rence
ĠÂł Ġ
Ġpromot er
Ġcalc ium
f ing
Ġt iles
Ġe ased
ĠH ank
Ġdev ised
Ġnotice able
ĠNas ri
ĠMath ieu
le an
Ġl ately
ĠT yp
ĠM oody
el man
Ġcl an
Ġimm un
Ġaut onomy
ĠSur ve
inder ella
Ġpir ate
H undreds
r ir
Ġsp ate
Ġcomp act
Ġinj unction
ĠGe ographic
ĠHaw kins
Ġtast y
ĠDor othy
Ġbung al
answ ered
t ens
Ġto uted
Ġp oul
Ġm apping
Ġn ud
ĠM ale
Ġfr amed
ĠL ans
Ġpre acher
Ġhit ch
ĠPlay boy
Ġconcent rating
ĠFant asy
S cott
ĠS ki
Ġcan e
Ġspec ulated
ĠCar rick
ĠShar ia
Ġunve il
ĠPerson al
ge ons
ous ed
Ġfl are
ĠMar riott
Ġclass ed
Wh ich
ĠDon ovan
Ġsched ules
ĠNav ar
ĠClaud ia
ihu ahua
Ġb anners
." '
Ġpol io
ĠBrit ney
ĠRe venue
ĠGre ig
Ġmort g
Ġstap le
ĠChong qing
ĠDeleving ne
ĠS ite
Ġal umn
Ġch ocol
ist air
ĠTh under
Ġdef raud
Ġrun off
Ġpat rons
aut ical
Ġmechan isms
ĠPod olski
an ish
Ġsp ies
Ġfound ers
Ġbeh aving
Ġdem ean
Ġconflict ing
Ġdesk top
Ġmicrow ave
R yan
g ress
ĠM ert
Ġstar ving
ĠPer kins
Ġbal ancing
Ġprefer ences
ĠTreat ment
Ġmatt ress
ĠP red
Ġ19 38
Ġav id
Ġspot ting
rim inal
Ġcommercial s
ĠHy der
Ġfacil itate
Ġan alog
un n
ub en
fic a
ron ics
Ġgen ital
Be ijing
Ġbull s
Ġcow ard
ĠLer ner
Ġdisreg ard
ĠYanuk ovych
Ġt ying
Ġl enders
ĠC over
Ġgo at
Ġup market
Ġper il
Ġneed les
az ir
Cl aims
Pr ime
Br ide
Ġpengu in
Ġb apt
or ously
ion ed
ĠMar r
ĠPr ussia
ĠBy z
ĠBot ox
Ġcater ing
ĠRout e
l ar
w d
Ġm otto
ĠB elt
ĠZ en
Ġeight y
ĠSam i
ĠTe acher
ĠWatch ing
Some one
Ġroof s
ĠPast or
d ro
m oor
or gh
ot le
ĠMon etary
ĠSo ft
idel ity
ĠUN ICEF
m ere
p ill
ĠA man
ĠB orders
Ġstr ained
Ġdiv ine
Ġ27 0
Ġuntr ue
Ġpreval ent
C rit
r and
ĠA unt
ĠB ooth
ĠW itness
Ġv oid
Ġro ast
ĠAl tern
ll i
Ġaccess ory
Ġexhib ited
Ġmort ar
Sem itic
ĠDolph ins
B aby
R et
ĠH alifax
ul atory
Ġr anged
ib les
Ġhur led
Ġcritic izing
Ġcomplex ity
ĠEugen ie
r ows
Ġp act
ĠTh ierry
Ġdis qualified
Ġpre med
Ġlie utenant
Ġshr ink
Am ong
Ġsod ium
Ġupgr aded
A sh
Ġwh olly
ĠIn stitution
ĠBr anch
cl osure
Ġclos ures
ĠNor ris
Ġentertain er
ĠCumm ings
role um
* .
C are
M C
P et
U k
g roup
Ġgo ats
Ġback stage
ĠSch ultz
ĠPer fect
Ġcontent ious
Ġadopt ive
Ġbrave ly
Ġgal axies
ĠPep e
Ġinh al
ĠSold iers
ĠRams ay
Ġabstr act
ĠOsw ald
Ġcourty ard
L ONDON
P ac
Ġt ier
is he
ĠK ai
ang o
Ġbright est
Ġo ak
ion age
Ġfor c
ĠC ros
ĠK ang
od ied
Ġam using
Ġstr ings
ĠAm id
Ġmater nal
Ġuns ett
ĠCall um
ĠCher ry
Ġstraw berries
ĠHew itt
usch witz
Ġha w
ak is
Ġdown ed
ah ino
cot ics
ĠRoc kefeller
Ġnomine es
Ġhelm ets
Ġdigest ive
Ġcontag ious
Ġa ven
ĠA gent
im en
ĠP addy
Ġsepar ating
Ġcontract ing
Ġlic ensing
Ġblog gers
ĠBlu etooth
Ë Ī
ĠP aper
Ġch ats
Ġte e
Ġac ids
Ġsl ated
Ġmot ives
Ġimpl icated
Ġtraff ickers
Ġlou der
B oy
C ould
Ġbe ers
Ġfant as
ĠEconom ics
Ġarra ignment
ĠC aval
Ġher ald
Ġexpl orers
Ġide als
estic ides
ĠJordan ian
ĠHell en
P lan
d rug
Ġt ipping
Ġf olded
il ion
ec onomic
ĠR ising
te ga
Ġtrad er
Ġdipl oma
Ġopt ical
Ġreconst ruct
il ic
ol y
Ġne on
Ġinter face
Ġmon uments
Ġmake over
Ġdel ic
Ġident ifies
ĠMus k
And y
Ġstrateg ist
Ġalph abet
L ord
it ism
ĠM D
ĠM RI
Ġsa ga
ĠN eptune
ick i
Ġcoun selling
Ġsuper intendent
Ġstep mother
Ġcook ie
ĠRel atives
Ġt idy
ĠW olves
ap art
ĠK ram
Ġcomm ute
Ġunderstand able
Ġtor so
Ġdisadvant age
Ġfreel ance
T ony
ĠF inding
ĠF ocus
Ġall ergy
Ġfl ashed
ĠEd mund
run ner
Ġportray al
Ġdiarr hea
lighten ment
he it
ĠH es
ĠL ots
ĠY o
Ġgr an
ise xual
Ġpar amedic
Ġpost ure
ĠOl ive
ĠJeff s
ĠHun ts
ĠSent inel
I O
ĠB av
ĠD odd
Ġdef ied
ĠCo ch
Ġdiet ary
Ġnovel ist
ĠHills borough
Ġmicrosc ope
ĠH ale
Ġins ane
Ġhead phones
Ġemb assies
Ġboost ing
Ġimplement ing
ĠE ly
Ġthere after
Ġspec ulate
ĠInd ies
Ġform idable
ĠGo gh
ĠThorn ton
Ġcardi ovascular
or ian
ear th
ang a
ĠCrow ley
Ġincent ives
L at
Ġnot icing
ĠEl ena
Ġhumil iated
Ġquizz ed
ibl ical
6 50
A ug
Ġa qu
et ed
Ġk ite
Ġun lock
joy ed
ĠChar ter
Ġver ified
Ġsky line
Ġ78 7
ĠRou ge
ĠVII I
Ġpromin ence
ĠC andy
ch arged
Ġun ite
Ġsc i
ĠGreen peace
col ored
wa ite
Ġrestr ained
c ad
Ġn an
ĠJ al
Ġfall out
wh y
Ġhur ricanes
And rew
Ġrev ived
ĠHun ger
ĠJac ques
Ġconqu er
D isc
K im
N early
d al
ĠA uschwitz
ĠK ol
ĠLe ighton
ĠAust en
Ġbub bles
Ġnost alg
ĠCris is
=$ <<
ĠL ara
Ġpro claimed
Ġout line
Ġmon ks
Ġret rial
ĠCar men
Ġve il
ĠTe aching
ĠDVD s
Ġincomp et
Ġcomfor ted
K ate
ĠB ord
ĠH ock
um ann
ĠV on
ĠAfter wards
aun t
ĠBel arus
Ne il
Ġcounsel or
Ġsimpl er
ĠMick elson
T E
us an
orn s
Ġass ists
Ġlearn ers
Ġcash ier
ĠFrank ie
ĠMa ureen
ĠProgram me
Ġdiscour age
j ev
Ġg rop
Ġ20 30
Ġmet ro
velop ment
Ġaut istic
Ġcop ing
Ġprofession ally
[...]
