{
  "version": "1.0",
  "truncation": null,
  "padding": null,
  "added_tokens": [
    {
      "id": 0,
      "content": "<pad>",
      "single_word": false,
      "lstrip": false,
      "rstrip": false,
      "normalized": false,
      "special": true
    },
    {
      "id": 1,
      "content": "<bos>",
      "single_word": false,
      "lstrip": false,
      "rstrip": false,
      "normalized": false,
      "special": true
    },
    {
      "id": 2,
      "content": "<eos>",
      "single_word": false,
      "lstrip": false,
      "rstrip": false,
      "normalized": false,
      "special": true
    },
    {
      "id": 3,
      "content": "<unk>",
      "single_word": false,
      "lstrip": false,
      "rstrip": false,
      "normalized": false,
      "special": true
    }
  ],
  "normalizer": null,
  "pre_tokenizer": {
    "type": "ByteLevel",
    "add_prefix_space": false,
    "trim_offsets": true,
    "use_regex": true
  },
  "post_processor": {
    "type": "ByteLevel",
    "add_prefix_space": true,
    "trim_offsets": false,
    "use_regex": true
  },
  "decoder": {
    "type": "ByteLevel",
    "add_prefix_space": true,
    "trim_offsets": true,
    "use_regex": true
  },
  "model": {
    "type": "BPE",
    "dropout": null,
    "unk_token": null,
    "continuing_subword_prefix": null,
    "end_of_word_suffix": null,
    "fuse_unk": false,
    "byte_fallback": false,
    "ignore_merges": false,
    "vocab": {
      "<pad>": 0,
      "<bos>": 1,
      "<eos>": 2,
      "<unk>": 3,
      "!": 4,
      "\"": 5,
      "#": 6,
      "$": 7,
      "%": 8,
      "&": 9,
      "'": 10,
      "(": 11,
      ")": 12,
      "*": 13,
      "+": 14,
      ",": 15,
      "-": 16,
      ".": 17,
      "/": 18,
      "0": 19,
      "1": 20,
      "2": 21,
      "3": 22,
      "4": 23,
      "5": 24,
      "6": 25,
      "7": 26,
      "8": 27,
      "9": 28,
      ":": 29,
      ";": 30,
      "<": 31,
      "=": 32,
      ">": 33,
      "?": 34,
      "@": 35,
      "A": 36,
      "B": 37,
      "C": 38,
      "D": 39,
      "E": 40,
      "F": 41,
      "G": 42,
      "H": 43,
      "I": 44,
      "J": 45,
      "K": 46,
      "L": 47,
      "M": 48,
      "N": 49,
      "O": 50,
      "P": 51,
      "Q": 52,
      "R": 53,
      "S": 54,
      "T": 55,
      "U": 56,
      "V": 57,
      "W": 58,
      "X": 59,
      "Y": 60,
      "Z": 61,
      "[": 62,
      "\\": 63,
      "]": 64,
      "^": 65,
      "_": 66,
      "`": 67,
      "a": 68,
      "b": 69,
      "c": 70,
      "d": 71,
      "e": 72,
      "f": 73,
      "g": 74,
      "h": 75,
      "i": 76,
      "j": 77,
      "k": 78,
      "l": 79,
      "m": 80,
      "n": 81,
      "o": 82,
      "p": 83,
      "q": 84,
      "r": 85,
      "s": 86,
      "t": 87,
      "u": 88,
      "v": 89,
      "w": 90,
      "x": 91,
      "y": 92,
      "z": 93,
      "{": 94,
      "|": 95,
      "}": 96,
      "~": 97,
      "¡": 98,
      "¢": 99,
      "£": 100,
      "¤": 101,
      "¥": 102,
      "¦": 103,
      "§": 104,
      "¨": 105,
      "©": 106,
      "ª": 107,
      "«": 108,
      "¬": 109,
      "®": 110,
      "¯": 111,
      "°": 112,
      "±": 113,
      "²": 114,
      "³": 115,
      "´": 116,
      "µ": 117,
      "¶": 118,
      "·": 119,
      "¸": 120,
      "¹": 121,
      "º": 122,
      "»": 123,
      "¼": 124,
      "½": 125,
      "¾": 126,
      "¿": 127,
      "À": 128,
      "Á": 129,
      "Â": 130,
      "Ã": 131,
      "Ä": 132,
      "Å": 133,
      "Æ": 134,
      "Ç": 135,
      "È": 136,
      "É": 137,
      "Ê": 138,
      "Ë": 139,
      "Ì": 140,
      "Í": 141,
      "Î": 142,
      "Ï": 143,
      "Ð": 144,
      "Ñ": 145,
      "Ò": 146,
      "Ó": 147,
      "Ô": 148,
      "Õ": 149,
      "Ö": 150,
      "×": 151,
      "Ø": 152,
      "Ù": 153,
      "Ú": 154,
      "Û": 155,
      "Ü": 156,
      "Ý": 157,
      "Þ": 158,
      "ß": 159,
      "à": 160,
      "á": 161,
      "â": 162,
      "ã": 163,
      "ä": 164,
      "å": 165,
      "æ": 166,
      "ç": 167,
      "è": 168,
      "é": 169,
      "ê": 170,
      "ë": 171,
      "ì": 172,
      "í": 173,
      "î": 174,
      "ï": 175,
      "ð": 176,
      "ñ": 177,
      "ò": 178,
      "ó": 179,
      "ô": 180,
      "õ": 181,
      "ö": 182,
      "÷": 183,
      "ø": 184,
      "ù": 185,
      "ú": 186,
      "û": 187,
      "ü": 188,
      "ý": 189,
      "þ": 190,
      "ÿ": 191,
      "Ā": 192,
      "ā": 193,
      "Ă": 194,
      "ă": 195,
      "Ą": 196,
      "ą": 197,
      "Ć": 198,
      "ć": 199,
      "Ĉ": 200,
      "ĉ": 201,
      "Ċ": 202,
      "ċ": 203,
      "Č": 204,
      "č": 205,
      "Ď": 206,
      "ď": 207,
      "Đ": 208,
      "đ": 209,
      "Ē": 210,
      "ē": 211,
      "Ĕ": 212,
      "ĕ": 213,
      "Ė": 214,
      "ė": 215,
      "Ę": 216,
      "ę": 217,
      "Ě": 218,
      "ě": 219,
      "Ĝ": 220,
      "ĝ": 221,
      "Ğ": 222,
      "ğ": 223,
      "Ġ": 224,
      "ġ": 225,
      "Ģ": 226,
      "ģ": 227,
      "Ĥ": 228,
      "ĥ": 229,
      "Ħ": 230,
      "ħ": 231,
      "Ĩ": 232,
      "ĩ": 233,
      "Ī": 234,
      "ī": 235,
      "Ĭ": 236,
      "ĭ": 237,
      "Į": 238,
      "į": 239,
      "İ": 240,
      "ı": 241,
      "Ĳ": 242,
      "ĳ": 243,
      "Ĵ": 244,
      "ĵ": 245,
      "Ķ": 246,
      "ķ": 247,
      "ĸ": 248,
      "Ĺ": 249,
      "ĺ": 250,
      "Ļ": 251,
      "ļ": 252,
      "Ľ": 253,
      "ľ": 254,
      "Ŀ": 255,
      "ŀ": 256,
      "Ł": 257,
      "ł": 258,
      "Ń": 259,
      "Ġt": 260,
      "he": 261,
      "Ġa": 262,
      "in": 263,
      "er": 264,
      "Ġthe": 265,
      "Ġs": 266,
      "on": 267,
      "re": 268,
      "Ġw": 269,
      "en": 270,
      "ed": 271,
      "Ġo": 272,
      "Ġc": 273,
      "at": 274,
      "an": 275,
      "Ġb": 276,
      "Ġf": 277,
      "is": 278,
      "or": 279,
      "es": 280,
      "it": 281,
      "ing": 282,
      "Ġto": 283,
      "Ġp": 284,
      "Ġh": 285,
      "ar": 286,
      "ou": 287,
      "nd": 288,
      "Ġin": 289,
      "Ġm": 290,
      "al": 291,
      "as": 292,
      "Ġof": 293,
      "Ġd": 294,
      "Ġand": 295,
      "ic": 296,
      "le": 297,
      "om": 298,
      "Ġth": 299,
      "il": 300,
      "ion": 301,
      "id": 302,
      "Ġl": 303,
      "Ġ.": 304,
      "ent": 305,
      "Ġn": 306,
      "Ġbe": 307,
      "ve": 308,
      "ĠT": 309,
      "Ġre": 310,
      "st": 311,
      "ay": 312,
      "Ġhe": 313,
      "ot": 314,
      "Ġg": 315,
      "ol": 316,
      "ĠS": 317,
      "Ġe": 318,
      "ut": 319,
      "ad": 320,
      "Ġon": 321,
      "ow": 322,
      "ac": 323,
      "ly": 324,
      "ĠA": 325,
      "am": 326,
      "im": 327,
      "Ġfor": 328,
      "ur": 329,
      "ĠI": 330,
      "ĠM": 331,
      "ĠC": 332,
      "et": 333,
      "ig": 334,
      "ir": 335,
      "ver": 336,
      "Ġis": 337,
      "el": 338,
      "Ġwas": 339,
      "ter": 340,
      "Ġst": 341,
      "us": 342,
      "ro": 343,
      "Ġthat": 344,
      "Ġwh": 345,
      "ĠB": 346,
      "'s": 347,
      "ec": 348,
      "Ġy": 349,
      "ith": 350,
      "ĠThe": 351,
      "ld": 352,
      "Ġwith": 353,
      "ill": 354,
      "Ġit": 355,
      "est": 356,
      "Ġat": 357,
      "ĠH": 358,
      "Ġas": 359,
      "ri": 360,
      "her": 361,
      "Ġan": 362,
      "un": 363,
      "ce": 364,
      "ation": 365,
      "Ġal": 366,
      "âĢ": 367,
      "Ġsa": 368,
      "ĠP": 369,
      "ch": 370,
      "ĠW": 371,
      "ers": 372,
      "op": 373,
      "Ġha": 374,
      "ag": 375,
      "ear": 376,
      "ul": 377,
      "os": 378,
      "and": 379,
      "ke": 380,
      "Ġhis": 381,
      "Ġr": 382,
      "Ġ'": 383,
      "th": 384,
      "ts": 385,
      "Ġsaid": 386,
      "igh": 387,
      "if": 388,
      "Ġfr": 389,
      "ain": 390,
      "ĠD": 391,
      "ore": 392,
      "Ġare": 393,
      "Ġ1": 394,
      "em": 395,
      "our": 396,
      "Ġcon": 397,
      "ĠL": 398,
      "ĠF": 399,
      "Ġhave": 400,
      "ĠR": 401,
      "Ġ\"": 402,
      "oo": 403,
      "Ġ2": 404,
      "pp": 405,
      "Ġfrom": 406,
      "Ġch": 407,
      "Ġsh": 408,
      "ĠE": 409,
      "Ġby": 410,
      "ew": 411,
      "Ġcom": 412,
      "ĠN": 413,
      "Ġhas": 414,
      "ct": 415,
      "ĠG": 416,
      "ould": 417,
      "res": 418,
      "Ġv": 419,
      "Ġher": 420,
      "00": 421,
      "ate": 422,
      "ess": 423,
      "Ġle": 424,
      "end": 425,
      "Ġnot": 426,
      "ĠJ": 427,
      "Ġwe": 428,
      "Ġex": 429,
      "Ġsu": 430,
      "ted": 431,
      "ab": 432,
      "ĠO": 433,
      "gh": 434,
      "all": 435,
      "âĢĻ": 436,
      "Ġse": 437,
      "Ġyou": 438,
      "Ġpro": 439,
      "ight": 440,
      "Ġde": 441,
      "ity": 442,
      "ome": 443,
      "Ġu": 444,
      "ast": 445,
      "se": 446,
      "ive": 447,
      "um": 448,
      "ust": 449,
      "Ġj": 450,
      "ack": 451,
      "Ġsp": 452,
      "ies": 453,
      "ud": 454,
      "ra": 455,
      "ist": 456,
      "Ġwhe": 457,
      "ard": 458,
      "Ġab": 459,
      "Ġwor": 460,
      "Ġor": 461,
      "Ġhad": 462,
      "Ġthey": 463,
      "Ġk": 464,
      "ak": 465,
      "ere": 466,
      "rou": 467,
      "Ġpl": 468,
      "Ġwho": 469,
      "out": 470,
      "art": 471,
      "oc": 472,
      "iv": 473,
      "Ġtheir": 474,
      "ort": 475,
      "ment": 476,
      "ĠU": 477,
      "ice": 478,
      "Ġaf": 479,
      "are": 480,
      "qu": 481,
      "ich": 482,
      "Ġshe": 483,
      "ant": 484,
      "ost": 485,
      "Ġwere": 486,
      "ge": 487,
      "ell": 488,
      "Ġdo": 489,
      "Ġbut": 490,
      "ure": 491,
      "ide": 492,
      "Ġwill": 493,
      "Ġcan": 494,
      "Ġ-": 495,
      "ap": 496,
      "Ġbeen": 497,
      "ry": 498,
      "Ġout": 499,
      "one": 500,
      "Ġcl": 501,
      "Ġthis": 502,
      "ial": 503,
      "Ġafter": 504,
      "ong": 505,
      "Ġyear": 506,
      "age": 507,
      "oun": 508,
      "ĠâĢ": 509,
      "ĠK": 510,
      "Ġus": 511,
      "ber": 512,
      "Ġoff": 513,
      "ep": 514,
      "own": 515,
      "ie": 516,
      "Ġgo": 517,
      "ays": 518,
      "Ġup": 519,
      "ous": 520,
      "Ġpe": 521,
      "ople": 522,
      "od": 523,
      "ime": 524,
      "cc": 525,
      "ia": 526,
      "Ġne": 527,
      "ass": 528,
      "Ġman": 529,
      "ood": 530,
      "ine": 531,
      "ther": 532,
      "ff": 533,
      "Ġun": 534,
      "Ġad": 535,
      "ans": 536,
      "ions": 537,
      "'t": 538,
      "ame": 539,
      "Ġall": 540,
      "ake": 541,
      "very": 542,
      "Ġme": 543,
      "Ġabout": 544,
      "Ġone": 545,
      "Ġmore": 546,
      "Ġag": 547,
      "Ġwhich": 548,
      "ĠCh": 549,
      "Ġ(": 550,
      "ally": 551,
      "Ġpeople": 552,
      "day": 553,
      "ĠIn": 554,
      "ect": 555,
      "mer": 556,
      "ire": 557,
      "Ġint": 558,
      "ord": 559,
      "Ġwhen": 560,
      "ild": 561,
      "ook": 562,
      "ace": 563,
      "The": 564,
      "ind": 565,
      "ĠĠ": 566,
      "old": 567,
      "ĠSt": 568,
      "so": 569,
      "Ġtr": 570,
      "ĠHe": 571,
      "Ġres": 572,
      "ary": 573,
      "per": 574,
      "ated": 575,
      "ub": 576,
      "Ġ20": 577,
      "Ġpr": 578,
      "ue": 579,
      "pl": 580,
      "Ġtw": 581,
      "Ġwould": 582,
      "ĠâĢĺ": 583,
      "Ġso": 584,
      "ail": 585,
      "Ġbec": 586,
      "ike": 587,
      "ict": 588,
      "oll": 589,
      "ren": 590,
      "ence": 591,
      "Ġhim": 592,
      "pt": 593,
      "Ġinc": 594,
      "ile": 595,
      "av": 596,
      "ose": 597,
      "ish": 598,
      "Ġalso": 599,
      "estion": 600,
      "ound": 601,
      "ond": 602,
      "Ġim": 603,
      "Ġcont": 604,
      "aus": 605,
      "Ġover": 606,
      "ite": 607,
      "ian": 608,
      "Ġar": 609,
      "ree": 610,
      "Ġte": 611,
      "Ġthem": 612,
      "Ġthan": 613,
      "ks": 614,
      "ĠIt": 615,
      "ĠTh": 616,
      "Ġen": 617,
      "Ġcomp": 618,
      "ip": 619,
      "Ġdis": 620,
      "Qu": 621,
      "og": 622,
      ",\"": 623,
      "other": 624,
      "ign": 625,
      "Ġtime": 626,
      "uc": 627,
      "Ġother": 628,
      "ven": 629,
      "Ġkn": 630,
      "Ġmy": 631,
      "ough": 632,
      "Ġsc": 633,
      ".\"": 634,
      "ress": 635,
      "Ġnew": 636,
      "ount": 637,
      "Ġfir": 638,
      "oy": 639,
      "ident": 640,
      "rit": 641,
      "Ġtwo": 642,
      "Ġper": 643,
      "Question": 644,
      "ang": 645,
      "act": 646,
      "Ġinto": 647,
      "ked": 648,
      "ach": 649,
      "Ġrep": 650,
      "ib": 651,
      "king": 652,
      "reat": 653,
      "Ġatt": 654,
      "Ġ201": 655,
      "hed": 656,
      "Ġthere": 657,
      "ne": 658,
      "ng": 659,
      "Ġlike": 660,
      "ĠY": 661,
      "Ġsome": 662,
      "Ġapp": 663,
      "Ġacc": 664,
      "Ġcould": 665,
      "ool": 666,
      "man": 667,
      "Ġpol": 668,
      "ife": 669,
      "iz": 670,
      ".'": 671,
      "Ġrec": 672,
      "Ġjust": 673,
      "Ġyears": 674,
      "Ġfirst": 675,
      "ĠV": 676,
      "ors": 677,
      "ved": 678,
      "ause": 679,
      "ft": 680,
      "ning": 681,
      "ade": 682,
      "ob": 683,
      "Ġpart": 684,
      "ations": 685,
      "Ġ3": 686,
      "ru": 687,
      "Ġget": 688,
      "ater": 689,
      "Ġits": 690,
      "able": 691,
      "Ġ19": 692,
      "ents": 693,
      "Ġwhat": 694,
      "Ġro": 695,
      "ance": 696,
      "ove": 697,
      "ick": 698,
      "Ġpre": 699,
      "ily": 700,
      "Ġchild": 701,
      "Ġqu": 702,
      "ical": 703,
      "fore": 704,
      "ĠMr": 705,
      "ult": 706,
      "ĠWh": 707,
      "ings": 708,
      "Ġfam": 709,
      "round": 710,
      "ase": 711,
      "Ġ--": 712,
      "nder": 713,
      "vel": 714,
      "ĠBut": 715,
      "ens": 716,
      "Ġbl": 717,
      "Ġtold": 718,
      "aw": 719,
      "Ġdid": 720,
      "iss": 721,
      "ied": 722,
      "orm": 723,
      "amp": 724,
      "Ġlast": 725,
      "Ġno": 726,
      "Ġany": 727,
      "Ġbr": 728,
      "ark": 729,
      "xt": 730,
      "ath": 731,
      "Ġback": 732,
      "ok": 733,
      "anc": 734,
      "Ġyour": 735,
      "te": 736,
      "Ġplay": 737,
      "Ġcar": 738,
      "Ġfl": 739,
      "urn": 740,
      "land": 741,
      "Ġhel": 742,
      "ious": 743,
      "Ġbefore": 744,
      "Ġfe": 745,
      "ĠUn": 746,
      "Ġshow": 747,
      "ates": 748,
      "Ġinter": 749,
      "ons": 750,
      "ory": 751,
      "vers": 752,
      "wn": 753,
      "ition": 754,
      "Ġdown": 755,
      "Ġgr": 756,
      "Ġif": 757,
      "Ġagain": 758,
      "rough": 759,
      "fer": 760,
      "Ġbecause": 761,
      "Ġact": 762,
      "uring": 763,
      "ting": 764,
      "Ġam": 765,
      "000": 766,
      "Ġinv": 767,
      "Ġstud": 768,
      "Ġnow": 769,
      "Ġonly": 770,
      "Ġdes": 771,
      "Ġhome": 772,
      "Ġser": 773,
      "Ġhow": 774,
      "chool": 775,
      "hing": 776,
      "Ġbeing": 777,
      "Ġdec": 778,
      "Ġimp": 779,
      "Ġsay": 780,
      "Ġwee": 781,
      "ĠAl": 782,
      "Ġwork": 783,
      "Ġunder": 784,
      "oin": 785,
      "ĠShe": 786,
      "Ġph": 787,
      "Ġsec": 788,
      "Ġcall": 789,
      "Ġmost": 790,
      "Âł": 791,
      "ited": 792,
      "Ġmon": 793,
      "als": 794,
      "enc": 795,
      "Ġfound": 796,
      "lud": 797,
      "we": 798,
      "ather": 799,
      "riend": 800,
      "Ġhelp": 801,
      "Ġlook": 802,
      "Ġsays": 803,
      "Ġour": 804,
      "Ġcr": 805,
      "Ġ4": 806,
      "Ġbet": 807,
      "au": 808,
      "hen": 809,
      "ink": 810,
      "ving": 811,
      "ubl": 812,
      "Ġwhere": 813,
      "Ġday": 814,
      "Ġrem": 815,
      "Ġmany": 816,
      "aking": 817,
      "ĠNew": 818,
      "Ġvery": 819,
      "Ġoffic": 820,
      "Ġcount": 821,
      "Ġcomm": 822,
      "Ġwom": 823,
      "uch": 824,
      "ince": 825,
      "red": 826,
      "Ġinclud": 827,
      "over": 828,
      "Ġevery": 829,
      "Ġmake": 830,
      "Ġmade": 831,
      "Ġthree": 832,
      "ful": 833,
      "year": 834,
      "Ġbel": 835,
      "Ġsur": 836,
      "Ġexp": 837,
      "Ġ200": 838,
      "arg": 839,
      "Ġadd": 840,
      "Ġsee": 841,
      "Ġknow": 842,
      "Ġsm": 843,
      "illion": 844,
      "ational": 845,
      "Ġ5": 846,
      "ss": 847,
      "ier": 848,
      "elf": 849,
      "Ġfamily": 850,
      "Ġworld": 851,
      "Ġcent": 852,
      "lect": 853,
      "ise": 854,
      "und": 855,
      ",'": 856,
      "Ġschool": 857,
      "Ġear": 858,
      "Ġlife": 859,
      "oot": 860,
      "air": 861,
      "ters": 862,
      "ities": 863,
      "ph": 864,
      "Ġchildren": 865,
      "Ġbu": 866,
      "Ġthen": 867,
      "Ġneed": 868,
      "ton": 869,
      "oss": 870,
      "up": 871,
      "ating": 872,
      "ered": 873,
      "Ġeven": 874,
      "Ġmonth": 875,
      "ouse": 876,
      "Ġthrough": 877,
      "meric": 878,
      "Ġwhile": 879,
      "Ġpolice": 880,
      "ĠÂ": 881,
      "tle": 882,
      "rib": 883,
      "Ġaw": 884,
      "Ġmay": 885,
      "ured": 886,
      "ĠAnd": 887,
      "Ġown": 888,
      "ty": 889,
      "Ġduring": 890,
      "hn": 891,
      "ĠFr": 892,
      "les": 893,
      "led": 894,
      "Ġac": 895,
      "Ġfriend": 896,
      "ublic": 897,
      "Ġrel": 898,
      "Ġdif": 899,
      "erson": 900,
      "Ġway": 901,
      "It": 902,
      "owing": 903,
      "ĠLe": 904,
      "Ġweek": 905,
      "ĠThey": 906,
      "Ġev": 907,
      "Ġke": 908,
      "Ġdon": 909,
      "Ġcour": 910,
      "hes": 911,
      "Ġlong": 912,
      "Ġem": 913,
      "ember": 914,
      "Ġtake": 915,
      "ope": 916,
      "ĠAmeric": 917,
      "Ġcons": 918,
      "Ġaround": 919,
      "Ġfin": 920,
      "Ġshould": 921,
      "Ġ$": 922,
      "ĠAn": 923,
      "ĠÂ£": 924,
      "Ġins": 925,
      "son": 926,
      "ording": 927,
      "atch": 928,
      "ĠAf": 929,
      "ble": 930,
      "Ġagainst": 931,
      "Ġmin": 932,
      "Ġinf": 933,
      "Ġgood": 934,
      "ased": 935,
      "augh": 936,
      "gan": 937,
      "Ġsupp": 938,
      "aren": 939,
      "Ġpres": 940,
      "orn": 941,
      "ĠAr": 942,
      "ital": 943,
      "Ġmuch": 944,
      "Ġhapp": 945,
      "Ġstar": 946,
      "Ġ6": 947,
      "ves": 948,
      "gg": 949,
      "ave": 950,
      "omet": 951,
      "ix": 952,
      "imes": 953,
      "ues": 954,
      "ists": 955,
      "Ġleft": 956,
      "irl": 957,
      "Ġwell": 958,
      "Ġfoll": 959,
      "aim": 960,
      "NN": 961,
      "ared": 962,
      "Ġind": 963,
      "Ġlead": 964,
      "Ġtri": 965,
      "Ġpass": 966,
      "ĠMar": 967,
      "Ġcol": 968,
      "alth": 969,
      "roup": 970,
      "ures": 971,
      "ĠWe": 972,
      "ric": 973,
      "We": 974,
      "Ġreg": 975,
      "Ġbelie": 976,
      "Ġhand": 977,
      "ned": 978,
      "ĠSc": 979,
      "Ġend": 980,
      "any": 981,
      "ĠBrit": 982,
      "Ġplan": 983,
      "ork": 984,
      "Ġret": 985,
      "Ġstr": 986,
      "..": 987,
      "ĠSp": 988,
      "Ġdef": 989,
      "ody": 990,
      "nment": 991,
      "ten": 992,
      "Ġsuch": 993,
      "Ġfour": 994,
      "ash": 995,
      "ms": 996,
      "Ġthough": 997,
      "ular": 998,
      "ual": 999,
      "oth": 1000,
      "ives": 1001,
      "Ġrepor": 1002,
      "ines": 1003,
      "Ġkill": 1004,
      "sh": 1005,
      "Ġset": 1006,
      "iew": 1007,
      "Ġused": 1008,
      "Ġstill": 1009,
      "Ġhigh": 1010,
      "ah": 1011,
      "Ġwar": 1012,
      "tern": 1013,
      "outh": 1014,
      "Ġthink": 1015,
      "med": 1016,
      "ward": 1017,
      "Ġthose": 1018,
      "ected": 1019,
      "Ġclaim": 1020,
      "Ġwant": 1021,
      "der": 1022,
      "ĠEng": 1023,
      "ll": 1024,
      "ween": 1025,
      "Ġass": 1026,
      "az": 1027,
      "Ġco": 1028,
      "ange": 1029,
      "ĠCon": 1030,
      "Ġtra": 1031,
      "Ġteam": 1032,
      "ina": 1033,
      "leg": 1034,
      "Ġgover": 1035,
      "ull": 1036,
      "Ġgoing": 1037,
      "ale": 1038,
      "ever": 1039,
      "Ġgu": 1040,
      "olog": 1041,
      "ock": 1042,
      "Ġop": 1043,
      "Ġmed": 1044,
      "ĠBr": 1045,
      "Ġhead": 1046,
      "Ġmother": 1047,
      "ov": 1048,
      "ement": 1049,
      "Ġperson": 1050,
      "Ġgroup": 1051,
      "Ġbetween": 1052,
      "uth": 1053,
      "ames": 1054,
      "Ġfind": 1055,
      "Ġyoung": 1056,
      "its": 1057,
      "ner": 1058,
      "ower": 1059,
      "ason": 1060,
      "Ġsince": 1061,
      "Ġmil": 1062,
      "Ġnum": 1063,
      "ants": 1064,
      "ible": 1065,
      "oney": 1066,
      "cer": 1067,
      "Ġter": 1068,
      "Ġcountry": 1069,
      ".âĢĻ": 1070,
      "Ġlaw": 1071,
      "Ġnear": 1072,
      "Ġput": 1073,
      "Ġthese": 1074,
      "ĠSh": 1075,
      "Ġwin": 1076,
      "iel": 1077,
      "tain": 1078,
      "Ġright": 1079,
      "Ġresp": 1080,
      "ivers": 1081,
      "Ġdisc": 1082,
      "Ġdoes": 1083,
      "ets": 1084,
      "ady": 1085,
      "Ġuse": 1086,
      "uss": 1087,
      "Ġbus": 1088,
      "ced": 1089,
      "ised": 1090,
      "Ġ10": 1091,
      "ĠJo": 1092,
      "osp": 1093,
      "Ġche": 1094,
      "ene": 1095,
      "ram": 1096,
      "ĠThis": 1097,
      "du": 1098,
      "Ġsign": 1099,
      "ient": 1100,
      "ross": 1101,
      "Ġ7": 1102,
      "ĠUnited": 1103,
      "ug": 1104,
      "ually": 1105,
      "Ġattack": 1106,
      "Ġcalled": 1107,
      "Ġwr": 1108,
      "ĠAs": 1109,
      "Ġnight": 1110,
      "Ġmar": 1111,
      "Ġsy": 1112,
      "Ġdeath": 1113,
      "Ġexper": 1114,
      "Ġtak": 1115,
      "io": 1116,
      "Ġdri": 1117,
      "self": 1118,
      "ury": 1119,
      "Ġloc": 1120,
      "ĠRe": 1121,
      "Ġconf": 1122,
      "Ġvis": 1123,
      "Ġsl": 1124,
      "ney": 1125,
      "Ġsomet": 1126,
      "ened": 1127,
      "Ġrun": 1128,
      "Ġgovernment": 1129,
      "ness": 1130,
      "Ġdiffer": 1131,
      "ont": 1132,
      "Ġinvest": 1133,
      "Ġcap": 1134,
      "Ġcare": 1135,
      "ics": 1136,
      "Ġtook": 1137,
      "Ġnever": 1138,
      "Ġpict": 1139,
      "Ġsame": 1140,
      "ral": 1141,
      "Ġsecond": 1142,
      "ling": 1143,
      "Ġhour": 1144,
      "get": 1145,
      "ax": 1146,
      "Ġdet": 1147,
      "Ġlit": 1148,
      "bs": 1149,
      "Ġfeel": 1150,
      "ister": 1151,
      "ger": 1152,
      "Ġcle": 1153,
      "Ġold": 1154,
      "Ġpublic": 1155,
      "Ġnext": 1156,
      "Ġent": 1157,
      "Ġincluding": 1158,
      "Ġofficial": 1159,
      "ages": 1160,
      "Ġgreat": 1161,
      "Ġdays": 1162,
      "Ġbig": 1163,
      "iving": 1164,
      "Ġtoo": 1165,
      "Ġanother": 1166,
      "ote": 1167,
      "Ġgirl": 1168,
      "Ġgot": 1169,
      "ank": 1170,
      "br": 1171,
      "Th": 1172,
      "Ġaway": 1173,
      "Ġvide": 1174,
      "ley": 1175,
      "ĠHow": 1176,
      "Ġlater": 1177,
      "app": 1178,
      "ener": 1179,
      "ĠĠĠĠ": 1180,
      "Ġair": 1181,
      "He": 1182,
      "pr": 1183,
      "Ġbo": 1184,
      "Ġwomen": 1185,
      "Ġext": 1186,
      "Ġbest": 1187,
      "Ġ_": 1188,
      "Ġeff": 1189,
      "ĠAt": 1190,
      "Ġcome": 1191,
      "Ġwent": 1192,
      "ple": 1193,
      "ĠWhat": 1194,
      "orth": 1195,
      "ute": 1196,
      "ĠIs": 1197,
      "Ġleg": 1198,
      "ative": 1199,
      "ices": 1200,
      "Ġcame": 1201,
      "Ġspec": 1202,
      "Ġcontr": 1203,
      "Ġtal": 1204,
      "Ġspe": 1205,
      "iet": 1206,
      "Ġaccording": 1207,
      "duc": 1208,
      "urs": 1209,
      "Ġprot": 1210,
      "Ġmem": 1211,
      "ED": 1212,
      "Ġfive": 1213,
      "Ġplace": 1214,
      "ĠCl": 1215,
      "Ġtry": 1216,
      "ST": 1217,
      "ret": 1218,
      "side": 1219,
      "bers": 1220,
      "Ġmoney": 1221,
      "the": 1222,
      "Ġref": 1223,
      "ĠChr": 1224,
      "Ġ8": 1225,
      "uthor": 1226,
      "ama": 1227,
      "ondon": 1228,
      "hip": 1229,
      "Ġbre": 1230,
      "Ġpop": 1231,
      "ments": 1232,
      "uck": 1233,
      "ĠFor": 1234,
      "arge": 1235,
      "Ġsent": 1236,
      "Ġcontin": 1237,
      "Ġdr": 1238,
      "ision": 1239,
      "ĠWhen": 1240,
      "irect": 1241,
      "Ġparen": 1242,
      "Ġmillion": 1243,
      "Ġsk": 1244,
      "Ġboth": 1245,
      "Ġreal": 1246,
      "Ġbeh": 1247,
      ".,": 1248,
      "ster": 1249,
      "Ġstat": 1250,
      "ys": 1251,
      "Ġeach": 1252,
      "Ġformer": 1253,
      "Ġfar": 1254,
      "ham": 1255,
      "Ġfil": 1256,
      "Ġpar": 1257,
      "Ġwater": 1258,
      "ility": 1259,
      "Ġhouse": 1260,
      "ird": 1261,
      "Ġcre": 1262,
      "vice": 1263,
      "Ġprov": 1264,
      "ĠOn": 1265,
      "iver": 1266,
      "Ġmen": 1267,
      "ĠLondon": 1268,
      "ĠPr": 1269,
      "ĠZ": 1270,
      "ific": 1271,
      "Ġcourt": 1272,
      "ways": 1273,
      "omm": 1274,
      "iness": 1275,
      "Ġhealth": 1276,
      "ired": 1277,
      "Ġmet": 1278,
      "'re": 1279,
      "atur": 1280,
      "ins": 1281,
      "line": 1282,
      "ĠâĢĵ": 1283,
      "ution": 1284,
      "Ġnumber": 1285,
      "ĠEST": 1286,
      "Ġfather": 1287,
      "Ġdidn": 1288,
      "Ġrest": 1289,
      "ospital": 1290,
      "Ġ18": 1291,
      "Ġlot": 1292,
      "ison": 1293,
      "rest": 1294,
      "Ġ9": 1295,
      "Ġvideo": 1296,
      "Ġreally": 1297,
      "min": 1298,
      "ights": 1299,
      "Ġmonths": 1300,
      "ived": 1301,
      "Ġfew": 1302,
      "earch": 1303,
      "Ġboy": 1304,
      "aj": 1305,
      "Ġproble": 1306,
      "ptions": 1307,
      "alf": 1308,
      "rem": 1309,
      "Ġexpl": 1310,
      "ex": 1311,
      "velop": 1312,
      "Ġcity": 1313,
      "used": 1314,
      "Ġdep": 1315,
      "Ġ2013": 1316,
      "ĠThere": 1317,
      "Ġsub": 1318,
      "Ġkeep": 1319,
      "Ġphot": 1320,
      "Ġtoday": 1321,
      "Ġpoin": 1322,
      "ience": 1323,
      "Ġfood": 1324,
      "ĠMon": 1325,
      "Ġinst": 1326,
      "Ġgl": 1327,
      "Ġfollowing": 1328,
      "Ġseen": 1329,
      "Ġbook": 1330,
      "Ġtrans": 1331,
      "Ġstate": 1332,
      "Ġinvestig": 1333,
      "ĠPol": 1334,
      "Ġsim": 1335,
      "ands": 1336,
      "Ġpay": 1337,
      "by": 1338,
      "ains": 1339,
      "ĠBe": 1340,
      "Ġsomething": 1341,
      "orts": 1342,
      "Ġlear": 1343,
      "iversity": 1344,
      "thing": 1345,
      "iday": 1346,
      "Ġstop": 1347,
      "Ġvict": 1348,
      "Ġturn": 1349,
      "Ġwoman": 1350,
      "osed": 1351,
      "ried": 1352,
      "ained": 1353,
      "Ġtop": 1354,
      "iam": 1355,
      "Ġdifferent": 1356,
      "Ġnews": 1357,
      "Ġsit": 1358,
      "Ġthings": 1359,
      "ĠJohn": 1360,
      "Ġcamp": 1361,
      "Ġpost": 1362,
      "Ġrele": 1363,
      "Ġlittle": 1364,
      "til": 1365,
      "Ġreport": 1366,
      "Ġadded": 1367,
      "Ġsoc": 1368,
      "Ġjob": 1369,
      "Ġrece": 1370,
      "Ġfriends": 1371,
      "ction": 1372,
      "Ġlet": 1373,
      "ĠIf": 1374,
      "Ġcur": 1375,
      "Ġmo": 1376,
      "Ġperf": 1377,
      "Ġwal": 1378,
      "Ġann": 1379,
      "Ġhum": 1380,
      "Ġ12": 1381,
      "Ġinj": 1382,
      "Ġsix": 1383,
      "Ġparents": 1384,
      "ott": 1385,
      "Ġhard": 1386,
      "Ġbuild": 1387,
      "ĠWor": 1388,
      "ĠDe": 1389,
      "Ġtaken": 1390,
      "Ġasked": 1391,
      "Ġsever": 1392,
      "Ġthought": 1393,
      "ĠOb": 1394,
      "ĠEur": 1395,
      "Ġmus": 1396,
      "ĠCNN": 1397,
      "ces": 1398,
      "anted": 1399,
      "ided": 1400,
      "Ġcase": 1401,
      "ball": 1402,
      "con": 1403,
      "Ġtest": 1404,
      "Ġimport": 1405,
      "Ġdirect": 1406,
      "By": 1407,
      "stem": 1408,
      "Ġread": 1409,
      "cent": 1410,
      "ished": 1411,
      "Ġmiss": 1412,
      "Ġdevelop": 1413,
      "Ġstudents": 1414,
      "Ġsmall": 1415,
      "ĠMc": 1416,
      "Ġfoot": 1417,
      "Ġreported": 1418,
      "ĠCar": 1419,
      "Ġprev": 1420,
      "ield": 1421,
      "Ġsw": 1422,
      "Ġdied": 1423,
      "Ġhours": 1424,
      "Ġalways": 1425,
      "ism": 1426,
      "Ġless": 1427,
      "Ġposs": 1428,
      "Ġ15": 1429,
      "riv": 1430,
      "Ġbody": 1431,
      "Ġalleg": 1432,
      "Ġwithout": 1433,
      "ention": 1434,
      "Ġaff": 1435,
      "ague": 1436,
      "Ġtell": 1437,
      "Ġmod": 1438,
      "Ġrecent": 1439,
      "Ġfac": 1440,
      "ched": 1441,
      "Ġprog": 1442,
      "ĠOne": 1443,
      "ĠAmerican": 1444,
      "ĠYork": 1445,
      "aughter": 1446,
      "ency": 1447,
      "Ġauthor": 1448,
      "Ġmove": 1449,
      "ee": 1450,
      "'m": 1451,
      "aid": 1452,
      "ĠYou": 1453,
      "ony": 1454,
      "Ġpat": 1455,
      "ĠSouth": 1456,
      "ects": 1457,
      "Ġuntil": 1458,
      "Ġelect": 1459,
      "Ġcharg": 1460,
      "to": 1461,
      "ik": 1462,
      "ries": 1463,
      "Ġwife": 1464,
      "Ġ2012": 1465,
      "Ġcommun": 1466,
      "akes": 1467,
      "ĠBar": 1468,
      "Ġiss": 1469,
      "ĠChrist": 1470,
      "Ġsupport": 1471,
      "Ġtimes": 1472,
      "Ġstart": 1473,
      "iven": 1474,
      "Ġson": 1475,
      "ering": 1476,
      "Ġclass": 1477,
      "ober": 1478,
      "ĠBl": 1479,
      "ĠWorld": 1480,
      "ized": 1481,
      "ense": 1482,
      "Ġreturn": 1483,
      "Ġsystem": 1484,
      "Ġmanag": 1485,
      "Ġbecome": 1486,
      "Ġart": 1487,
      "ats": 1488,
      "Ġtravel": 1489,
      "ĠBritish": 1490,
      "Ġgive": 1491,
      "Ġface": 1492,
      "ĠOptions": 1493,
      "lish": 1494,
      "Ġed": 1495,
      "Ġsex": 1496,
      "be": 1497,
      "ecut": 1498,
      "ĠObama": 1499,
      "Ġwrit": 1500,
      "nes": 1501,
      "),": 1502,
      "Ġago": 1503,
      "com": 1504,
      "Ġcompany": 1505,
      "ially": 1506,
      "reen": 1507,
      "Ġoften": 1508,
      "ones": 1509,
      "Ġcomple": 1510,
      "gy": 1511,
      "oor": 1512,
      "ĠDav": 1513,
      "Ġbetter": 1514,
      "owed": 1515,
      "eng": 1516,
      "usp": 1517,
      "Ġfact": 1518,
      "Ġspok": 1519,
      "esp": 1520,
      "ĠRep": 1521,
      "ĠAust": 1522,
      "Ġve": 1523,
      "Ġstand": 1524,
      "ĠMay": 1525,
      "Ġarrest": 1526,
      "Ġhere": 1527,
      "Ġlo": 1528,
      "rent": 1529,
      "pped": 1530,
      "Ġrecord": 1531,
      "Ġkilled": 1532,
      "Ġincre": 1533,
      "ately": 1534,
      "Ġknown": 1535,
      "ued": 1536,
      "Ġdist": 1537,
      "Ġopp": 1538,
      "Ġcou": 1539,
      "Ġgame": 1540,
      "ĠEurope": 1541,
      "Ġmilit": 1542,
      "hel": 1543,
      "aining": 1544,
      "Ġinform": 1545,
      "ele": 1546,
      "Ġopen": 1547,
      "mit": 1548,
      "ying": 1549,
      "aff": 1550,
      "Ġimportant": 1551,
      "enn": 1552,
      "Ġcond": 1553,
      "ĠInd": 1554,
      "Ġcost": 1555,
      "rop": 1556,
      "Ġwon": 1557,
      "els": 1558,
      "Ġmor": 1559,
      "ane": 1560,
      "view": 1561,
      "ccess": 1562,
      "Ġdel": 1563,
      "ĠSy": 1564,
      "utes": 1565,
      "ĠQ": 1566,
      "Ġable": 1567,
      "assage": 1568,
      "ending": 1569,
      "Ġpast": 1570,
      "co": 1571,
      "ann": 1572,
      "ck": 1573,
      "Ġmust": 1574,
      "Ġhaving": 1575,
      "Ġmain": 1576,
      "Ġpresident": 1577,
      "ĠQuestion": 1578,
      "cl": 1579,
      "ĠEngland": 1580,
      "port": 1581,
      "Ġ11": 1582,
      "IS": 1583,
      "Ġmight": 1584,
      "Ġappear": 1585,
      "Ġside": 1586,
      "Ġdem": 1587,
      "--": 1588,
      "Ġdesc": 1589,
      "Ġbusiness": 1590,
      "Ġadv": 1591,
      "ising": 1592,
      "'ve": 1593,
      "Ġintern": 1594,
      "ĠTw": 1595,
      "ior": 1596,
      "hers": 1597,
      "Ġchar": 1598,
      "Ġsuff": 1599,
      "text": 1600,
      "Passage": 1601,
      "Ġ,": 1602,
      "Ġsusp": 1603,
      "Ġpolit": 1604,
      "Ġhospital": 1605,
      "Ġoper": 1606,
      "ows": 1607,
      "Ġearly": 1608,
      "Ġlove": 1609,
      "idd": 1610,
      "Ġarea": 1611,
      "ĠGer": 1612,
      "resident": 1613,
      "Ġav": 1614,
      "ĠContext": 1615,
      "Ġstarted": 1616,
      "Ġvisit": 1617,
      "Ġgener": 1618,
      "Ġseem": 1619,
      "Ġob": 1620,
      "ĠAfter": 1621,
      "Ġpower": 1622,
      "amer": 1623,
      "rug": 1624,
      "idence": 1625,
      "Ġprom": 1626,
      "Ġacross": 1627,
      "ajor": 1628,
      "urity": 1629,
      "ars": 1630,
      "Ġlive": 1631,
      "artment": 1632,
      "Ġfire": 1633,
      "iol": 1634,
      "ject": 1635,
      "here": 1636,
      "ended": 1637,
      "amed": 1638,
      "Ġbro": 1639,
      "ards": 1640,
      "Ġseason": 1641,
      "reet": 1642,
      "ĠCity": 1643,
      "Ġclub": 1644,
      "Ġalong": 1645,
      "Ġworking": 1646,
      "cess": 1647,
      "ĠSund": 1648,
      "Ġfore": 1649,
      "ĠThat": 1650,
      "Ġwanted": 1651,
      "yp": 1652,
      "Ġinvol": 1653,
      "ged": 1654,
      "Ġhalf": 1655,
      "Ġsaying": 1656,
      "Ġpos": 1657,
      "Ġhit": 1658,
      "Ġgiven": 1659,
      "fic": 1660,
      "Ġhist": 1661,
      "Ġclear": 1662,
      "ploy": 1663,
      "Ġmeet": 1664,
      "inal": 1665,
      "atic": 1666,
      "Ġeas": 1667,
      "Ġname": 1668,
      "ĠWest": 1669,
      "Ġroom": 1670,
      "ready": 1671,
      "Ġsuccess": 1672,
      "Ġrequ": 1673,
      "ĠChina": 1674,
      "Ġchang": 1675,
      "Ġbelieve": 1676,
      "Ġcer": 1677,
      "ogra": 1678,
      "Ġide": 1679,
      "ĠSunday": 1680,
      "ĠHer": 1681,
      "Ġinterest": 1682,
      "cept": 1683,
      "ians": 1684,
      "Ġdaughter": 1685,
      "ĠHar": 1686,
      "af": 1687,
      "Ġcaus": 1688,
      "Ġword": 1689,
      "atter": 1690,
      "Ġanim": 1691,
      "Ġfail": 1692,
      "ĠUK": 1693,
      "less": 1694,
      "ief": 1695,
      "ĠSo": 1696,
      "ize": 1697,
      "Ġ30": 1698,
      "Ġbegan": 1699,
      "Ġsaf": 1700,
      "Ġ199": 1701,
      "my": 1702,
      "Ġmaking": 1703,
      "AT": 1704,
      "Ġothers": 1705,
      "Ġsaw": 1706,
      "echn": 1707,
      "Ġusing": 1708,
      "Ġdeal": 1709,
      "50": 1710,
      "overed": 1711,
      "ĠPolice": 1712,
      "Ġprof": 1713,
      "Ġbecame": 1714,
      "Ġest": 1715,
      "ĠMin": 1716,
      "ĠAd": 1717,
      "une": 1718,
      "oke": 1719,
      "Ġseveral": 1720,
      "Ġkid": 1721,
      "Ġshot": 1722,
      "Ġsing": 1723,
      "most": 1724,
      "Ġalready": 1725,
      "Ġchange": 1726,
      "ĠPresident": 1727,
      "ĠUniversity": 1728,
      "Ġreve": 1729,
      "ĠStates": 1730,
      "ases": 1731,
      "ming": 1732,
      "'.": 1733,
      "ĠHis": 1734,
      "Ġlarge": 1735,
      "CNN": 1736,
      "ait": 1737,
      "eal": 1738,
      "Ġdog": 1739,
      "In": 1740,
      "Ġoutside": 1741,
      "ature": 1742,
      "ump": 1743,
      "Ġdesign": 1744,
      "ĠAustral": 1745,
      "ror": 1746,
      "Ġclose": 1747,
      "Ġstudy": 1748,
      "Ġdead": 1749,
      "Ġmembers": 1750,
      "Ġlocal": 1751,
      "ĠMonday": 1752,
      "Ġprogram": 1753,
      "band": 1754,
      "Ġmom": 1755,
      "Ġfree": 1756,
      "Ġvictim": 1757,
      "aut": 1758,
      "Ġkind": 1759,
      "ology": 1760,
      "ĠTr": 1761,
      "ĠPh": 1762,
      "ration": 1763,
      "rew": 1764,
      "ĠCol": 1765,
      "Ġjoin": 1766,
      "Ġconsid": 1767,
      "Ġey": 1768,
      "Ġmajor": 1769,
      "Ġenough": 1770,
      "Ġ16": 1771,
      "Ġtreat": 1772,
      "ection": 1773,
      "Ġhold": 1774,
      "ional": 1775,
      "Ġleast": 1776,
      "Ġtaking": 1777,
      "Ġmur": 1778,
      "Ġever": 1779,
      "aring": 1780,
      "Ġdescrib": 1781,
      "Ġconcer": 1782,
      "Ġinformation": 1783,
      "Ġform": 1784,
      "Ġsn": 1785,
      "ĠRuss": 1786,
      "Ġtoget": 1787,
      "Ġtogether": 1788,
      "Ġhot": 1789,
      "ĠNorth": 1790,
      "lier": 1791,
      "att": 1792,
      "Ġviol": 1793,
      "aign": 1794,
      "Ġstay": 1795,
      "conom": 1796,
      "Ġpartic": 1797,
      "This": 1798,
      "stand": 1799,
      "Ġwatch": 1800,
      "Ġra": 1801,
      "Ġpain": 1802,
      "Ġorgan": 1803,
      "elt": 1804,
      "ified": 1805,
      "Ġview": 1806,
      "ĠFriday": 1807,
      "Ġlost": 1808,
      "aul": 1809,
      "roll": 1810,
      "Ġmark": 1811,
      "Ġsold": 1812,
      "ĠJan": 1813,
      "way": 1814,
      "Ġfun": 1815,
      "',": 1816,
      "Ġevent": 1817,
      "ĠPro": 1818,
      "uesday": 1819,
      "aper": 1820,
      "ĠMiss": 1821,
      "Ġwhether": 1822,
      "ales": 1823,
      "ĠHowever": 1824,
      "ĠAll": 1825,
      "Ġmorning": 1826,
      "Ġshort": 1827,
      "ĠUS": 1828,
      "Ġweeks": 1829,
      "ĠTuesday": 1830,
      "Ġtre": 1831,
      "ept": 1832,
      "Ġbehind": 1833,
      "Ġel": 1834,
      "ĠEnglish": 1835,
      "Ġspokes": 1836,
      "Ġcoun": 1837,
      "Ġdrug": 1838,
      "Ġfight": 1839,
      "Ġfull": 1840,
      "ern": 1841,
      "gin": 1842,
      "ored": 1843,
      "eb": 1844,
      "erv": 1845,
      "Ġsum": 1846,
      "aun": 1847,
      "Ġofficials": 1848,
      "Ġ17": 1849,
      "Ġstri": 1850,
      "usband": 1851,
      "Ġ0": 1852,
      "Ġwhy": 1853,
      "Ġcouple": 1854,
      "Ġcurrent": 1855,
      "use": 1856,
      "Ġpress": 1857,
      "Ġstatement": 1858,
      "Ġshop": 1859,
      "ĠAb": 1860,
      "Ġamong": 1861,
      "Ġheard": 1862,
      "Ġland": 1863,
      "ai": 1864,
      "Ġage": 1865,
      "Ġcele": 1866,
      "ences": 1867,
      "ĠAfric": 1868,
      "Ġminutes": 1869,
      "Ġbab": 1870,
      "aged": 1871,
      "ĠDavid": 1872,
      "Ġhom": 1873,
      "ably": 1874,
      "Ġris": 1875,
      "Ġdoct": 1876,
      "ape": 1877,
      "Ġsugg": 1878,
      "Ġonce": 1879,
      "ĠGe": 1880,
      "iously": 1881,
      "ories": 1882,
      "Ġproduc": 1883,
      "ream": 1884,
      "Ġshows": 1885,
      "Ġlist": 1886,
      "ĠComm": 1887,
      "Ġreveal": 1888,
      "ĠWed": 1889,
      "ĠFl": 1890,
      "Ġcut": 1891,
      "ically": 1892,
      "Ġalleged": 1893,
      "ĠSatur": 1894,
      "Ġlevel": 1895,
      "Ġfront": 1896,
      "Ġmilitary": 1897,
      "ĠAm": 1898,
      "Ġcampaign": 1899,
      "Ġ14": 1900,
      "ĠWill": 1901,
      "Ġheart": 1902,
      "Ġap": 1903,
      "Ġocc": 1904,
      "Ġtechn": 1905,
      "urch": 1906,
      "ead": 1907,
      "Ġ13": 1908,
      "ĠSaturday": 1909,
      "Ġmess": 1910,
      "Ġlikely": 1911,
      "Ġeconom": 1912,
      "Ġcust": 1913,
      "head": 1914,
      "sel": 1915,
      "Ġhusband": 1916,
      "ium": 1917,
      "Ġcrit": 1918,
      "Ġspecial": 1919,
      "Ġlooking": 1920,
      "Ġtrying": 1921,
      "They": 1922,
      "Ġteac": 1923,
      "ĠGr": 1924,
      "ĠCo": 1925,
      "ĠSu": 1926,
      "Ġhuman": 1927,
      "nesday": 1928,
      "room": 1929,
      "ĠLeague": 1930,
      "ĠWednesday": 1931,
      "She": 1932,
      "Ġdoing": 1933,
      "book": 1934,
      "ĠSec": 1935,
      "aster": 1936,
      "ĠDr": 1937,
      "oon": 1938,
      "PD": 1939,
      "Ġthing": 1940,
      "ides": 1941,
      "But": 1942,
      "ĠIntern": 1943,
      "ests": 1944,
      "Ġrul": 1945,
      "inese": 1946,
      "Ġheld": 1947,
      "ĠCup": 1948,
      "uary": 1949,
      "ĠSe": 1950,
      "ush": 1951,
      "Ġsocial": 1952,
      "Ġannoun": 1953,
      "Ġbreak": 1954,
      "ffic": 1955,
      "Ġproper": 1956,
      "ators": 1957,
      "mp": 1958,
      "Ġfall": 1959,
      "though": 1960,
      "eral": 1961,
      "Ġlives": 1962,
      "right": 1963,
      "Ġhimself": 1964,
      "Ġparty": 1965,
      "let": 1966,
      "ĠJu": 1967,
      "Ġstrong": 1968,
      "ĠMrs": 1969,
      "Ġtax": 1970,
      "Ġcor": 1971,
      "Ġjud": 1972,
      "ĠBritain": 1973,
      "row": 1974,
      "ĠCent": 1975,
      "duct": 1976,
      "Ġmusic": 1977,
      "Ġwrote": 1978,
      "ron": 1979,
      "Ġphone": 1980,
      "joy": 1981,
      "Ġconv": 1982,
      "ator": 1983,
      "Ġreleased": 1984,
      "Ġgun": 1985,
      "Ġwind": 1986,
      "ech": 1987,
      "20": 1988,
      "ĠThurs": 1989,
      "ances": 1990,
      "Ġalmost": 1991,
      "Ġthreat": 1992,
      "ressed": 1993,
      "Ġincident": 1994,
      "raw": 1995,
      "Ġblack": 1996,
      "Ġgetting": 1997,
      "Ġbad": 1998,
      "ficult": 1999,
      "ĠThursday": 2000,
      "uture": 2001,
      "Ġpictured": 2002,
      "Ġprison": 2003,
      "Ġban": 2004,
      "ĠAcc": 2005,
      "ung": 2006,
      "ĠSome": 2007,
      "Ġple": 2008,
      "ĠPar": 2009,
      "ael": 2010,
      "ĠCour": 2011,
      "Ġdone": 2012,
      "There": 2013,
      "Ġarri": 2014,
      "ester": 2015,
      "Ġfur": 2016,
      "Ġwear": 2017,
      "wards": 2018,
      "ĠGerman": 2019,
      "Ġappro": 2020,
      "Ġ|": 2021,
      "Ġcountries": 2022,
      "Ġthird": 2023,
      "ĠChinese": 2024,
      "Ġpopular": 2025,
      "Ġsecurity": 2026,
      "anche": 2027,
      "ĠDec": 2028,
      "Ġcelebr": 2029,
      "Ġcomes": 2030,
      "aced": 2031,
      "Ġdifficult": 2032,
      "Ġcho": 2033,
      "Ġsomeone": 2034,
      "Ġactiv": 2035,
      "Ġstory": 2036,
      "Ġcontrol": 2037,
      "ald": 2038,
      "ĠHouse": 2039,
      "Ġpoint": 2040,
      "alif": 2041,
      "Ġcompet": 2042,
      "Ġgave": 2043,
      "ĠEd": 2044,
      "Ġlight": 2045,
      ").": 2046,
      "esc": 2047,
      "BC": 2048,
      "Ġdi": 2049,
      "Ġground": 2050,
      "Ġmedia": 2051,
      "ĠMich": 2052,
      "Ġrelations": 2053,
      "reed": 2054,
      "sw": 2055,
      "ined": 2056,
      "Wh": 2057,
      "Ġliving": 2058,
      "Ġroad": 2059,
      "Ġmean": 2060,
      ",âĢĻ": 2061,
      "Ġplayers": 2062,
      "Ġlate": 2063,
      "Ġident": 2064,
      "anger": 2065,
      "ighb": 2066,
      "aily": 2067,
      "ĠNo": 2068,
      "Ġenjoy": 2069,
      "ĠMs": 2070,
      "Ġfinal": 2071,
      "acy": 2072,
      "Ġfuture": 2073,
      "ĠGu": 2074,
      "Ġpriv": 2075,
      "of": 2076,
      "ĠJanuary": 2077,
      "leep": 2078,
      "ATED": 2079,
      "Ġdoesn": 2080,
      "sp": 2081,
      "Ġeng": 2082,
      "uge": 2083,
      "ring": 2084,
      "irth": 2085,
      "ĠUPD": 2086,
      "ĠNational": 2087,
      "ĠUPDATED": 2088,
      "que": 2089,
      "inc": 2090,
      "Ġtown": 2091,
      "ills": 2092,
      "selves": 2093,
      "Ġclaims": 2094,
      "aur": 2095,
      "Ġorder": 2096,
      "itions": 2097,
      "hern": 2098,
      "Ġequ": 2099,
      "Ġhope": 2100,
      "Ġsol": 2101,
      "ashing": 2102,
      "Ġservice": 2103,
      "ĠWar": 2104,
      "BL": 2105,
      "ĠAmerica": 2106,
      "Ġproblem": 2107,
      "aving": 2108,
      "Ġattem": 2109,
      "Ġeight": 2110,
      "Ġstru": 2111,
      "ĠTV": 2112,
      "'ll": 2113,
      "Ġcompl": 2114,
      "ler": 2115,
      "Ġspent": 2116,
      "Ġ2011": 2117,
      "Ġemer": 2118,
      "aces": 2119,
      "Ġbrother": 2120,
      "Ġleave": 2121,
      "ISH": 2122,
      "Ġearlier": 2123,
      "ey": 2124,
      "Ġarrested": 2125,
      "ĠSept": 2126,
      "Ġmurder": 2127,
      "Ġbas": 2128,
      "Ġsure": 2129,
      "30": 2130,
      "eared": 2131,
      "Ġbed": 2132,
      "UBL": 2133,
      "Ġdam": 2134,
      "Ġoffice": 2135,
      "Ġseven": 2136,
      "ISHED": 2137,
      "UBLISHED": 2138,
      "Ġquick": 2139,
      "Ġgrand": 2140,
      "go": 2141,
      "istan": 2142,
      "Ġonline": 2143,
      "Ġexpected": 2144,
      "ĠCr": 2145,
      "Ġpercent": 2146,
      "Ġdecision": 2147,
      "bed": 2148,
      "Ġpossible": 2149,
      "Ġlearn": 2150,
      "Ġfootball": 2151,
      "Ġpolic": 2152,
      "Ġspokesman": 2153,
      "aps": 2154,
      "Ġtried": 2155,
      "ĠGeor": 2156,
      "Ġtrad": 2157,
      "ĠPUBLISHED": 2158,
      "Ġtyp": 2159,
      "ĠDep": 2160,
      "Ġemploy": 2161,
      "stit": 2162,
      "Ġ25": 2163,
      "Ġshoot": 2164,
      "Ġfilm": 2165,
      "Ġexc": 2166,
      "Ġdeb": 2167,
      "Ġhistory": 2168,
      "ĠOr": 2169,
      "Ġfell": 2170,
      "Ġhappened": 2171,
      "ĠCourt": 2172,
      "Ġbring": 2173,
      "Ġquestion": 2174,
      "ox": 2175,
      "enal": 2176,
      "Ġproblems": 2177,
      "Ġstaff": 2178,
      "ches": 2179,
      "Ġpot": 2180,
      "Ġlaun": 2181,
      "eople": 2182,
      "ĠSeptember": 2183,
      "oci": 2184,
      "Ġmakes": 2185,
      "itter": 2186,
      "aly": 2187,
      "million": 2188,
      "You": 2189,
      "eter": 2190,
      "Ġprocess": 2191,
      "angu": 2192,
      "ening": 2193,
      "mber": 2194,
      "inking": 2195,
      "not": 2196,
      "Ġmeans": 2197,
      "Ġofficers": 2198,
      "Ġevidence": 2199,
      "ective": 2200,
      "Ġdue": 2201,
      "rench": 2202,
      "ĠAccording": 2203,
      "ole": 2204,
      "iddle": 2205,
      "arm": 2206,
      "ford": 2207,
      "idge": 2208,
      "ĠMy": 2209,
      "?\"": 2210,
      "ĠOct": 2211,
      "Ġgoal": 2212,
      "ocr": 2213,
      "ults": 2214,
      "Ġlooked": 2215,
      "Ġresult": 2216,
      "Ġinside": 2217,
      "ulation": 2218,
      "par": 2219,
      "Ġwithin": 2220,
      "ission": 2221,
      "If": 2222,
      "ought": 2223,
      "Ġcolle": 2224,
      "Ġred": 2225,
      "ption": 2226,
      "itive": 2227,
      "ev": 2228,
      "ran": 2229,
      "Ġhig": 2230,
      "Ġcollect": 2231,
      "ortun": 2232,
      "Ġfamil": 2233,
      "Ġline": 2234,
      "Ġneighb": 2235,
      "Ġval": 2236,
      "ilar": 2237,
      "urg": 2238,
      "Ġball": 2239,
      "Ġclaimed": 2240,
      "ĠAug": 2241,
      "ĠMan": 2242,
      "ovember": 2243,
      "Ġhop": 2244,
      "iety": 2245,
      "Ġbirth": 2246,
      "Ġnational": 2247,
      "ality": 2248,
      "ĠMarch": 2249,
      "Ġcourse": 2250,
      "ĠFace": 2251,
      "ef": 2252,
      "Ġinternational": 2253,
      "Ġled": 2254,
      "Ġ50": 2255,
      "Ġunderstand": 2256,
      "cil": 2257,
      "wh": 2258,
      "ĠJune": 2259,
      "gr": 2260,
      "Ġreceived": 2261,
      "Ġimpro": 2262,
      "ograph": 2263,
      "Ġsite": 2264,
      "Ġeduc": 2265,
      "sy": 2266,
      "Ġinterview": 2267,
      "Ġadmit": 2268,
      "Ġbaby": 2269,
      "ĠDecember": 2270,
      "Ġanything": 2271,
      "cle": 2272,
      "ĠCan": 2273,
      "ĠNovember": 2274,
      "anchester": 2275,
      "Ġpresent": 2276,
      "iron": 2277,
      "Ġstore": 2278,
      "Ġbuilding": 2279,
      "Ġwait": 2280,
      "Ġtot": 2281,
      "Ġhappy": 2282,
      "ots": 2283,
      "ĠSyri": 2284,
      "ĠOctober": 2285,
      "ĠScroll": 2286,
      "Ġsoon": 2287,
      "Ġteen": 2288,
      "ĠAugust": 2289,
      "ĠEl": 2290,
      "Ġpolitical": 2291,
      "Ġtem": 2292,
      "Ġrevealed": 2293,
      "Ġhost": 2294,
      "Ġmag": 2295,
      "ĠRepublic": 2296,
      "Ġbuy": 2297,
      "Ġcommit": 2298,
      "Ġsummer": 2299,
      "for": 2300,
      "Ġturned": 2301,
      "Ġwebs": 2302,
      "ample": 2303,
      "ĠPark": 2304,
      "Ġmid": 2305,
      "Ġlab": 2306,
      "Ġant": 2307,
      "esterday": 2308,
      "Ġinvestigation": 2309,
      "ĠFacebook": 2310,
      "Ġplayed": 2311,
      "Ġexperience": 2312,
      "Ġrepl": 2313,
      "Ġhol": 2314,
      "ensive": 2315,
      "Ġ100": 2316,
      "Ġ24": 2317,
      "ĠSm": 2318,
      "Ġauthorities": 2319,
      "Ġbene": 2320,
      "Ġcomplete": 2321,
      "ĠSw": 2322,
      "Ġbar": 2323,
      "vices": 2324,
      "yle": 2325,
      "pril": 2326,
      "aught": 2327,
      "ients": 2328,
      "omb": 2329,
      "rought": 2330,
      "Ġidea": 2331,
      "Ġblood": 2332,
      "Ġfav": 2333,
      "raz": 2334,
      "omp": 2335,
      "Ġ198": 2336,
      "10": 2337,
      "ounds": 2338,
      "Ġcertain": 2339,
      "ĠMail": 2340,
      "Ġfelt": 2341,
      "Ġ2010": 2342,
      "ĠJack": 2343,
      "Ġdecided": 2344,
      "ĠWith": 2345,
      "ination": 2346,
      "Ġyet": 2347,
      "ĠDem": 2348,
      "Ġenc": 2349,
      "Ġresearch": 2350,
      "ĠWilliam": 2351,
      "ĠAng": 2352,
      "Ġfurther": 2353,
      "Ġcomput": 2354,
      "ached": 2355,
      "Ġfig": 2356,
      "Ġbelieved": 2357,
      "Ġwrong": 2358,
      "Ġtour": 2359,
      "ĠApril": 2360,
      "ĠFrench": 2361,
      "Ġscient": 2362,
      "Ġworked": 2363,
      "ĠJuly": 2364,
      "ĠPl": 2365,
      "Ġmatch": 2366,
      "Ġknew": 2367,
      "Ġmot": 2368,
      "Ġord": 2369,
      "Ġsuper": 2370,
      "Ġrelationship": 2371,
      "Ġtele": 2372,
      "Ġchall": 2373,
      "Ġcult": 2374,
      "Ġden": 2375,
      "Ġjour": 2376,
      "den": 2377,
      "Ġlow": 2378,
      "Ġnothing": 2379,
      "Ġsell": 2380,
      "iec": 2381,
      "reme": 2382,
      "ĠEar": 2383,
      "ĠCount": 2384,
      "read": 2385,
      "Ġcustom": 2386,
      "ails": 2387,
      "Ġinvolved": 2388,
      "Ġplaying": 2389,
      "ilt": 2390,
      "Ġlangu": 2391,
      "ĠPal": 2392,
      "icle": 2393,
      "Ġprob": 2394,
      "Ġfund": 2395,
      "ĠManchester": 2396,
      "Ġsuggest": 2397,
      "Ġstudent": 2398,
      "ĠState": 2399,
      "ker": 2400,
      "Ġkids": 2401,
      "Ġdou": 2402,
      "Ġstep": 2403,
      "Ġcommunity": 2404,
      "ĠMichael": 2405,
      "Ġlim": 2406,
      "ĠEx": 2407,
      "Ġcarry": 2408,
      "Ġrespons": 2409,
      "ĠAss": 2410,
      "pted": 2411,
      "ana": 2412,
      "Ġansw": 2413,
      "Ġprofess": 2414,
      "uation": 2415,
      "Ġwords": 2416,
      "lam": 2417,
      "ĠTo": 2418,
      "lo": 2419,
      "Ġhands": 2420,
      "ns": 2421,
      "Ġaction": 2422,
      "Ġaccused": 2423,
      "ĠChar": 2424,
      "ips": 2425,
      "Ġmarket": 2426,
      "Ġtit": 2427,
      "itness": 2428,
      "Ġbeaut": 2429,
      "ivil": 2430,
      "Ġ40": 2431,
      "Ġ21": 2432,
      "'d": 2433,
      "Ġnet": 2434,
      "Ġsleep": 2435,
      "Ġthemselves": 2436,
      "Ġgames": 2437,
      "ipp": 2438,
      "ÂłÂł": 2439,
      "Ġsqu": 2440,
      "friend": 2441,
      "iding": 2442,
      "Ġlarg": 2443,
      "ĠSer": 2444,
      "por": 2445,
      "Ġran": 2446,
      "Ġwhite": 2447,
      "Ġmiles": 2448,
      "Ġsour": 2449,
      "Ġill": 2450,
      "Ġorig": 2451,
      "Ġthous": 2452,
      "Ġmoment": 2453,
      "Ġfans": 2454,
      "lex": 2455,
      "left": 2456,
      "time": 2457,
      "Ġdescribed": 2458,
      "Ġspeak": 2459,
      "Ġtraining": 2460,
      "iber": 2461,
      "apan": 2462,
      "Ġwasn": 2463,
      "Ġrisk": 2464,
      "ĠRo": 2465,
      "Ġinclude": 2466,
      "ĠSte": 2467,
      "ither": 2468,
      "str": 2469,
      "attle": 2470,
      "iod": 2471,
      "Ġdesp": 2472,
      "ety": 2473,
      "sea": 2474,
      "Ġneeded": 2475,
      "ij": 2476,
      "Ġshowed": 2477,
      "Ġcharges": 2478,
      "ential": 2479,
      "Ġexample": 2480,
      "Ġgrow": 2481,
      "ederal": 2482,
      "ĠJust": 2483,
      "Ġdest": 2484,
      "Ġtalk": 2485,
      "aliforn": 2486,
      "Ġmanager": 2487,
      "Ġpros": 2488,
      "Ġcoming": 2489,
      "ift": 2490,
      "Ġbrought": 2491,
      "uted": 2492,
      "Ġeverything": 2493,
      "ampions": 2494,
      "int": 2495,
      "Ġbit": 2496,
      "Ġtrial": 2497,
      "Ġtrip": 2498,
      "âĢĻ.": 2499,
      "Ġrole": 2500,
      "Ġri": 2501,
      "Ġarg": 2502,
      "Ġsimilar": 2503,
      "oman": 2504,
      "Ġeat": 2505,
      "Ġvol": 2506,
      "Ġrad": 2507,
      "Ġleaders": 2508,
      "Ġconfir": 2509,
      "ped": 2510,
      "Ġtext": 2511,
      "Ġbegin": 2512,
      "Ġtarg": 2513,
      "undred": 2514,
      "ĠWhile": 2515,
      "ocum": 2516,
      "Ġanimals": 2517,
      "Ġcause": 2518,
      "ĠPaul": 2519,
      "Ġspace": 2520,
      "ades": 2521,
      "Ġcaused": 2522,
      "Ġjail": 2523,
      "ĠWhite": 2524,
      "ĠJames": 2525,
      "me": 2526,
      "Ġvar": 2527,
      "Ġterror": 2528,
      "mas": 2529,
      "acter": 2530,
      "Ġpract": 2531,
      "Ġparticular": 2532,
      "Ġnation": 2533,
      "Ġofficer": 2534,
      "ĠGl": 2535,
      "ashington": 2536,
      "ĠCaliforn": 2537,
      "Ġnearly": 2538,
      "Ġsearch": 2539,
      "eth": 2540,
      "earc": 2541,
      "itional": 2542,
      "ata": 2543,
      "ĠEm": 2544,
      "oring": 2545,
      "Ġcharged": 2546,
      "Ġdeter": 2547,
      "ĠEuropean": 2548,
      "Ġhor": 2549,
      "ĠJapan": 2550,
      "ĠFeb": 2551,
      "Ġ[": 2552,
      "avy": 2553,
      "Ġnec": 2554,
      "work": 2555,
      "ault": 2556,
      "ĠAustralia": 2557,
      "Ġpassage": 2558,
      "ĠHam": 2559,
      "Ġinfl": 2560,
      "enced": 2561,
      "Ġi": 2562,
      "erc": 2563,
      "Ġseries": 2564,
      "Ġgirls": 2565,
      "Ġdise": 2566,
      "Ġsurv": 2567,
      "isted": 2568,
      "medi": 2569,
      "Ġimm": 2570,
      "Ġdanger": 2571,
      "ĠKore": 2572,
      "duce": 2573,
      "erry": 2574,
      "Ġ2014": 2575,
      "Ġfear": 2576,
      "Ġsat": 2577,
      "ese": 2578,
      "Ġdro": 2579,
      "Ġlegal": 2580,
      "Ġreason": 2581,
      "Ġmoved": 2582,
      "ruary": 2583,
      "Ġfamilies": 2584,
      "Ġappeared": 2585,
      "Ġforward": 2586,
      "Ġyesterday": 2587,
      "ĠMe": 2588,
      "Ġmedical": 2589,
      "Ġwebsite": 2590,
      "Ġcontrib": 2591,
      "icted": 2592,
      "ĠKing": 2593,
      "asing": 2594,
      "Ġcontinue": 2595,
      "ĠCalifornia": 2596,
      "Ġcreat": 2597,
      "Ġsurpr": 2598,
      "unt": 2599,
      "Ġdirector": 2600,
      "Ġcover": 2601,
      "fully": 2602,
      "Ġrepres": 2603,
      "Ġinsp": 2604,
      "ze": 2605,
      "Ġcancer": 2606,
      "ĠApp": 2607,
      "raq": 2608,
      "Ġscene": 2609,
      "rict": 2610,
      "Ġcommon": 2611,
      "ĠSam": 2612,
      "Ġchance": 2613,
      "ĠFebruary": 2614,
      "ĠAir": 2615,
      "viron": 2616,
      "nal": 2617,
      "ops": 2618,
      "Ġself": 2619,
      "Ġeveryone": 2620,
      "ĠX": 2621,
      "na": 2622,
      "Ġnamed": 2623,
      "Ġperiod": 2624,
      "Ġleader": 2625,
      "ners": 2626,
      "osing": 2627,
      "Ġdespite": 2628,
      "Ġahead": 2629,
      "Ġpubl": 2630,
      "Ġhuge": 2631,
      "Ġindust": 2632,
      "Ġserious": 2633,
      "Ġareas": 2634,
      "Ġsun": 2635,
      "pool": 2636,
      "Ġcomment": 2637,
      "ĠNow": 2638,
      "When": 2639,
      "Ġplayer": 2640,
      "Ġspot": 2641,
      "Ġfamous": 2642,
      "ĠDepartment": 2643,
      "Ġrecently": 2644,
      "ĠMart": 2645,
      "Ġpaid": 2646,
      "Ġwants": 2647,
      "uit": 2648,
      "Ġdisapp": 2649,
      "gency": 2650,
      "ĠWhich": 2651,
      "Ġrights": 2652,
      "Ġprop": 2653,
      "Ġphys": 2654,
      "Ġcapt": 2655,
      "Ġdoor": 2656,
      "ĠIraq": 2657,
      "orney": 2658,
      "Ġwhose": 2659,
      "Ġ22": 2660,
      "Ġreports": 2661,
      "ently": 2662,
      "Ġfoc": 2663,
      "Ġcamer": 2664,
      "Ġlonger": 2665,
      "ival": 2666,
      "Ġpersonal": 2667,
      "uff": 2668,
      "ico": 2669,
      "Ġrather": 2670,
      "Ġconn": 2671,
      "Ġplans": 2672,
      "Ġmass": 2673,
      "raft": 2674,
      "irc": 2675,
      "Ġcouldn": 2676,
      "Ġveh": 2677,
      "Ġspend": 2678,
      "Ġaccident": 2679,
      "ĠMinister": 2680,
      "retary": 2681,
      "ental": 2682,
      "Ġbenef": 2683,
      "Ġer": 2684,
      "Ġdocum": 2685,
      "Ġbased": 2686,
      "Ġaut": 2687,
      "iers": 2688,
      "hood": 2689,
      "sc": 2690,
      "Ġmeas": 2691,
      "Ġneeds": 2692,
      "ĠNe": 2693,
      "kn": 2694,
      "Ġannounced": 2695,
      "ivid": 2696,
      "Ġprep": 2697,
      "verage": 2698,
      "ray": 2699,
      "Ġpicture": 2700,
      "Ġfeat": 2701,
      "Ġmind": 2702,
      "ĠChristmas": 2703,
      "ergy": 2704,
      "ĠFrance": 2705,
      "ĠSchool": 2706,
      "ery": 2707,
      "Ġtotal": 2708,
      "Ġgroups": 2709,
      "Ġavail": 2710,
      "Ġwhole": 2711,
      "Ġcareer": 2712,
      "ĠRoy": 2713,
      "Ġforced": 2714,
      "ping": 2715,
      "Ġtreatment": 2716,
      "Ġvot": 2717,
      "uel": 2718,
      "oid": 2719,
      "ĠCounty": 2720,
      "ĠEast": 2721,
      "uries": 2722,
      "Ġhelped": 2723,
      "Ġchief": 2724,
      "ĠNews": 2725,
      "Ġremember": 2726,
      "Ġ2009": 2727,
      "Ġten": 2728,
      "Ġbur": 2729,
      "vironment": 2730,
      "Ġ197": 2731,
      "ĠMor": 2732,
      "aud": 2733,
      "ĠThen": 2734,
      "Ġimmedi": 2735,
      "ĠTwitter": 2736,
      "Ġcal": 2737,
      "ogn": 2738,
      "ference": 2739,
      "Ġactually": 2740,
      "ĠSen": 2741,
      "ĠWashington": 2742,
      "Ġadmitted": 2743,
      "Ġdeep": 2744,
      "Ġclot": 2745,
      "Ġcell": 2746,
      "Ġborn": 2747,
      "ented": 2748,
      "Ġrunning": 2749,
      "rael": 2750,
      "ino": 2751,
      "ictured": 2752,
      "lying": 2753,
      "Ġquickly": 2754,
      "Ġpair": 2755,
      "ĠMad": 2756,
      "Ġpri": 2757,
      "ĠDay": 2758,
      "Ġtrain": 2759,
      "order": 2760,
      "Ġsen": 2761,
      "ocked": 2762,
      "ĠMo": 2763,
      "orman": 2764,
      "Ġdiv": 2765,
      "Ġresident": 2766,
      "Ġexam": 2767,
      "Ġexecut": 2768,
      "Ġmov": 2769,
      "ky": 2770,
      "Ġprivate": 2771,
      "ĠĠĠĠĠĠĠĠ": 2772,
      "Ġsafe": 2773,
      "Ġissue": 2774,
      "Ġcivil": 2775,
      "ĠMed": 2776,
      "**": 2777,
      "Ġclim": 2778,
      "Ġstrugg": 2779,
      "Ġlat": 2780,
      "Ġthousands": 2781,
      "Ġweekend": 2782,
      "yn": 2783,
      "Ġaccess": 2784,
      "ract": 2785,
      "Ġdiscovered": 2786,
      "Ġdecl": 2787,
      "Ġeyes": 2788,
      "aine": 2789,
      "Ġcondition": 2790,
      "off": 2791,
      "like": 2792,
      "Ġbox": 2793,
      "ises": 2794,
      "Ġforces": 2795,
      "Ġmatter": 2796,
      "ĠBy": 2797,
      "oes": 2798,
      "Ġworks": 2799,
      "...": 2800,
      "owers": 2801,
      "irt": 2802,
      "Ġdefend": 2803,
      "ĠMany": 2804,
      "ny": 2805,
      "Ġteacher": 2806,
      "Ġpiec": 2807,
      "Ġhowever": 2808,
      "Ġhon": 2809,
      "Ġallowed": 2810,
      "lim": 2811,
      "ĠAmericans": 2812,
      "ona": 2813,
      "ĠMil": 2814,
      "Ġ23": 2815,
      "earchers": 2816,
      "Ġhundred": 2817,
      "Ġexpect": 2818,
      "Ġwalk": 2819,
      "Ġschools": 2820,
      "ibility": 2821,
      "Ġanyone": 2822,
      "Ġcases": 2823,
      "ĠMus": 2824,
      "form": 2825,
      "bo": 2826,
      "aded": 2827,
      "Ġcannot": 2828,
      "Ġbrain": 2829,
      "ication": 2830,
      "Ġprovide": 2831,
      "ilty": 2832,
      "Ġworkers": 2833,
      "Ġtakes": 2834,
      "ization": 2835,
      "Ġavailable": 2836,
      "Ġz": 2837,
      "ĠAfrica": 2838,
      "ĠHol": 2839,
      "Ġprobably": 2840,
      "iting": 2841,
      "wood": 2842,
      "Ġlanguage": 2843,
      "Ġpoor": 2844,
      "ĠRober": 2845,
      "Ġsingle": 2846,
      "Ġcoll": 2847,
      "Ġneg": 2848,
      "Ġesc": 2849,
      "ĠQue": 2850,
      "Ġbeat": 2851,
      "Ġtrack": 2852,
      "Ġtrue": 2853,
      "Ġforce": 2854,
      "aves": 2855,
      "ĠPhil": 2856,
      "ert": 2857,
      "Ġmember": 2858,
      "Ġhur": 2859,
      "Ġperform": 2860,
      "Ġcross": 2861,
      "Ġreach": 2862,
      "60": 2863,
      "Ġenergy": 2864,
      "vision": 2865,
      "ston": 2866,
      "On": 2867,
      "iverpool": 2868,
      "ural": 2869,
      "ida": 2870,
      "isc": 2871,
      "ĠTe": 2872,
      "Ġcompan": 2873,
      "irst": 2874,
      "minist": 2875,
      "Ġvictims": 2876,
      "ĠIsrael": 2877,
      "Ġarrived": 2878,
      "Ġ2008": 2879,
      "Ġaverage": 2880,
      "ara": 2881,
      "ĠRich": 2882,
      "Ġinit": 2883,
      "\".": 2884,
      "ĠMark": 2885,
      "Ġnine": 2886,
      "Ġfield": 2887,
      "iful": 2888,
      "ĠGeorge": 2889,
      "lymp": 2890,
      "Ġrace": 2891,
      "Ġaccount": 2892,
      "Ġjudge": 2893,
      "Ġtro": 2894,
      "field": 2895,
      "Ġstreet": 2896,
      "estern": 2897,
      "ĠChel": 2898,
      "ĠRes": 2899,
      "epend": 2900,
      "Ġlatest": 2901,
      "Ġfailed": 2902,
      "Ġbecom": 2903,
      "Ġstation": 2904,
      "Ġsuffered": 2905,
      "Ġwat": 2906,
      "Ġhear": 2907,
      "cast": 2908,
      "ecially": 2909,
      "Ġusually": 2910,
      "Ġconst": 2911,
      "ett": 2912,
      "Ġeducation": 2913,
      "Ġappl": 2914,
      "Ġboard": 2915,
      "reg": 2916,
      "Ġquite": 2917,
      "itch": 2918,
      "ma": 2919,
      "Ġremains": 2920,
      "lin": 2921,
      "Ġprotect": 2922,
      "Ġattention": 2923,
      "ĠDaily": 2924,
      "Ġkept": 2925,
      "Ġguilty": 2926,
      "Ġsafety": 2927,
      "ĠAngel": 2928,
      "Ġele": 2929,
      "ĠLast": 2930,
      "Ġste": 2931,
      "Ġindivid": 2932,
      "Ġsituation": 2933,
      "Ġdiscuss": 2934,
      "Ġbag": 2935,
      "Ġmeeting": 2936,
      "Ġmarried": 2937,
      "Ġdriver": 2938,
      "ĠOlymp": 2939,
      "cel": 2940,
      "ĠNot": 2941,
      "ĠDemocr": 2942,
      "Ġoffer": 2943,
      "Ġfem": 2944,
      "Ġbillion": 2945,
      "Ġforeign": 2946,
      "ghan": 2947,
      "Ġtarget": 2948,
      "Ġbehav": 2949,
      "ĠPrem": 2950,
      "Ġdriving": 2951,
      "Ġhotel": 2952,
      "ĠAlex": 2953,
      "Ġworth": 2954,
      "Ġfeet": 2955,
      "Ġreturned": 2956,
      "owd": 2957,
      "Ġplane": 2958,
      "ken": 2959,
      "Ġcurrently": 2960,
      "Ġbooks": 2961,
      "Ġnorm": 2962,
      "Ġnewsp": 2963,
      "Ġesp": 2964,
      "Ġfish": 2965,
      "Ġsal": 2966,
      "Ġflight": 2967,
      "ĠPeople": 2968,
      "Ġround": 2969,
      "Ġnon": 2970,
      "atural": 2971,
      "Ġtechnology": 2972,
      "Ġgone": 2973,
      "Ġsister": 2974,
      "Ġleaving": 2975,
      "Ġlooks": 2976,
      "inks": 2977,
      "Ġkey": 2978,
      "ĠLab": 2979,
      "ĠBrown": 2980,
      "Ġcritic": 2981,
      "Ġopportun": 2982,
      "Ġclean": 2983,
      "Ġcomputer": 2984,
      "ĠSch": 2985,
      "Ġcentury": 2986,
      "Ġcreated": 2987,
      "Ġmessage": 2988,
      "Ġhearing": 2989,
      "Ġproperty": 2990,
      "Ġallegedly": 2991,
      "Ġsexual": 2992,
      "Ġinstead": 2993,
      "11": 2994,
      "ĠDan": 2995,
      "Ġfederal": 2996,
      "Ġcapital": 2997,
      "Ġhous": 2998,
      "Ġservices": 2999,
      "Ġrestaur": 3000,
      "ĠIslam": 3001,
      "ask": 3002,
      "Ġtitle": 3003,
      "ĠBec": 3004,
      "Ġtrou": 3005,
      "Ġpoll": 3006,
      "Ġweight": 3007,
      "Ġthr": 3008,
      "Ġlif": 3009,
      "ĠMex": 3010,
      "ĠPat": 3011,
      "Ġbuilt": 3012,
      "Ġcand": 3013,
      "mar": 3014,
      "atives": 3015,
      "back": 3016,
      "Ġhair": 3017,
      "ding": 3018,
      "estions": 3019,
      "Ġlawy": 3020,
      "Ġposition": 3021,
      "ĠLiverpool": 3022,
      "Ġdisease": 3023,
      "ĠRob": 3024,
      "Ġrob": 3025,
      "Ġloss": 3026,
      "oph": 3027,
      "Ġask": 3028,
      "Ġcrim": 3029,
      "oud": 3030,
      "pictured": 3031,
      "Ġpatients": 3032,
      "Ġrespond": 3033,
      "Ġmissing": 3034,
      "Ġviolence": 3035,
      "ĠCamer": 3036,
      "ruct": 3037,
      "Ġpoints": 3038,
      "ude": 3039,
      "Ġpressure": 3040,
      "acted": 3041,
      "Ġglob": 3042,
      "Ġcharge": 3043,
      "umb": 3044,
      "ĠThese": 3045,
      "body": 3046,
      "ĠDo": 3047,
      "ply": 3048,
      "Ġletter": 3049,
      "Ġpack": 3050,
      "Ġsepar": 3051,
      "Ġlaws": 3052,
      "vert": 3053,
      "Ġlived": 3054,
      "Ġdin": 3055,
      "Ġattacks": 3056,
      "omin": 3057,
      "Ġwond": 3058,
      "Ġposted": 3059,
      "lands": 3060,
      "Ġmat": 3061,
      "ĠSmith": 3062,
      "Ġweap": 3063,
      "Ġsuppor": 3064,
      "Ġgoes": 3065,
      "ĠInternational": 3066,
      "Ġ27": 3067,
      "gest": 3068,
      "Ġabove": 3069,
      "Ġcars": 3070,
      "Ġshare": 3071,
      "Ġenvironment": 3072,
      "ĠAfghan": 3073,
      "illed": 3074,
      "key": 3075,
      "ĠChelsea": 3076,
      "Ġ...": 3077,
      "vey": 3078,
      "Ġdress": 3079,
      "unch": 3080,
      "Ġ26": 3081,
      "ĠSan": 3082,
      "Ġespecially": 3083,
      "ĠMal": 3084,
      "Ġencour": 3085,
      "Ġpred": 3086,
      "riage": 3087,
      "Ġcomb": 3088,
      "ĠIran": 3089,
      "Ġpictures": 3090,
      "hest": 3091,
      "ĠCor": 3092,
      "Ġcirc": 3093,
      "ule": 3094,
      "Ġabs": 3095,
      "mon": 3096,
      "Ġprice": 3097,
      "Ġdoctor": 3098,
      "Ġinflu": 3099,
      "ĠDon": 3100,
      "de": 3101,
      "Ġextra": 3102,
      "Ġdraw": 3103,
      "Ġtable": 3104,
      "urb": 3105,
      "ada": 3106,
      "Ġfat": 3107,
      "Ġpopulation": 3108,
      "ĠPremier": 3109,
      "Ġallow": 3110,
      "Ġstates": 3111,
      "Ġ28": 3112,
      "Ġpolicy": 3113,
      "Ġfinanc": 3114,
      "Ġgen": 3115,
      "Ġvill": 3116,
      "fort": 3117,
      "Ġsil": 3118,
      "Ġincluded": 3119,
      "uty": 3120,
      "Ġmob": 3121,
      "Ġcompanies": 3122,
      "Ġcontinued": 3123,
      "ours": 3124,
      "ression": 3125,
      "ager": 3126,
      "iff": 3127,
      "ĠBen": 3128,
      "icked": 3129,
      "ĠFlor": 3130,
      "ique": 3131,
      "Ġdoctors": 3132,
      "Ġrecogn": 3133,
      "Ġbank": 3134,
      "Ġincrease": 3135,
      "Ġpaper": 3136,
      "Ġelse": 3137,
      "ĠEn": 3138,
      "iant": 3139,
      "Ġhomes": 3140,
      "iled": 3141,
      "Ġisn": 3142,
      "chie": 3143,
      "Ġchanged": 3144,
      "St": 3145,
      "ĠâĢĶ": 3146,
      "Ġren": 3147,
      "Ġleading": 3148,
      "Ġnorth": 3149,
      "Ġmater": 3150,
      "Ch": 3151,
      "Ġweather": 3152,
      "Ġways": 3153,
      "Ġperforman": 3154,
      "12": 3155,
      "aker": 3156,
      "ĠBro": 3157,
      "Ġkilling": 3158,
      "Ġaccept": 3159,
      "Ġparts": 3160,
      "ession": 3161,
      "ĠHigh": 3162,
      "Ġang": 3163,
      "Ġalone": 3164,
      "Ġrock": 3165,
      "Ġquestions": 3166,
      "40": 3167,
      "Ġcaught": 3168,
      "itor": 3169,
      "Ġfast": 3170,
      "eds": 3171,
      "Ġcrime": 3172,
      "Ġdata": 3173,
      "Ġdev": 3174,
      "Ġ60": 3175,
      "Ġcard": 3176,
      "Ġregion": 3177,
      "ĠMcC": 3178,
      "ek": 3179,
      "Ġbill": 3180,
      "Ġmodel": 3181,
      "duction": 3182,
      "Ġeasy": 3183,
      "Ġchair": 3184,
      "han": 3185,
      "ĠSyria": 3186,
      "Ġbeautiful": 3187,
      "inary": 3188,
      "ĠWil": 3189,
      "Ġrelease": 3190,
      "ificant": 3191,
      "Ġgeneral": 3192,
      "Ġregular": 3193,
      "roy": 3194,
      "Ġbiggest": 3195,
      "19": 3196,
      "Ġgiving": 3197,
      "ĠStreet": 3198,
      "Ġsouth": 3199,
      "ĠRussia": 3200,
      "Ġcollege": 3201,
      "Ġemb": 3202,
      "ĠMore": 3203,
      "Ġalthough": 3204,
      "pro": 3205,
      "Ġremain": 3206,
      "Ġeither": 3207,
      "Ġcreate": 3208,
      "hol": 3209,
      "Ġissues": 3210,
      "Ġcalls": 3211,
      "Ġcharacter": 3212,
      "ĠLu": 3213,
      "ica": 3214,
      "Ġconsidered": 3215,
      "razil": 3216,
      "Ġpur": 3217,
      "Ġpo": 3218,
      "overnment": 3219,
      "oint": 3220,
      "icated": 3221,
      "Ġrefer": 3222,
      "oe": 3223,
      "ashion": 3224,
      "ashed": 3225,
      "Ġentire": 3226,
      "Ġshooting": 3227,
      "Ġgrowing": 3228,
      "Ġmist": 3229,
      "alled": 3230,
      "ushed": 3231,
      "Ġdream": 3232,
      "Ġlargest": 3233,
      "My": 3234,
      "Ġcrowd": 3235,
      "ĠTwo": 3236,
      "Ġchanges": 3237,
      "Ġamount": 3238,
      "arr": 3239,
      "bit": 3240,
      "Ġcarried": 3241,
      "Ġseems": 3242,
      "Ġwide": 3243,
      "Ġmult": 3244,
      "15": 3245,
      "Ġstopped": 3246,
      "Ġeye": 3247,
      "Ġrac": 3248,
      "ĠGermany": 3249,
      "Ġimprove": 3250,
      "ires": 3251,
      "Ġcold": 3252,
      "Ġimage": 3253,
      "ĠBBC": 3254,
      "Ġcat": 3255,
      "Ġopened": 3256,
      "Ġcomments": 3257,
      "ĠRoyal": 3258,
      "Ġenter": 3259,
      "ges": 3260,
      "Ġbird": 3261,
      "Ġwearing": 3262,
      "Ġpassed": 3263,
      "iction": 3264,
      "Ġpublished": 3265,
      "ĠFlorida": 3266,
      "Ġphoto": 3267,
      "Ġproject": 3268,
      "che": 3269,
      "Ġinjuries": 3270,
      "ĠLou": 3271,
      "Ġimages": 3272,
      "ĠCameron": 3273,
      "Ġintro": 3274,
      "Ġgold": 3275,
      "Ġresults": 3276,
      "asons": 3277,
      "Ġfinally": 3278,
      "Ġholiday": 3279,
      "Ġens": 3280,
      "ĠCong": 3281,
      "Ġassist": 3282,
      "Ġscientists": 3283,
      "EO": 3284,
      "ĠSim": 3285,
      "rey": 3286,
      "Ġdrugs": 3287,
      "play": 3288,
      "Ġport": 3289,
      "Ġowner": 3290,
      "bol": 3291,
      "ĠBer": 3292,
      "Ġhigher": 3293,
      "Ġattempt": 3294,
      "ify": 3295,
      "Ġconsum": 3296,
      "Ġachie": 3297,
      "olution": 3298,
      "Ġevening": 3299,
      "Ġevents": 3300,
      "Ġsenior": 3301,
      "ees": 3302,
      "Ġfirm": 3303,
      "ĠTom": 3304,
      "Ġplaces": 3305,
      "Ġboss": 3306,
      "Ġdoll": 3307,
      "Ġinjured": 3308,
      "ĠBlack": 3309,
      "amb": 3310,
      "Ġestim": 3311,
      "ĠMur": 3312,
      "agn": 3313,
      "ability": 3314,
      "Ġsea": 3315,
      "urning": 3316,
      "rid": 3317,
      "Ġdemand": 3318,
      "Ġtemper": 3319,
      "aging": 3320,
      "Ġfollowed": 3321,
      "Ġvo": 3322,
      "ĠBrazil": 3323,
      "onse": 3324,
      "Ġtowards": 3325,
      "Ġpark": 3326,
      "men": 3327,
      "Ġmiddle": 3328,
      "Ġsend": 3329,
      "And": 3330,
      "Ġstage": 3331,
      "Ġsometimes": 3332,
      "Ġemot": 3333,
      "ĠPer": 3334,
      "Ġprosecut": 3335,
      "orthern": 3336,
      "Ġstorm": 3337,
      "Ġhappen": 3338,
      "astic": 3339,
      "Ġindustry": 3340,
      "Ġfloor": 3341,
      "arent": 3342,
      "ground": 3343,
      "tee": 3344,
      "ĠRussian": 3345,
      "Ġsimply": 3346,
      "What": 3347,
      "Ġaud": 3348,
      "rap": 3349,
      "ites": 3350,
      "Ġgrad": 3351,
      "Ġattorney": 3352,
      "As": 3353,
      "Ġsense": 3354,
      "Ġconfirmed": 3355,
      "Ġtelevision": 3356,
      "ris": 3357,
      "Ġwitness": 3358,
      "ĠOff": 3359,
      "500": 3360,
      "oul": 3361,
      "Ġabuse": 3362,
      "ĠChampions": 3363,
      "Ġeffect": 3364,
      "Ġextreme": 3365,
      "ille": 3366,
      "Ġnatural": 3367,
      "oday": 3368,
      "Ġconsider": 3369,
      "Ġsnow": 3370,
      "ĠCoun": 3371,
      "Ġexperi": 3372,
      "Ġusers": 3373,
      "ĠVict": 3374,
      "ging": 3375,
      "Ġdrive": 3376,
      "emy": 3377,
      "ĠRed": 3378,
      "Ġphotos": 3379,
      "ode": 3380,
      "Ġconduct": 3381,
      "Ġsource": 3382,
      "Ġeconomic": 3383,
      "ĠMP": 3384,
      "Ġanti": 3385,
      "Ġjump": 3386,
      "ĠIndia": 3387,
      "ĠHospital": 3388,
      "hire": 3389,
      "engers": 3390,
      "Ġreb": 3391,
      "Ġfit": 3392,
      "duced": 3393,
      "Ġbought": 3394,
      "Ġcontact": 3395,
      "ĠWal": 3396,
      "Ġsports": 3397,
      "Ġcred": 3398,
      "Ġboys": 3399,
      "Ġwild": 3400,
      "ĠDuring": 3401,
      "Ġimmediately": 3402,
      "Ġoil": 3403,
      "jects": 3404,
      "Ġsong": 3405,
      "Ġmaterial": 3406,
      "Ġ=": 3407,
      "Ġcentre": 3408,
      "Ġsurf": 3409,
      "ĠVal": 3410,
      "Ġsave": 3411,
      "Ġaftern": 3412,
      "Ġpret": 3413,
      "Ġadminist": 3414,
      "ĠAfrican": 3415,
      "Ġsignificant": 3416,
      "Ġfocus": 3417,
      "ider": 3418,
      "ĠiP": 3419,
      "Ġgoals": 3420,
      "yan": 3421,
      "Ġgreen": 3422,
      "ander": 3423,
      "ĠArs": 3424,
      "oved": 3425,
      "Ġ2007": 3426,
      "Ġjobs": 3427,
      "sych": 3428,
      "Ġobs": 3429,
      "Ġdisp": 3430,
      "Ġconditions": 3431,
      "ĠInternet": 3432,
      "Ġice": 3433,
      "Ġwall": 3434,
      "Ġoffered": 3435,
      "Ġdoub": 3436,
      "Ġtwe": 3437,
      "oms": 3438,
      "Ġanimal": 3439,
      "Ġassault": 3440,
      "come": 3441,
      "ĠPrime": 3442,
      "Ġbroad": 3443,
      "Ġresc": 3444,
      "Ġmodern": 3445,
      "Ġfemale": 3446,
      "Ġprevious": 3447,
      "oper": 3448,
      "Ġwritten": 3449,
      "Ġpage": 3450,
      "Ġdamage": 3451,
      "Ġindepend": 3452,
      "ĠScot": 3453,
      "Ġrepresent": 3454,
      "Ġ29": 3455,
      "Ġdevelopment": 3456,
      "Ġsurger": 3457,
      "elling": 3458,
      "Ġjournal": 3459,
      "Ġshown": 3460,
      "That": 3461,
      "night": 3462,
      "Ġafternoon": 3463,
      "eed": 3464,
      "Ġprevent": 3465,
      "Ġrange": 3466,
      "ĠMartin": 3467,
      "berg": 3468,
      "Ġoccur": 3469,
      "Ġraised": 3470,
      "Ġcustomers": 3471,
      "Ġbomb": 3472,
      "itiz": 3473,
      "ples": 3474,
      "Ġpotential": 3475,
      "enge": 3476,
      "Ġdangerous": 3477,
      "ĠOther": 3478,
      "ĠMary": 3479,
      "Ġlack": 3480,
      "Ġimmig": 3481,
      "Ġresponse": 3482,
      "Ġreading": 3483,
      "ĠAssoci": 3484,
      "!\"": 3485,
      "ĠUk": 3486,
      "Ġrain": 3487,
      "Ġcoach": 3488,
      "Ġcamera": 3489,
      "gn": 3490,
      "Ġpun": 3491,
      "Ġtalking": 3492,
      "Ġgas": 3493,
      "ĠTex": 3494,
      "Ġpeace": 3495,
      "lear": 3496,
      "ĠApple": 3497,
      "Ġrules": 3498,
      "Ġvictory": 3499,
      "ellig": 3500,
      "For": 3501,
      "eat": 3502,
      "Ġoppos": 3503,
      "Ġtouch": 3504,
      "iation": 3505,
      "Ġearth": 3506,
      "Ġfinancial": 3507,
      "Ġstre": 3508,
      "Ġquar": 3509,
      "Ġspread": 3510,
      "Ġrefused": 3511,
      "Ġmill": 3512,
      "Ġmarriage": 3513,
      "Ġtraffic": 3514,
      "ĠMost": 3515,
      "ears": 3516,
      "Ġrap": 3517,
      "ugh": 3518,
      "Ġready": 3519,
      "wor": 3520,
      "ĠPart": 3521,
      "ĠKen": 3522,
      "Ġinjury": 3523,
      "Ġwed": 3524,
      ">>": 3525,
      "Ġperfect": 3526,
      "light": 3527,
      "Ġestab": 3528,
      "Ġlaunched": 3529,
      "Ġbelieves": 3530,
      "gle": 3531,
      "Ġsize": 3532,
      "Ġphotograph": 3533,
      "ĠScott": 3534,
      "vent": 3535,
      "<<": 3536,
      "Ġvote": 3537,
      "ĠPeter": 3538,
      "ĠRom": 3539,
      "Ġcities": 3540,
      "ĠSecretary": 3541,
      "Ġbattle": 3542,
      "Ġrout": 3543,
      "airs": 3544,
      "ilities": 3545,
      "Ġexerc": 3546,
      "Ġcrash": 3547,
      "Ġengine": 3548,
      "Ġspeed": 3549,
      "Ġsentence": 3550,
      "Ġvers": 3551,
      "akistan": 3552,
      "Ġclos": 3553,
      "ĠCenter": 3554,
      "ĠAnother": 3555,
      "ĠFer": 3556,
      "yl": 3557,
      "action": 3558,
      "Ġterm": 3559,
      "Ġjoined": 3560,
      "uk": 3561,
      "ĠHealth": 3562,
      "Ġrelig": 3563,
      "inger": 3564,
      "Ġswim": 3565,
      "espite": 3566,
      "Ġherself": 3567,
      "Ġreview": 3568,
      "Ġrev": 3569,
      "ĠOp": 3570,
      "Ġamb": 3571,
      "Ġaddress": 3572,
      "haps": 3573,
      "olf": 3574,
      "Ġagency": 3575,
      "Ġelection": 3576,
      "Ġcosts": 3577,
      "ĠPort": 3578,
      "Ġmount": 3579,
      "ĠGreen": 3580,
      "Ġsuccessful": 3581,
      "Ġchem": 3582,
      "ĠĠĠ": 3583,
      "Ġsens": 3584,
      "Ġmovie": 3585,
      "Ġrare": 3586,
      "ĠJe": 3587,
      "Ġskin": 3588,
      "ĠAustralian": 3589,
      "Ġresearchers": 3590,
      "Ġolder": 3591,
      "Ġdesigned": 3592,
      "Ġdrink": 3593,
      "Ġwarned": 3594,
      "bre": 3595,
      "Ġfeeling": 3596,
      "Ġrate": 3597,
      "Ġtick": 3598,
      "ya": 3599,
      "based": 3600,
      "istic": 3601,
      "Ġdogs": 3602,
      "Ġpet": 3603,
      "Ġnewspaper": 3604,
      "orter": 3605,
      "ĠTur": 3606,
      "ications": 3607,
      "ĠChe": 3608,
      "Ġpers": 3609,
      "rovers": 3610,
      "Ġgets": 3611,
      "ildren": 3612,
      "Ġfighting": 3613,
      "cement": 3614,
      "Ġincreasing": 3615,
      "ĠQueen": 3616,
      "Ġbase": 3617,
      "ĠBel": 3618,
      "Ġsound": 3619,
      "Ġmis": 3620,
      "ĠLa": 3621,
      "Ġsad": 3622,
      "ĠIS": 3623,
      "eated": 3624,
      "Ġpul": 3625,
      "Ġhundreds": 3626,
      "Ġproducts": 3627,
      "Ġblue": 3628,
      "Ġculture": 3629,
      "ĠTexas": 3630,
      "Ġcomplain": 3631,
      "Ġmach": 3632,
      "Ġsym": 3633,
      "Ġpreviously": 3634,
      "Ġglobal": 3635,
      "Ġcriminal": 3636,
      "iger": 3637,
      "Ġhar": 3638,
      "rel": 3639,
      "Ġexperts": 3640,
      "ological": 3641,
      "Ġspoke": 3642,
      "ĠFranc": 3643,
      "Ġteach": 3644,
      "ĠSir": 3645,
      "Ġavoid": 3646,
      "ĠLabour": 3647,
      "ograp": 3648,
      "ĠLib": 3649,
      "ĠPakistan": 3650,
      "Ġbott": 3651,
      "Ġagreed": 3652,
      "set": 3653,
      "bor": 3654,
      "Ġappeal": 3655,
      "Ġswe": 3656,
      "Ġgard": 3657,
      "Ġeconomy": 3658,
      "Ġresidents": 3659,
      "Ġmoving": 3660,
      "Ġspending": 3661,
      "ĠEarth": 3662,
      "pm": 3663,
      "Ġwalking": 3664,
      "Ġaim": 3665,
      "ĠCouncil": 3666,
      "Ġeating": 3667,
      "Ġgra": 3668,
      "Ġcop": 3669,
      "iles": 3670,
      "Ġsurgery": 3671,
      "resh": 3672,
      "Ġ&": 3673,
      "ancy": 3674,
      "Ġspeech": 3675,
      "Ġsurround": 3676,
      "Ġnecess": 3677,
      "Ġloved": 3678,
      "Ġminister": 3679,
      "orry": 3680,
      "ĠPrince": 3681,
      "Ġcy": 3682,
      "tr": 3683,
      "Ġattend": 3684,
      "Ġdark": 3685,
      "Ġended": 3686,
      "ĠRichard": 3687,
      "ikes": 3688,
      "Ġdetails": 3689,
      "ements": 3690,
      "Ġcoast": 3691,
      "icide": 3692,
      "Ġoperation": 3693,
      "Ġcontract": 3694,
      "outhern": 3695,
      "25": 3696,
      "Ġexecutive": 3697,
      "Ġperformance": 3698,
      "ĠParis": 3699,
      "Ġcrew": 3700,
      "Ġimpact": 3701,
      "Ġfre": 3702,
      "Ġlose": 3703,
      "Ġsecret": 3704,
      "ems": 3705,
      "Ġlearning": 3706,
      "Ġdeveloped": 3707,
      "Ġmagaz": 3708,
      "Ġlevels": 3709,
      "Ġhealthy": 3710,
      "Ġdeliver": 3711,
      "Ġvehicle": 3712,
      "oogle": 3713,
      "ĠCongress": 3714,
      "Ġability": 3715,
      "ruction": 3716,
      "ĠWhy": 3717,
      "ĠMuslim": 3718,
      "Ġanswer": 3719,
      "gypt": 3720,
      "ils": 3721,
      "Ġpassengers": 3722,
      "iced": 3723,
      "Ġexact": 3724,
      "TV": 3725,
      "Ġcandid": 3726,
      "ĠKorea": 3727,
      "enger": 3728,
      "Ġcitiz": 3729,
      "ĠEvery": 3730,
      "ressive": 3731,
      "##": 3732,
      "Ġthroughout": 3733,
      "Ġtrib": 3734,
      "ps": 3735,
      "Ġvan": 3736,
      "Ġreached": 3737,
      "atory": 3738,
      "Ġitself": 3739,
      "Ġtwice": 3740,
      "ores": 3741,
      "iling": 3742,
      "Ġclothes": 3743,
      "Ġdeg": 3744,
      "ID": 3745,
      "Ġlearned": 3746,
      "Ġship": 3747,
      "Ġattract": 3748,
      "icks": 3749,
      "Ġ196": 3750,
      "Ġcenter": 3751,
      "Ġeffort": 3752,
      "ĠInst": 3753,
      "ĠMic": 3754,
      "ĠTra": 3755,
      "Ġstra": 3756,
      "onald": 3757,
      "ĠClin": 3758,
      "overy": 3759,
      "ĠGovernment": 3760,
      "mark": 3761,
      "cohol": 3762,
      "Ġdemon": 3763,
      "Ġheavy": 3764,
      "Ġwalked": 3765,
      "Ġvac": 3766,
      "Ġbod": 3767,
      "ares": 3768,
      "Ġmyself": 3769,
      "Ġcontributed": 3770,
      "Ġpregn": 3771,
      "ibly": 3772,
      "ĠQu": 3773,
      "Ġbroke": 3774,
      "Ġcook": 3775,
      "ĠJud": 3776,
      "Ġwriting": 3777,
      "Ġthinking": 3778,
      "Ġcheck": 3779,
      "Ġparticularly": 3780,
      "Ġwonder": 3781,
      "Ġbul": 3782,
      "Ġfaces": 3783,
      "ĠScotland": 3784,
      "Ġassoci": 3785,
      "Ġaged": 3786,
      "shire": 3787,
      "illeg": 3788,
      "Ġmobile": 3789,
      "Ġcompletely": 3790,
      "Ġsport": 3791,
      "itz": 3792,
      "Ġefforts": 3793,
      "Ġfair": 3794,
      "Ġcris": 3795,
      "Ġslow": 3796,
      "Ġterms": 3797,
      "Ġmeant": 3798,
      "Ġwatching": 3799,
      "ĠEgypt": 3800,
      "ĠEven": 3801,
      "ĠGreat": 3802,
      "ĠArsenal": 3803,
      "Ġli": 3804,
      "Ġunf": 3805,
      "while": 3806,
      "Ġlower": 3807,
      "ĠKe": 3808,
      "ĠFrom": 3809,
      "Ġtroops": 3810,
      "Ġfavor": 3811,
      "SA": 3812,
      "ĠCarol": 3813,
      "Ġprim": 3814,
      "Ġopening": 3815,
      "omas": 3816,
      "iest": 3817,
      "down": 3818,
      "Ġhistor": 3819,
      "ĠAlthough": 3820,
      "Ġwinning": 3821,
      "hib": 3822,
      "ĠChris": 3823,
      "Ġscored": 3824,
      "At": 3825,
      "Ġpenal": 3826,
      "Ġchallenge": 3827,
      "Ġwouldn": 3828,
      "Ġpan": 3829,
      "Ġconference": 3830,
      "het": 3831,
      "Ġappears": 3832,
      "Ġfashion": 3833,
      "Ġnearby": 3834,
      "Ġtrust": 3835,
      "Ġopportunity": 3836,
      "18": 3837,
      "Ġwaiting": 3838,
      "Ġsigned": 3839,
      "Ġglass": 3840,
      "enty": 3841,
      "Ġnumbers": 3842,
      "ender": 3843,
      "Ġdram": 3844,
      "craft": 3845,
      "Ġbecoming": 3846,
      "eneral": 3847,
      "ĠBill": 3848,
      "ĠSpan": 3849,
      "ĠJackson": 3850,
      "Ġsoldiers": 3851,
      "\",": 3852,
      "Ġarm": 3853,
      "aches": 3854,
      "Ġuniversity": 3855,
      "Ġrise": 3856,
      "Ġsuit": 3857,
      "ĠJohnson": 3858,
      "Ġshowing": 3859,
      "Ġfarm": 3860,
      "Ġemergency": 3861,
      "ĠMexico": 3862,
      "Ġcontrovers": 3863,
      "Ġones": 3864,
      "ĠWilliams": 3865,
      "ĠLos": 3866,
      "ca": 3867,
      "Ġpositive": 3868,
      "ceed": 3869,
      "roud": 3870,
      "ĠAfghanistan": 3871,
      "erve": 3872,
      "Ġdenied": 3873,
      "ĠOffice": 3874,
      "ables": 3875,
      "Ġserved": 3876,
      "Ġconc": 3877,
      "uing": 3878,
      "ounts": 3879,
      "Ġtreated": 3880,
      "ĠAct": 3881,
      "ĠAngeles": 3882,
      "ledge": 3883,
      "iny": 3884,
      "ĠBay": 3885,
      "pton": 3886,
      "ading": 3887,
      "ĠVictor": 3888,
      "rian": 3889,
      "Ġdate": 3890,
      "ĠÂł": 3891,
      "unk": 3892,
      "ension": 3893,
      "ĠGoogle": 3894,
      "Ġtraditional": 3895,
      "Ġilleg": 3896,
      "ĠGod": 3897,
      "ari": 3898,
      "ĠCam": 3899,
      "Ġeventually": 3900,
      "Ġlaunch": 3901,
      "Ġconvicted": 3902,
      "Ġisland": 3903,
      "Ġpartner": 3904,
      "inally": 3905,
      "ago": 3906,
      "Ġnormal": 3907,
      "ĠIndian": 3908,
      "Ġrestaurant": 3909,
      "Ġstreets": 3910,
      "....": 3911,
      "Ġfle": 3912,
      "Ġseemed": 3913,
      "Ġur": 3914,
      "Ġpil": 3915,
      "Ġcentral": 3916,
      "Ġsales": 3917,
      "Ġonto": 3918,
      "ucky": 3919,
      "ĠDespite": 3920,
      "Ġscreen": 3921,
      "Ġpsych": 3922,
      "Ġapparent": 3923,
      "Ġlin": 3924,
      "Ġfigures": 3925,
      "omen": 3926,
      "ishing": 3927,
      "Ġbreat": 3928,
      "Ġcash": 3929,
      "hold": 3930,
      "Ġdig": 3931,
      "Ġincludes": 3932,
      "Ġtype": 3933,
      "100": 3934,
      "ĠRepublican": 3935,
      "Ġaward": 3936,
      "gu": 3937,
      "ĠSal": 3938,
      "Ġresponsible": 3939,
      "Ġpick": 3940,
      "phone": 3941,
      "Ġcomfort": 3942,
      "Ġadm": 3943,
      "ĠSpain": 3944,
      "Ġ2006": 3945,
      "Ġchurch": 3946,
      "ĠArab": 3947,
      "Ġparticip": 3948,
      "ship": 3949,
      "Ġopin": 3950,
      "isters": 3951,
      "rom": 3952,
      "Ġver": 3953,
      "ĠUkr": 3954,
      "Ġcompetition": 3955,
      "rief": 3956,
      "lant": 3957,
      "fl": 3958,
      "Ġvir": 3959,
      "ĠCap": 3960,
      "Ġhelping": 3961,
      "Ġfine": 3962,
      "Ġtelling": 3963,
      "Ġwarning": 3964,
      "Ġfollow": 3965,
      "ado": 3966,
      "Ġneighbor": 3967,
      "Ġordered": 3968,
      "Ġteachers": 3969,
      "ĠOf": 3970,
      "Ġsoft": 3971,
      "Ġunable": 3972,
      "ipped": 3973,
      "Ġregard": 3974,
      "Ġ31": 3975,
      "unte": 3976,
      "Ġep": 3977,
      "Ġborder": 3978,
      "ĠItaly": 3979,
      "Ġreceive": 3980,
      "Ġful": 3981,
      "Ġsimple": 3982,
      "Ġinqu": 3983,
      "Ġoriginal": 3984,
      "Ġairport": 3985,
      "Ġsociety": 3986,
      "Ġstories": 3987,
      "Ġnames": 3988,
      "200": 3989,
      "Ġpiece": 3990,
      "Ġseeing": 3991,
      "sex": 3992,
      "ĠJones": 3993,
      "ha": 3994,
      "ĠRobert": 3995,
      "anda": 3996,
      "ugg": 3997,
      "Ġarch": 3998,
      "Ġhighest": 3999,
      "Ġweapons": 4000,
      "Ġtree": 4001,
      "Ġlawyer": 4002,
      "Ġlay": 4003,
      "add": 4004,
      "Ġchalleng": 4005,
      "Ġbrand": 4006,
      "rog": 4007,
      "An": 4008,
      "ĠFirst": 4009,
      "Ġintellig": 4010,
      "ĠUnion": 4011,
      "ĠFore": 4012,
      "Ġdisplay": 4013,
      "Ġalcohol": 4014,
      "Ġcalling": 4015,
      "ĠRod": 4016,
      "Ġdie": 4017,
      "Ġkit": 4018,
      "akers": 4019,
      "Ġbeginning": 4020,
      "uclear": 4021,
      "istry": 4022,
      "liam": 4023,
      "Ġproduct": 4024,
      "Ġraise": 4025,
      "wide": 4026,
      "cean": 4027,
      "Ġbal": 4028,
      "aked": 4029,
      "ĠToday": 4030,
      "ĠTal": 4031,
      "ki": 4032,
      "Ġreasons": 4033,
      "ĠMel": 4034,
      "Ġbi": 4035,
      "Ġmillions": 4036,
      "Ġadvert": 4037,
      "Ġwedding": 4038,
      "Ġcharity": 4039,
      "ĠSand": 4040,
      "Ġphysical": 4041,
      "Ġwrite": 4042,
      "Ġpulled": 4043,
      "vest": 4044,
      "ĠLouis": 4045,
      "Ġcrisis": 4046,
      "ini": 4047,
      "cher": 4048,
      "rif": 4049,
      "ĠTimes": 4050,
      "How": 4051,
      "ĠPet": 4052,
      "ĠHill": 4053,
      "liament": 4054,
      "ament": 4055,
      "reng": 4056,
      "Ġplaced": 4057,
      "ocking": 4058,
      "adium": 4059,
      "Ġactivities": 4060,
      "ĠDef": 4061,
      "Ġhero": 4062,
      "Ġfigure": 4063,
      "Ġcompared": 4064,
      "Ġdetermin": 4065,
      "Ġstars": 4066,
      "bl": 4067,
      "Ġflood": 4068,
      "ĠClinton": 4069,
      "Ġasking": 4070,
      "Ġsuffering": 4071,
      "where": 4072,
      "azing": 4073,
      "Ġexist": 4074,
      "ĠMadrid": 4075,
      "sequ": 4076,
      "Ġstraight": 4077,
      "Ġcouncil": 4078,
      "Ġwarm": 4079,
      "ube": 4080,
      "Ġclosed": 4081,
      "Ġwindow": 4082,
      "Ġbenefits": 4083,
      "Ġallegations": 4084,
      "Ġminute": 4085,
      "Ġchoice": 4086,
      "Ġagre": 4087,
      "udd": 4088,
      "Ġplant": 4089,
      "14": 4090,
      "ĠBal": 4091,
      "Ġmanaged": 4092,
      "Ġpractice": 4093,
      "Ġimag": 4094,
      "ĠThomas": 4095,
      "Ġstyle": 4096,
      "Ġshopping": 4097,
      "Ġconcerns": 4098,
      "Ġidentified": 4099,
      "HS": 4100,
      "Ġsched": 4101,
      "Ġrequest": 4102,
      "Ġincreased": 4103,
      "mail": 4104,
      "ĠJim": 4105,
      "stitute": 4106,
      "Ġwood": 4107,
      "asts": 4108,
      "Ġ90": 4109,
      "well": 4110,
      "Ġsurvey": 4111,
      "Al": 4112,
      "ĠSun": 4113,
      "Ġdropped": 4114,
      "ĠHall": 4115,
      "lor": 4116,
      "Ġspir": 4117,
      "za": 4118,
      "Ġyourself": 4119,
      "Ġ80": 4120,
      "Ġ70": 4121,
      "Ġmeaning": 4122,
      "Ġtweet": 4123,
      "Ġsuggested": 4124,
      "Ġgrowth": 4125,
      "ĠSince": 4126,
      "Ġfourth": 4127,
      "elled": 4128,
      "ĠStud": 4129,
      "Ġvoice": 4130,
      "ĠSoc": 4131,
      "Ġaid": 4132,
      "icles": 4133,
      "ĠKim": 4134,
      "Ġadding": 4135,
      "ĠWales": 4136,
      "ĠLaw": 4137,
      "Ġquality": 4138,
      "Ġsmart": 4139,
      "illa": 4140,
      "mates": 4141,
      "cy": 4142,
      "aed": 4143,
      "Ġgives": 4144,
      "One": 4145,
      "Ġconvers": 4146,
      "riff": 4147,
      "Ġmeth": 4148,
      "Ġadop": 4149,
      "So": 4150,
      "Ġburn": 4151,
      "Ġbroken": 4152,
      "oned": 4153,
      "ĠCle": 4154,
      "Ġwriter": 4155,
      "Ġroll": 4156,
      "clus": 4157,
      "ĠNor": 4158,
      "Ġissued": 4159,
      "ĠEv": 4160,
      "rival": 4161,
      "Ġcry": 4162,
      "anks": 4163,
      "ĠOffic": 4164,
      "Ġ35": 4165,
      "Ġvalue": 4166,
      "ĠItal": 4167,
      "Ġowners": 4168,
      "Ġmajority": 4169,
      "Ġbodies": 4170,
      "ijing": 4171,
      "Ġpretty": 4172,
      "Ġclearly": 4173,
      "ĠStep": 4174,
      "Ġbirthday": 4175,
      "ux": 4176,
      "Ġcarrying": 4177,
      "Ġreportedly": 4178,
      "Ġharm": 4179,
      "Ġmotor": 4180,
      "Ġwhom": 4181,
      "ĠArmy": 4182,
      "eless": 4183,
      "Ġdiagn": 4184,
      "Ġfellow": 4185,
      "itude": 4186,
      "Ġvillage": 4187,
      "ĠMill": 4188,
      "iate": 4189,
      "Ġnetwork": 4190,
      "Ġeffective": 4191,
      "Ġwel": 4192,
      "Ġlabel": 4193,
      "Ġcaptain": 4194,
      "Ġuses": 4195,
      "gent": 4196,
      "Ġscience": 4197,
      "Ġsitting": 4198,
      "Ġradio": 4199,
      "Ġaircraft": 4200,
      "Ġapproach": 4201,
      "ams": 4202,
      "ĠReal": 4203,
      "ĠDis": 4204,
      "ĠVir": 4205,
      "Ġdaily": 4206,
      "ih": 4207,
      "Ġhopes": 4208,
      "Ġholding": 4209,
      "Ġskills": 4210,
      "ĠMiddle": 4211,
      "aries": 4212,
      "ĠCharl": 4213,
      "No": 4214,
      "ĠWho": 4215,
      "Ġfavour": 4216,
      "ĠRec": 4217,
      "ĠLee": 4218,
      "lege": 4219,
      "bert": 4220,
      "Ġremoved": 4221,
      "NA": 4222,
      "ĠJos": 4223,
      "Ġadministration": 4224,
      "lection": 4225,
      "Ġspecific": 4226,
      "Ġemerged": 4227,
      "Ġmessages": 4228,
      "16": 4229,
      "ho": 4230,
      "isl": 4231,
      "ĠSpe": 4232,
      "Ġpull": 4233,
      "Ġsevere": 4234,
      "Ġstreng": 4235,
      "stitution": 4236,
      "Ġmagazine": 4237,
      "uf": 4238,
      "Ġjury": 4239,
      "Ġchamp": 4240,
      "Ġrespect": 4241,
      "ĠWood": 4242,
      "ĠCons": 4243,
      "Ġindividual": 4244,
      "Ġfly": 4245,
      "dd": 4246,
      "ropri": 4247,
      "icate": 4248,
      "Ġplanning": 4249,
      "ĠII": 4250,
      "Ġvarious": 4251,
      "Ġoccas": 4252,
      "Ġplanned": 4253,
      "Ġnice": 4254,
      "val": 4255,
      "ties": 4256,
      "asc": 4257,
      "ĠBo": 4258,
      "Ġdinner": 4259,
      "Ġbid": 4260,
      "ateg": 4261,
      "Ġteams": 4262,
      "ĠBecause": 4263,
      "itation": 4264,
      "Ġsale": 4265,
      "Ġnature": 4266,
      "ĠAtlant": 4267,
      "Ġinn": 4268,
      "Ġsuspect": 4269,
      "Ġfreed": 4270,
      "Ġdeaths": 4271,
      "gar": 4272,
      "iple": 4273,
      "yond": 4274,
      "Ġnuclear": 4275,
      "ĠSur": 4276,
      "Ġprovided": 4277,
      "Ġcoff": 4278,
      "Ġconcerned": 4279,
      "Ġmaintain": 4280,
      "rect": 4281,
      "Ġensure": 4282,
      "ym": 4283,
      "Ġwinter": 4284,
      "Ġrecords": 4285,
      "Ġknows": 4286,
      "Ġattacked": 4287,
      "Ġdecades": 4288,
      "olute": 4289,
      "kes": 4290,
      "nor": 4291,
      "Ġfeed": 4292,
      "Ġactions": 4293,
      "inson": 4294,
      "Ġdrop": 4295,
      "Ġworst": 4296,
      "arily": 4297,
      "Ġpatient": 4298,
      "pe": 4299,
      "Ġmale": 4300,
      "Ġbeach": 4301,
      "Ġdemonstr": 4302,
      "can": 4303,
      "Ġhurt": 4304,
      "Ġdoz": 4305,
      "bled": 4306,
      "ĠAndrew": 4307,
      "Ġvolunte": 4308,
      "Ġstriker": 4309,
      "Ġtransfer": 4310,
      "ĠVan": 4311,
      "Ġdifference": 4312,
      "Ġphotograp": 4313,
      "Ġexpensive": 4314,
      "Ġrepeated": 4315,
      "estival": 4316,
      "Ġmission": 4317,
      "Ġ2005": 4318,
      "dom": 4319,
      "Ġprofessional": 4320,
      "Ġshared": 4321,
      "Ġstarting": 4322,
      "ĠCamp": 4323,
      "Ġshut": 4324,
      "Ġexplained": 4325,
      "Ġdestroy": 4326,
      "Ġpurp": 4327,
      "Ġspecies": 4328,
      "ends": 4329,
      "Ġreform": 4330,
      "chen": 4331,
      "ĠFrancis": 4332,
      "Ġchoose": 4333,
      "Ġbelow": 4334,
      "Ġfif": 4335,
      "ae": 4336,
      "Ġdom": 4337,
      "jected": 4338,
      "Ġquarter": 4339,
      "cient": 4340,
      "Ġactivity": 4341,
      "NE": 4342,
      "17": 4343,
      "known": 4344,
      "Ġconfl": 4345,
      "Ġappearance": 4346,
      "ĠGrand": 4347,
      "but": 4348,
      "Ġsick": 4349,
      "ĠBeijing": 4350,
      "ĠSpanish": 4351,
      "Ġfeatures": 4352,
      "Ġbeg": 4353,
      "Ġprotest": 4354,
      "fess": 4355,
      "ighters": 4356,
      "ĠLord": 4357,
      "ĠBur": 4358,
      "Ġsquad": 4359,
      "Ġexercise": 4360,
      "Ġfresh": 4361,
      "otten": 4362,
      "isions": 4363,
      "ĠOld": 4364,
      "Ġcollection": 4365,
      "Ġexplos": 4366,
      "ius": 4367,
      "ĠGood": 4368,
      "Ġcerem": 4369,
      "ersey": 4370,
      "Ġdism": 4371,
      "ecution": 4372,
      "ĠHum": 4373,
      "ĠUnder": 4374,
      "anging": 4375,
      "Ġplants": 4376,
      "rec": 4377,
      "Ġstruck": 4378,
      "iment": 4379,
      "ĠHarry": 4380,
      "apt": 4381,
      "Ġproud": 4382,
      "Ġcorn": 4383,
      "Ġrequired": 4384,
      "Ġaddition": 4385,
      "Ġseat": 4386,
      "iring": 4387,
      "dden": 4388,
      "Ġgirlfriend": 4389,
      "bour": 4390,
      "house": 4391,
      "ĠDaniel": 4392,
      "ĠMat": 4393,
      "ĠOlympic": 4394,
      "Ġprior": 4395,
      "ĠFar": 4396,
      "Ġtom": 4397,
      "ĠRiver": 4398,
      "Ġangry": 4399,
      "Ġpurch": 4400,
      "Ġactive": 4401,
      "ĠTheir": 4402,
      "ĠGeneral": 4403,
      "elly": 4404,
      "ĠÂłĠÂł": 4405,
      "45": 4406,
      "Ġupon": 4407,
      "Ġcatch": 4408,
      "Ġ32": 4409,
      "13": 4410,
      "ĠMag": 4411,
      "Ġboat": 4412,
      "Ġtrouble": 4413,
      "Ġjourney": 4414,
      "Ġarms": 4415,
      "Ġcounter": 4416,
      "ÂłÂłÂłÂł": 4417,
      "pts": 4418,
      "Ġwound": 4419,
      "ĠNet": 4420,
      "Ġfan": 4421,
      "Ġstanding": 4422,
      "Ġsudden": 4423,
      "Ġapartment": 4424,
      "Ġcertainly": 4425,
      "Ã©": 4426,
      "Ġaffected": 4427,
      "ĠAsh": 4428,
      "Ġitems": 4429,
      "ĠFrank": 4430,
      "ĠChurch": 4431,
      "term": 4432,
      "Ġtests": 4433,
      "Ġhun": 4434,
      "win": 4435,
      "board": 4436,
      "ĠRos": 4437,
      "arks": 4438,
      "Ġprices": 4439,
      "ĠSant": 4440,
      "Ġdepartment": 4441,
      "Ġyounger": 4442,
      "ĠHel": 4443,
      "dney": 4444,
      "80": 4445,
      "Ġ45": 4446,
      "ume": 4447,
      "Ġstress": 4448,
      "Ġmovement": 4449,
      "Ġpounds": 4450,
      "Ġtrees": 4451,
      "Ġsubject": 4452,
      "Ġdevice": 4453,
      "Ġdouble": 4454,
      "apers": 4455,
      "ĠSuper": 4456,
      "ĠIslamic": 4457,
      "oking": 4458,
      "Ġcovered": 4459,
      "ĠGre": 4460,
      "Ġquiet": 4461,
      "oted": 4462,
      "izing": 4463,
      "Ġelectric": 4464,
      "ĠWin": 4465,
      "Ġwatched": 4466,
      "bing": 4467,
      "eg": 4468,
      "Ġdocument": 4469,
      "Ġdrinking": 4470,
      "keep": 4471,
      "Ġadults": 4472,
      "Af": 4473,
      "Ġachieve": 4474,
      "ĠItalian": 4475,
      "ector": 4476,
      "going": 4477,
      "Ġvisited": 4478,
      "life": 4479,
      "Ġtalks": 4480,
      "Ġsigns": 4481,
      "Ġdocuments": 4482,
      "Ġpenalty": 4483,
      "Ġstudies": 4484,
      "Ġcitizens": 4485,
      "aped": 4486,
      "zz": 4487,
      "ellow": 4488,
      "Ġapolog": 4489,
      "ĠSenate": 4490,
      "pping": 4491,
      "Ġsupporters": 4492,
      "ĠCharles": 4493,
      "ĠMer": 4494,
      "Ġproduced": 4495,
      "Ġcool": 4496,
      "Ġruns": 4497,
      "Ġjailed": 4498,
      "BI": 4499,
      "ĠInter": 4500,
      "Ġsentenced": 4501,
      "ĠSar": 4502,
      "ĠCanada": 4503,
      "do": 4504,
      "ĠVirgin": 4505,
      "Ġagg": 4506,
      "Ġspl": 4507,
      "Ġputting": 4508,
      "aret": 4509,
      "Ġadvice": 4510,
      "Ġfinding": 4511,
      "Ġband": 4512,
      "Ġrequire": 4513,
      "Ġcontinues": 4514,
      "Ġexactly": 4515,
      "ĠHen": 4516,
      "acked": 4517,
      "agers": 4518,
      "rol": 4519,
      "ĠHot": 4520,
      "Ġchemical": 4521,
      "Ġflag": 4522,
      "Ġfired": 4523,
      "ĠGar": 4524,
      "ĠService": 4525,
      "ĠAssociation": 4526,
      "urance": 4527,
      "rim": 4528,
      "ĠISIS": 4529,
      "ĠSydney": 4530,
      "igg": 4531,
      "estic": 4532,
      "Ġwinner": 4533,
      "Ġincred": 4534,
      "ĠBob": 4535,
      "Ġbud": 4536,
      "Ġlosing": 4537,
      "ĠWestern": 4538,
      "Ġbeyond": 4539,
      "angers": 4540,
      "ero": 4541,
      "Ġunc": 4542,
      "Ġeasily": 4543,
      "ĠChristian": 4544,
      "born": 4545,
      "Ġfinished": 4546,
      "woman": 4547,
      "erved": 4548,
      "Ġenfor": 4549,
      "ĠCom": 4550,
      "ads": 4551,
      "ĠHere": 4552,
      "Ġmental": 4553,
      "ĠJapanese": 4554,
      "Ġbath": 4555,
      "Ġreporters": 4556,
      "Ġversion": 4557,
      "hab": 4558,
      "ĠDet": 4559,
      "ĠIsland": 4560,
      "Ġchec": 4561,
      "Ġminor": 4562,
      "celona": 4563,
      "een": 4564,
      "wo": 4565,
      "Ġaware": 4566,
      "ware": 4567,
      "ĠSn": 4568,
      "Ġvisitors": 4569,
      "bridge": 4570,
      "ĠNHS": 4571,
      "Ġcolor": 4572,
      "van": 4573,
      "ĠBoth": 4574,
      "Ġgarden": 4575,
      "ĠGold": 4576,
      "ĠCrown": 4577,
      "oston": 4578,
      "Ġannual": 4579,
      "ĠFA": 4580,
      "Ġbuildings": 4581,
      "Ġextremely": 4582,
      "etic": 4583,
      "Ġrecomm": 4584,
      "Ġknowledge": 4585,
      "ĠParty": 4586,
      "Ġpath": 4587,
      "Ġhelps": 4588,
      "ĠAtt": 4589,
      "Ġfootage": 4590,
      "ĠDist": 4591,
      "Ġbra": 4592,
      "Ġconserv": 4593,
      "month": 4594,
      "Ġwid": 4595,
      "utch": 4596,
      "Ġund": 4597,
      "atures": 4598,
      "imately": 4599,
      "Ġestimated": 4600,
      "Ġpowerful": 4601,
      "Ġexch": 4602,
      "Ġparties": 4603,
      "Ġworse": 4604,
      "Ġairl": 4605,
      "Ġoffers": 4606,
      "Ġdiet": 4607,
      "illing": 4608,
      "Ġ*": 4609,
      "ĠMet": 4610,
      "Ġreduce": 4611,
      "rants": 4612,
      "Ġlunch": 4613,
      "Ġwa": 4614,
      "Ġbusy": 4615,
      "ĠAuthor": 4616,
      "Ġgang": 4617,
      "rible": 4618,
      "Ġflying": 4619,
      "ĠReporter": 4620,
      "imum": 4621,
      "ĠJustice": 4622,
      "icking": 4623,
      "Ġinfluence": 4624,
      "Ġspeaking": 4625,
      "ka": 4626,
      "Ġpicked": 4627,
      "Ġnecessary": 4628,
      "rant": 4629,
      "itt": 4630,
      "ĠComp": 4631,
      "Ġintelligence": 4632,
      "mond": 4633,
      "Ġinterested": 4634,
      "resp": 4635,
      "Ġrule": 4636,
      "ĠWeb": 4637,
      "ĠWatch": 4638,
      "Ġgradu": 4639,
      "Ġdollars": 4640,
      "uses": 4641,
      "Ġemployees": 4642,
      "ocks": 4643,
      "Ġtoward": 4644,
      "Ġremained": 4645,
      "cious": 4646,
      "?'": 4647,
      "esters": 4648,
      "Ġdefin": 4649,
      "Ġmassive": 4650,
      "Ġsuicide": 4651,
      "arian": 4652,
      "Ġshel": 4653,
      "Ġlikes": 4654,
      "Ġmemory": 4655,
      "ĠSteve": 4656,
      "alls": 4657,
      "ĠTim": 4658,
      "Ġperhaps": 4659,
      "ĠDen": 4660,
      "Ġstruct": 4661,
      "Ġmix": 4662,
      "uals": 4663,
      "Ġpool": 4664,
      "ĠHolly": 4665,
      "Ġwealth": 4666,
      "bon": 4667,
      "Ġflat": 4668,
      "ĠDel": 4669,
      "ĠCollege": 4670,
      "merc": 4671,
      "Ġjustice": 4672,
      "acts": 4673,
      "Ġlegs": 4674,
      "ville": 4675,
      "Ġ2004": 4676,
      "Ġdefense": 4677,
      "rie": 4678,
      "ĠJew": 4679,
      "Ġopposition": 4680,
      "Ġillegal": 4681,
      "Ġcaptured": 4682,
      "ĠMac": 4683,
      "Ġcomplex": 4684,
      "Ġcausing": 4685,
      "Ġalive": 4686,
      "ĠFam": 4687,
      "Ġdebate": 4688,
      "ĠOl": 4689,
      "âĢĿ": 4690,
      "imate": 4691,
      "orial": 4692,
      "Ġproduction": 4693,
      "ĠSyrian": 4694,
      "Ġreality": 4695,
      "Ġworry": 4696,
      "ĠPost": 4697,
      "Ġring": 4698,
      "ĠJul": 4699,
      "Ġtells": 4700,
      "ength": 4701,
      "Ġalongside": 4702,
      "apped": 4703,
      "ument": 4704,
      "nel": 4705,
      "Ġbehavi": 4706,
      "Ġorganization": 4707,
      "Ġviews": 4708,
      "ointed": 4709,
      "Ġteenager": 4710,
      "yd": 4711,
      "Ġamazing": 4712,
      "Ġlinked": 4713,
      "Americ": 4714,
      "Ġproduce": 4715,
      "Ġfully": 4716,
      "ĠJon": 4717,
      "Ġsem": 4718,
      "bec": 4719,
      "anced": 4720,
      "ĠBoston": 4721,
      "Ġdefeat": 4722,
      "oses": 4723,
      "antly": 4724,
      "Ġeld": 4725,
      "Ġpresidential": 4726,
      "Ġbrief": 4727,
      "Ġnorthern": 4728,
      "Ġgrew": 4729,
      "Ġsurface": 4730,
      "Ġobv": 4731,
      "ĠSecurity": 4732,
      "FA": 4733,
      "ĠRoman": 4734,
      "more": 4735,
      "Ġunderst": 4736,
      "Ġlic": 4737,
      "Ġselling": 4738,
      "ĠCommission": 4739,
      "ĠPalace": 4740,
      "ĠDar": 4741,
      "anged": 4742,
      "ula": 4743,
      "vis": 4744,
      "Ġwish": 4745,
      "Ġarticle": 4746,
      "Ġult": 4747,
      "Ġsand": 4748,
      "Ġheav": 4749,
      "ĠPe": 4750,
      "using": 4751,
      "Ġoccurred": 4752,
      "Ġfrequ": 4753,
      "ennis": 4754,
      "Ġexpert": 4755,
      "Ġblog": 4756,
      "Ġign": 4757,
      "annel": 4758,
      "Ġruled": 4759,
      "Ġseparate": 4760,
      "hered": 4761,
      "Ġ33": 4762,
      "Ġfacing": 4763,
      "ĠGo": 4764,
      "Ġattended": 4765,
      "no": 4766,
      "ĠBush": 4767,
      "Ġcast": 4768,
      "anwhile": 4769,
      "uled": 4770,
      "oung": 4771,
      "Ġhanded": 4772,
      "Ġhighly": 4773,
      "Ġrich": 4774,
      "ĠBarcelona": 4775,
      "ador": 4776,
      "Ġprin": 4777,
      "Ġexpressed": 4778,
      "ĠBarack": 4779,
      "Ġbelong": 4780,
      "Ġworried": 4781,
      "Ġlaugh": 4782,
      "ipment": 4783,
      "Ġuns": 4784,
      "ĠYear": 4785,
      "Ġinsisted": 4786,
      "ailed": 4787,
      "Ġstab": 4788,
      "All": 4789,
      "Ġgreater": 4790,
      "ewhere": 4791,
      "Ġeffects": 4792,
      "ĠSom": 4793,
      "Ġath": 4794,
      "Ġexcept": 4795,
      "utions": 4796,
      "ala": 4797,
      "Ġexpress": 4798,
      "kins": 4799,
      "Ġserve": 4800,
      "ĠMass": 4801,
      "Ġresponsibility": 4802,
      "Ġlegisl": 4803,
      "Ġlines": 4804,
      "Ġleague": 4805,
      "Ġseconds": 4806,
      "Ġblock": 4807,
      "Ġillness": 4808,
      "Ġtransport": 4809,
      "ao": 4810,
      "Ġbright": 4811,
      "Ġhumans": 4812,
      "Ġhouses": 4813,
      "ĠGeorg": 4814,
      "rick": 4815,
      "orrow": 4816,
      "Ġprepared": 4817,
      "Some": 4818,
      "Ġboo": 4819,
      "Ġarmy": 4820,
      "ĠNick": 4821,
      "Ġoperations": 4822,
      "ĠChic": 4823,
      "Ġsites": 4824,
      "ighter": 4825,
      "ĠKn": 4826,
      "Ġsouthern": 4827,
      "Ġchampion": 4828,
      "Ġfiled": 4829,
      "Ġegg": 4830,
      "omatic": 4831,
      "uan": 4832,
      "mine": 4833,
      "Ġinternet": 4834,
      "Ġdecade": 4835,
      "Ġadvant": 4836,
      "Ġinteresting": 4837,
      "Ġunus": 4838,
      "Ġveter": 4839,
      "Ġfort": 4840,
      "ER": 4841,
      "Ġarmed": 4842,
      "Ġcup": 4843,
      "Ġwest": 4844,
      "ources": 4845,
      "Ġgiant": 4846,
      "Ġclaiming": 4847,
      "Ġmethod": 4848,
      "reland": 4849,
      "Ġreligious": 4850,
      "Ġscen": 4851,
      "ids": 4852,
      "ĠWat": 4853,
      "ĠSteven": 4854,
      "Ġbehavior": 4855,
      "Ġcommitted": 4856,
      "ously": 4857,
      "Ġstrike": 4858,
      "Ġbirds": 4859,
      "anch": 4860,
      "ĠPri": 4861,
      "ĠEU": 4862,
      "ĠFBI": 4863,
      "ĠMike": 4864,
      "aith": 4865,
      "ovel": 4866,
      "Online": 4867,
      "Ġtourn": 4868,
      "ĠChildren": 4869,
      "Ġmouth": 4870,
      "Ġagreement": 4871,
      "Ġheat": 4872,
      "Ġconfident": 4873,
      "Ġsystems": 4874,
      "Ġconcern": 4875,
      "ropriate": 4876,
      "ections": 4877,
      "Ġeast": 4878,
      "Ġtrade": 4879,
      "Ġideas": 4880,
      "Ġequipment": 4881,
      "ocol": 4882,
      "ĠOver": 4883,
      "Ġ<<": 4884,
      "eder": 4885,
      "ĠGames": 4886,
      "Ġtough": 4887,
      "Ġstood": 4888,
      "ĠHoll": 4889,
      "ĠJoe": 4890,
      "ĠAri": 4891,
      "iance": 4892,
      "igan": 4893,
      "Ġfinish": 4894,
      "mercial": 4895,
      "ĠAc": 4896,
      "Ġmachine": 4897,
      "Ġbedroom": 4898,
      "andal": 4899,
      "Ġbask": 4900,
      "Ġrelated": 4901,
      "ĠIm": 4902,
      "ĠVictoria": 4903,
      "ĠArgent": 4904,
      "Ġconflict": 4905,
      "Ġceremony": 4906,
      "Ġmention": 4907,
      "Ġchairman": 4908,
      "Ġvia": 4909,
      "Ġcru": 4910,
      "ĠLew": 4911,
      "Ġkil": 4912,
      "Ġleaves": 4913,
      "Ġkeeping": 4914,
      "Ġneck": 4915,
      "look": 4916,
      "Ġaren": 4917,
      "igned": 4918,
      "ena": 4919,
      "ĠDu": 4920,
      "ĠIreland": 4921,
      "iar": 4922,
      "Ġbenefit": 4923,
      "rated": 4924,
      "Ġprogress": 4925,
      "ufact": 4926,
      "ĠChief": 4927,
      "ĠProfess": 4928,
      "oz": 4929,
      "rial": 4930,
      "Ġartist": 4931,
      "Ġphones": 4932,
      "Ġlocated": 4933,
      "Ġdirectly": 4934,
      "Ġsort": 4935,
      "Ġbottom": 4936,
      "Ġabsolute": 4937,
      "Ġcredit": 4938,
      "ĠBig": 4939,
      "Ġmeasures": 4940,
      "ĠBre": 4941,
      "New": 4942,
      "isf": 4943,
      "ĠChicago": 4944,
      "Ġdoubt": 4945,
      "Ġrescue": 4946,
      "Ġsurprise": 4947,
      "ĠIr": 4948,
      "iser": 4949,
      "ielder": 4950,
      "ulated": 4951,
      "ĠPress": 4952,
      "ĠRad": 4953,
      "ologist": 4954,
      "Ġhorse": 4955,
      "agues": 4956,
      "ĠMeanwhile": 4957,
      "Ġride": 4958,
      "unning": 4959,
      "Ġapart": 4960,
      "ĠWall": 4961,
      "uct": 4962,
      "Ġactor": 4963,
      "ĠRepublicans": 4964,
      "Ġpup": 4965,
      "onn": 4966,
      "alys": 4967,
      "Ġmeat": 4968,
      "ĠHaw": 4969,
      "Ġdetermined": 4970,
      "Ġcoffee": 4971,
      "Ġcustody": 4972,
      "Ġbot": 4973,
      "oma": 4974,
      "Ġfuel": 4975,
      "Ġlots": 4976,
      "Ġdad": 4977,
      "Ġhaven": 4978,
      "ification": 4979,
      "ĠâĢľ": 4980,
      "Ġsurprised": 4981,
      "ĠBefore": 4982,
      "Ġindependent": 4983,
      "ĠAnn": 4984,
      "ican": 4985,
      "Ġprofessor": 4986,
      "Ġfix": 4987,
      "Ġviolent": 4988,
      "IDEO": 4989,
      "Ġagree": 4990,
      "icious": 4991,
      "ulations": 4992,
      "cepted": 4993,
      "Ġaffect": 4994,
      "Our": 4995,
      "Ġgar": 4996,
      "Ġspotted": 4997,
      "ĠJudge": 4998,
      "His": 4999,
      "Ġnote": 5000,
      "ĠVIDEO": 5001,
      "Ġast": 5002,
      "Ġintroduced": 5003,
      "Ġmissed": 5004,
      "ĠTay": 5005,
      "bola": 5006,
      "ĠThree": 5007,
      "ĠRyan": 5008,
      "inated": 5009,
      "ĠCur": 5010,
      "Ġdevast": 5011,
      "Ġrecorded": 5012,
      "road": 5013,
      "ĠStar": 5014,
      "Ġroy": 5015,
      "Ġtall": 5016,
      "Ġweak": 5017,
      "Ġstandards": 5018,
      "Ġprem": 5019,
      "fielder": 5020,
      "Ġrape": 5021,
      "Ġanaly": 5022,
      "Ġhoping": 5023,
      "Ġdrivers": 5024,
      "Ġsuggests": 5025,
      "ĠKar": 5026,
      "ĠSl": 5027,
      "Ġrow": 5028,
      "rier": 5029,
      "70": 5030,
      "Ġunique": 5031,
      "oles": 5032,
      "ĠOs": 5033,
      "ĠiPh": 5034,
      "Ġrelative": 5035,
      "Ġbanned": 5036,
      "mother": 5037,
      "Ġsinger": 5038,
      "ez": 5039,
      "acing": 5040,
      "Ġdivor": 5041,
      "Mr": 5042,
      "Ġclin": 5043,
      "reek": 5044,
      "Ġ36": 5045,
      "Ġcontain": 5046,
      "Ġworker": 5047,
      "Ġ195": 5048,
      "aint": 5049,
      "inals": 5050,
      "Ġpen": 5051,
      "ancing": 5052,
      "Ġattempted": 5053,
      "west": 5054,
      "After": 5055,
      "ĠLiber": 5056,
      "Ġpregnant": 5057,
      "Ġpra": 5058,
      "cing": 5059,
      "ĠCentral": 5060,
      "ĠEver": 5061,
      "Ġdecide": 5062,
      "Ġeth": 5063,
      "ĠMurray": 5064,
      "ua": 5065,
      "ĠMos": 5066,
      "Ġentered": 5067,
      "Ġlocation": 5068,
      "Ġcorrect": 5069,
      "ĠUkraine": 5070,
      "Ġsteps": 5071,
      "Ġafford": 5072,
      "Ġchampions": 5073,
      "Ġmainly": 5074,
      "Ġyouth": 5075,
      "Ġuncle": 5076,
      "Ġmuse": 5077,
      "Ġpray": 5078,
      "ĠGra": 5079,
      "Ġlarger": 5080,
      "Ġfailure": 5081,
      "aeda": 5082,
      "Ġforg": 5083,
      "Ġveget": 5084,
      "Ġgay": 5085,
      "Ġinitially": 5086,
      "eman": 5087,
      "rist": 5088,
      "Ġkitchen": 5089,
      "atever": 5090,
      "lement": 5091,
      "Ġarr": 5092,
      "ĠSil": 5093,
      "ĠGroup": 5094,
      "Ġstandard": 5095,
      "ighted": 5096,
      "Ġseriously": 5097,
      "entially": 5098,
      "Ġrates": 5099,
      "Ġconfidence": 5100,
      "ĠKate": 5101,
      "Ġapparently": 5102,
      "âĢĻ,": 5103,
      "fast": 5104,
      "ota": 5105,
      "ani": 5106,
      "Ġsuspended": 5107,
      "ella": 5108,
      "Ġunlike": 5109,
      "ĠKorean": 5110,
      "Ġstores": 5111,
      "Ġcontroll": 5112,
      "icy": 5113,
      "ampton": 5114,
      "ĠRoad": 5115,
      "Ġinvestigators": 5116,
      "Ġlimited": 5117,
      "Ġpaying": 5118,
      "Ġthanks": 5119,
      "Ġess": 5120,
      "ĠOpen": 5121,
      "Ġsources": 5122,
      "pper": 5123,
      "Ġtow": 5124,
      "Ġrub": 5125,
      "bur": 5126,
      "Ġrelax": 5127,
      "ĠTrans": 5128,
      "ĠMailOnline": 5129,
      "Ġclimate": 5130,
      "Every": 5131,
      "ĠFormer": 5132,
      "icine": 5133,
      "Ġimmigration": 5134,
      "bury": 5135,
      "Ġmeasure": 5136,
      "99": 5137,
      "Ġfaced": 5138,
      "Ġliter": 5139,
      "lished": 5140,
      "iano": 5141,
      "Ġcommercial": 5142,
      "Ġriver": 5143,
      "Ġtool": 5144,
      "ĠLi": 5145,
      "Ġfavorite": 5146,
      "Ġmuseum": 5147,
      "Ġ2003": 5148,
      "Ġtruth": 5149,
      "Ġpolitic": 5150,
      "Ġcauses": 5151,
      "35": 5152,
      "Ġcrimes": 5153,
      "appy": 5154,
      "Ġbasket": 5155,
      "Ġlog": 5156,
      "icop": 5157,
      "Ġdomestic": 5158,
      "oured": 5159,
      "ĠCast": 5160,
      "encies": 5161,
      "Ġtast": 5162,
      "Ġguard": 5163,
      "Ġpieces": 5164,
      "idden": 5165,
      "aire": 5166,
      "Ġplays": 5167,
      "ushing": 5168,
      "Ġprograms": 5169,
      "anded": 5170,
      "Ġhappens": 5171,
      "ulate": 5172,
      "Ġpurpose": 5173,
      "Ġfal": 5174,
      "22": 5175,
      "Ġdistrict": 5176,
      "Ġmanufact": 5177,
      "Ġvehicles": 5178,
      "ste": 5179,
      "Ġlux": 5180,
      "Ġaudience": 5181,
      "Ġproced": 5182,
      "stances": 5183,
      "Ġshock": 5184,
      "ittee": 5185,
      "ĠDown": 5186,
      "Ġnegot": 5187,
      "Ġ2015": 5188,
      "Ġdegree": 5189,
      "Ġemotional": 5190,
      "ĠCarolina": 5191,
      "iana": 5192,
      "Ġcircum": 5193,
      "Ġpurs": 5194,
      "Ġprinc": 5195,
      "Ġsmaller": 5196,
      "Ġbudget": 5197,
      "ĠBu": 5198,
      "Ġbehaviour": 5199,
      "castle": 5200,
      "People": 5201,
      "ĠClub": 5202,
      "Ġobject": 5203,
      "Ġprimary": 5204,
      "essed": 5205,
      "Ġseeking": 5206,
      "Ġwilling": 5207,
      "ĠJer": 5208,
      "ĠRomney": 5209,
      "Ġdevices": 5210,
      "ĠJersey": 5211,
      "ibr": 5212,
      "water": 5213,
      "lected": 5214,
      "Ġentertain": 5215,
      "ĠEbola": 5216,
      "asted": 5217,
      "ĠTer": 5218,
      "ordan": 5219,
      "ĠPenn": 5220,
      "Ġsky": 5221,
      "ĠLat": 5222,
      "Ġ34": 5223,
      "Ġprefer": 5224,
      "fit": 5225,
      "Ġ500": 5226,
      "Ġrail": 5227,
      "ĠInstead": 5228,
      "Ġprotesters": 5229,
      "mission": 5230,
      "icken": 5231,
      "Ġbatter": 5232,
      "ivity": 5233,
      "Ġnurs": 5234,
      "Ġflu": 5235,
      "Ġsmile": 5236,
      "Ġpilot": 5237,
      "Ġfilled": 5238,
      "Ġsides": 5239,
      "Ġrid": 5240,
      "abin": 5241,
      "ĠLuc": 5242,
      "ĠReg": 5243,
      "Ġescape": 5244,
      "ĠMount": 5245,
      "Ġmic": 5246,
      "Ġadult": 5247,
      "Ġserving": 5248,
      "Ġstatus": 5249,
      "Ġunusual": 5250,
      "Ġlimit": 5251,
      "Ġchanging": 5252,
      "Ġstands": 5253,
      "Ġwonderful": 5254,
      "Ġsuffer": 5255,
      "Ġdeveloping": 5256,
      "Ġmidfielder": 5257,
      "ĠDemocratic": 5258,
      "ĠDistrict": 5259,
      "Ġnoticed": 5260,
      "Ġbeauty": 5261,
      "ĠKent": 5262,
      "burg": 5263,
      "Ġletters": 5264,
      "ĠEll": 5265,
      "Ġclasses": 5266,
      "umn": 5267,
      "Ġfeature": 5268,
      "Ġboyfriend": 5269,
      "rep": 5270,
      "Ġprove": 5271,
      "ĠHollywood": 5272,
      "Ġtea": 5273,
      "ĠPut": 5274,
      "ĠSpeaking": 5275,
      "Ġallows": 5276,
      "Ġthreatened": 5277,
      "ĠBir": 5278,
      "Ġcelebrate": 5279,
      "ĠWilson": 5280,
      "Ġclubs": 5281,
      "Ġmultiple": 5282,
      "ĠMuse": 5283,
      "ĠSus": 5284,
      "acking": 5285,
      "Ġpleaded": 5286,
      "Ġshortly": 5287,
      "Ġvoters": 5288,
      "Ġsuspected": 5289,
      "ĠKong": 5290,
      "Ġ300": 5291,
      "agic": 5292,
      "Ġconnection": 5293,
      "encing": 5294,
      "Ġpromot": 5295,
      "Ġmig": 5296,
      "Ġplanet": 5297,
      "alk": 5298,
      "Ġpartners": 5299,
      "Ġloan": 5300,
      "irty": 5301,
      "ĠRonald": 5302,
      "Ġguests": 5303,
      "Ġtruck": 5304,
      "Ġdrove": 5305,
      "ĠJenn": 5306,
      "ĠTaylor": 5307,
      "Ġnovel": 5308,
      "ĠHome": 5309,
      "Ġscore": 5310,
      "Ġdismiss": 5311,
      "Ġcompleted": 5312,
      "inn": 5313,
      "ĠHong": 5314,
      "ĠAsia": 5315,
      "ĠOnce": 5316,
      "Ġincome": 5317,
      "Ġneighborhood": 5318,
      "Ġshoes": 5319,
      "ometimes": 5320,
      "Ġprogramme": 5321,
      "Ġasp": 5322,
      "mate": 5323,
      "Ġtend": 5324,
      "ĠOh": 5325,
      "Ġtrend": 5326,
      "sts": 5327,
      "Ġbom": 5328,
      "ĠTony": 5329,
      "Ġgrab": 5330,
      "Ġdramatic": 5331,
      "ĠMid": 5332,
      "Ġsan": 5333,
      "Ġtournament": 5334,
      "ĠThose": 5335,
      "Ġinsurance": 5336,
      "Ġwheel": 5337,
      "Ġroyal": 5338,
      "Ġinstit": 5339,
      "Ġdance": 5340,
      "Ġvideos": 5341,
      "Ġconclud": 5342,
      "Ġwaste": 5343,
      "athan": 5344,
      "Ġcritical": 5345,
      "Ġremove": 5346,
      "ĠCost": 5347,
      "Ġlength": 5348,
      "ĠDi": 5349,
      "anny": 5350,
      "Ġregime": 5351,
      "Ġmurd": 5352,
      "ĠProfessor": 5353,
      "isation": 5354,
      "Ġthank": 5355,
      "Ġspokeswoman": 5356,
      "ĠInstitute": 5357,
      "Ġbail": 5358,
      "Ġcells": 5359,
      "ĠAg": 5360,
      "Ġinvestigating": 5361,
      "Ġruling": 5362,
      "Ġcontent": 5363,
      "Ġobtain": 5364,
      "Ġbear": 5365,
      "24": 5366,
      "law": 5367,
      "Ġexhib": 5368,
      "Ġexplain": 5369,
      "ĠCoast": 5370,
      "ĠBrad": 5371,
      "Ġfreedom": 5372,
      "Ġupset": 5373,
      "met": 5374,
      "ĠGa": 5375,
      "ipe": 5376,
      "Ġmountain": 5377,
      "ĠBank": 5378,
      "Ġenjoyed": 5379,
      "Ġsettle": 5380,
      "outs": 5381,
      "itan": 5382,
      "Ġguy": 5383,
      "ĠKat": 5384,
      "ela": 5385,
      "bum": 5386,
      "Ġupd": 5387,
      "under": 5388,
      "Ġpropos": 5389,
      "ĠCommittee": 5390,
      "Ġforget": 5391,
      "Ġexperienced": 5392,
      "Ġcart": 5393,
      "Ġunit": 5394,
      "These": 5395,
      "Ġdiagnosed": 5396,
      "Now": 5397,
      "Ġprotests": 5398,
      "Ġfraud": 5399,
      "raid": 5400,
      "ĠJeff": 5401,
      "ĠSqu": 5402,
      "ĠVirginia": 5403,
      "Ġestate": 5404,
      "Ġcounts": 5405,
      "Ġmatches": 5406,
      "ĠArt": 5407,
      "Ġcommittee": 5408,
      "lers": 5409,
      "Ġaccepted": 5410,
      "Ġseek": 5411,
      "ixt": 5412,
      "Ġcontroversial": 5413,
      "olic": 5414,
      "Ġgreatest": 5415,
      "To": 5416,
      "Ġactress": 5417,
      "Ġstrength": 5418,
      "ittle": 5419,
      "Ġkinds": 5420,
      "Ġindividuals": 5421,
      "Ġoffering": 5422,
      "ĠOx": 5423,
      "inho": 5424,
      "Ġcommission": 5425,
      "uction": 5426,
      "ĠDemocrats": 5427,
      "Ġsom": 5428,
      "itely": 5429,
      "Ġsupposed": 5430,
      "ĠiPhone": 5431,
      "ĠTor": 5432,
      "vention": 5433,
      "Ġterrorist": 5434,
      "Ġpush": 5435,
      "Ġder": 5436,
      "Ar": 5437,
      "ĠEach": 5438,
      "Ġaband": 5439,
      "sey": 5440,
      "kin": 5441,
      "itors": 5442,
      "Ġcontest": 5443,
      "iter": 5444,
      "Ġdeclared": 5445,
      "Ġbatt": 5446,
      "Ġdelay": 5447,
      "Ġbabies": 5448,
      "Ġnotice": 5449,
      "Ġ194": 5450,
      "ĠDun": 5451,
      "phy": 5452,
      "Ġshape": 5453,
      "ĠYoung": 5454,
      "cri": 5455,
      "Ġdestroyed": 5456,
      "Ġestablished": 5457,
      "Ġtemperatures": 5458,
      "Ġfifth": 5459,
      "ĠStephen": 5460,
      "ilton": 5461,
      "ĠMem": 5462,
      "Ġadditional": 5463,
      "Ġprotection": 5464,
      "Ġshocked": 5465,
      "venue": 5466,
      "Ġpaint": 5467,
      "orted": 5468,
      "icon": 5469,
      "Ġbigger": 5470,
      "ĠNations": 5471,
      "Ġrooms": 5472,
      "Ġancient": 5473,
      "ĠSarah": 5474,
      "Ġfeels": 5475,
      "Ġeasier": 5476,
      "Ġ1990": 5477,
      "ĠCath": 5478,
      "ĠShar": 5479,
      "agedy": 5480,
      "ĠProt": 5481,
      "Ġhelicop": 5482,
      "ronic": 5483,
      "ĠAirport": 5484,
      "Ġfilms": 5485,
      "Ġfears": 5486,
      "Ġcuts": 5487,
      "Ġtaught": 5488,
      "Ġbrothers": 5489,
      "ials": 5490,
      "Ġdipl": 5491,
      "agon": 5492,
      "Ġmeal": 5493,
      "ayne": 5494,
      "just": 5495,
      "Ġgeneration": 5496,
      "ĠMuseum": 5497,
      "Un": 5498,
      "Ġmaybe": 5499,
      "ĠBoy": 5500,
      "Ġadvantage": 5501,
      "gen": 5502,
      "Ġstuff": 5503,
      "Ġtiny": 5504,
      "Ġwake": 5505,
      "quar": 5506,
      "ĠGeorgia": 5507,
      "ĠJess": 5508,
      "Pol": 5509,
      "Ġfalse": 5510,
      "ĠNewcastle": 5511,
      "ining": 5512,
      "ĠWel": 5513,
      "Ġsorry": 5514,
      "ĠOur": 5515,
      "rawn": 5516,
      "lyn": 5517,
      "Ġcolleagues": 5518,
      "âĢĵ": 5519,
      "ios": 5520,
      "Ġ2000": 5521,
      "Ġbackground": 5522,
      "Ġleadership": 5523,
      "Ġfalling": 5524,
      "Ġsaved": 5525,
      "Ġvirus": 5526,
      "Ġhat": 5527,
      "Ġmoon": 5528,
      "Ġelder": 5529,
      "ĠFound": 5530,
      "Ġmir": 5531,
      "rison": 5532,
      "thony": 5533,
      "ĠLong": 5534,
      "Ġscheduled": 5535,
      "Ġoverse": 5536,
      "ĠRam": 5537,
      "ĠZeal": 5538,
      "Sh": 5539,
      "Ġthinks": 5540,
      "Ġticket": 5541,
      "Ġgather": 5542,
      "Ġbow": 5543,
      "isa": 5544,
      "ĠCarl": 5545,
      "Ġ2001": 5546,
      "ĠWhere": 5547,
      "Ġspect": 5548,
      "Ġrecover": 5549,
      "know": 5550,
      "itals": 5551,
      "ĠSing": 5552,
      "Ġmostly": 5553,
      "Ġdesper": 5554,
      "Ġallowing": 5555,
      "apping": 5556,
      "Ġtears": 5557,
      "ĠIsraeli": 5558,
      "Ġir": 5559,
      "Ġcards": 5560,
      "Ġremind": 5561,
      "ĠOut": 5562,
      "Ġturning": 5563,
      "NEW": 5564,
      "rig": 5565,
      "Ġregularly": 5566,
      "Ġorganiz": 5567,
      "ĠJordan": 5568,
      "Ġconversation": 5569,
      "ĠSports": 5570,
      "ques": 5571,
      "Ġuser": 5572,
      "':": 5573,
      "Ġinspired": 5574,
      "Ġopinion": 5575,
      "ĠTour": 5576,
      "Ġrecovery": 5577,
      "ĠKh": 5578,
      "Ġlady": 5579,
      "Ġcorner": 5580,
      "Ġsmoke": 5581,
      "arents": 5582,
      "Ġlands": 5583,
      "father": 5584,
      "town": 5585,
      "olen": 5586,
      "Ġspoken": 5587,
      "Ġafraid": 5588,
      "ront": 5589,
      "aughters": 5590,
      "Ġlisten": 5591,
      "Ġplastic": 5592,
      "Ġsight": 5593,
      "Ġacad": 5594,
      "Ġswimming": 5595,
      "Ġspirit": 5596,
      "illy": 5597,
      "ĠGuard": 5598,
      "otic": 5599,
      "mosp": 5600,
      "Ġincreasingly": 5601,
      "Ġstret": 5602,
      "Ġlucky": 5603,
      "Ġacqu": 5604,
      "ĠFire": 5605,
      "Ġtradition": 5606,
      "Ġnut": 5607,
      "ĠDNA": 5608,
      "Ġestablish": 5609,
      "Ġsuppl": 5610,
      "Ġenforcement": 5611,
      "lig": 5612,
      "abeth": 5613,
      "Ġking": 5614,
      "aming": 5615,
      "Ġmum": 5616,
      "Ġpolitics": 5617,
      "OR": 5618,
      "CA": 5619,
      "Ġgrown": 5620,
      "ĠDie": 5621,
      "Ġmanagement": 5622,
      "Ġspar": 5623,
      "ĠZealand": 5624,
      "Ġfaith": 5625,
      "Ġprosecutors": 5626,
      "owned": 5627,
      "Ġsche": 5628,
      "Ġowned": 5629,
      "evin": 5630,
      "Ġsetting": 5631,
      "Ġassistant": 5632,
      "Ġsympt": 5633,
      "!'": 5634,
      "Ġfriendly": 5635,
      "ocal": 5636,
      "Ġspring": 5637,
      "ctions": 5638,
      "gers": 5639,
      "Ġflowers": 5640,
      "Ġkidn": 5641,
      "ĠVer": 5642,
      "ĠPlay": 5643,
      "ĠLet": 5644,
      "Ġresponded": 5645,
      "ĠMoham": 5646,
      "Ġprime": 5647,
      "Ġimpl": 5648,
      "Ġcandidate": 5649,
      "Ġlights": 5650,
      "emen": 5651,
      "Ġcas": 5652,
      "Ġwidely": 5653,
      "ON": 5654,
      "ipl": 5655,
      "ĠSup": 5656,
      "Ġslight": 5657,
      "Ġunp": 5658,
      "Ġstone": 5659,
      "Ġtack": 5660,
      "Ġalbum": 5661,
      "Ġemail": 5662,
      "ework": 5663,
      "ĠQaeda": 5664,
      "Ġnegative": 5665,
      "Ġpitch": 5666,
      "ĠNiger": 5667,
      "ossible": 5668,
      "mes": 5669,
      "ĠFoll": 5670,
      "ĠPac": 5671,
      "Ġsatisf": 5672,
      "ĠCambridge": 5673,
      "Ġteaching": 5674,
      "Ġtweeted": 5675,
      "ĠMcD": 5676,
      "ĠOlympics": 5677,
      "Ġbike": 5678,
      "Ġfindings": 5679,
      "Ġearthqu": 5680,
      "ĠWell": 5681,
      "Ġscandal": 5682,
      "Ġbelief": 5683,
      "Ġparent": 5684,
      "war": 5685,
      "ĠMont": 5686,
      "erous": 5687,
      "Ġsending": 5688,
      "ĠFour": 5689,
      "ien": 5690,
      "ĠAnt": 5691,
      "works": 5692,
      "Ġresources": 5693,
      "racted": 5694,
      "ĠAv": 5695,
      "Ġtemperature": 5696,
      "Ġcoin": 5697,
      "Ġgift": 5698,
      "Ġbasic": 5699,
      "Ġ2002": 5700,
      "ovic": 5701,
      "obody": 5702,
      "OP": 5703,
      "iban": 5704,
      "ĠScient": 5705,
      "Ġagent": 5706,
      "Ġmoments": 5707,
      "ĠSimon": 5708,
      "oked": 5709,
      "onym": 5710,
      "Ġbusinesses": 5711,
      "ĠDes": 5712,
      "Ġunderstanding": 5713,
      "Ġopt": 5714,
      "emic": 5715,
      "Ġdistance": 5716,
      "IA": 5717,
      "Ġbuying": 5718,
      "Ġproviding": 5719,
      "ĠHenry": 5720,
      "ĠEliz": 5721,
      "ova": 5722,
      "ulf": 5723,
      "Ġexcited": 5724,
      "wise": 5725,
      "Ġduty": 5726,
      "Ġfuneral": 5727,
      "ĠPre": 5728,
      "Ġaccounts": 5729,
      "ĠNic": 5730,
      "Ġdomin": 5731,
      "Ġreaction": 5732,
      "Ġpassenger": 5733,
      "Ġcoal": 5734,
      "break": 5735,
      "Ġunderstood": 5736,
      "kshire": 5737,
      "Ġyellow": 5738,
      "Ġphotographs": 5739,
      "Ġteenagers": 5740,
      "Ġrepeatedly": 5741,
      "Ġbags": 5742,
      "rum": 5743,
      "Ġinvolve": 5744,
      "ĠTre": 5745,
      "Ġ38": 5746,
      "Ġaltern": 5747,
      "Ġregister": 5748,
      "Ġdisappear": 5749,
      "ĠCub": 5750,
      "Ġmodels": 5751,
      "ĠResearch": 5752,
      "Ġreceiving": 5753,
      "iated": 5754,
      "Ġhasn": 5755,
      "Ġnations": 5756,
      "Ġsuddenly": 5757,
      "arrass": 5758,
      "ĠTy": 5759,
      "istics": 5760,
      "ĠSol": 5761,
      "Ġconsult": 5762,
      "Ġdeclined": 5763,
      "Ġnoted": 5764,
      "Ġtourists": 5765,
      "agement": 5766,
      "Ġreturning": 5767,
      "ĠFoot": 5768,
      "Ġwithd": 5769,
      "ĠEric": 5770,
      "ĠAnthony": 5771,
      "ortunately": 5772,
      "Ġstruggling": 5773,
      "Ġstayed": 5774,
      "ĠStr": 5775,
      "Ġcloser": 5776,
      "Ġacknow": 5777,
      "ĠForeign": 5778,
      "Ġcomed": 5779,
      "ĠCEO": 5780,
      "acks": 5781,
      "Ġamid": 5782,
      "Ġunivers": 5783,
      "long": 5784,
      "uly": 5785,
      "ĠPros": 5786,
      "ensions": 5787,
      "ĠUs": 5788,
      "gus": 5789,
      "Ġurg": 5790,
      "Ġflights": 5791,
      "Ġsquare": 5792,
      "ĠFox": 5793,
      "Ġ37": 5794,
      "arez": 5795,
      "Ġflo": 5796,
      "hi": 5797,
      "foot": 5798,
      "90": 5799,
      "Ġdefender": 5800,
      "ola": 5801,
      "Ġdetermine": 5802,
      "Ġvisiting": 5803,
      "Ġclothing": 5804,
      "Ġequal": 5805,
      "Ġinstruct": 5806,
      "Ġholds": 5807,
      "ography": 5808,
      "Ġcreating": 5809,
      "Ġ48": 5810,
      "upp": 5811,
      "astern": 5812,
      "ĠDutch": 5813,
      "Ġble": 5814,
      "Ġpal": 5815,
      "Ġdaughters": 5816,
      "Ġstrange": 5817,
      "Ġrising": 5818,
      "Ġpresence": 5819,
      "Ġdefence": 5820,
      "ĠMaria": 5821,
      "Ġ42": 5822,
      "ĠLake": 5823,
      "Ġcomfortable": 5824,
      "Is": 5825,
      "Ġgain": 5826,
      "ĠLind": 5827,
      "Ġdecisions": 5828,
      "hour": 5829,
      "Ġsecretary": 5830,
      "vestig": 5831,
      "Ġbringing": 5832,
      "Ġperformed": 5833,
      "Ġbecomes": 5834,
      "Ġsett": 5835,
      "vant": 5836,
      "Ġdebt": 5837,
      "ece": 5838,
      "pay": 5839,
      "Ġreact": 5840,
      "Ġbreast": 5841,
      "Ġstatements": 5842,
      "ĠSupreme": 5843,
      "ĠPortug": 5844,
      "Tube": 5845,
      "ĠMichel": 5846,
      "rupt": 5847,
      "Ġcomputers": 5848,
      "Ġmaster": 5849,
      "Ġnur": 5850,
      "ĠLo": 5851,
      "Ġmilk": 5852,
      "Ġfavourite": 5853,
      "Ġencourage": 5854,
      "lets": 5855,
      "Ġscoring": 5856,
      "Ġoriginally": 5857,
      "Ġgenerally": 5858,
      "Ġsust": 5859,
      "ĠHotel": 5860,
      "With": 5861,
      "ĠGaal": 5862,
      "Ġpushed": 5863,
      "Ġoccup": 5864,
      "asters": 5865,
      "ĠConn": 5866,
      "Ġabsolutely": 5867,
      "makers": 5868,
      "Ġprovides": 5869,
      "ĠTaliban": 5870,
      "Ġwore": 5871,
      "ĠCommun": 5872,
      "Ġdry": 5873,
      "urban": 5874,
      "amin": 5875,
      "Ġeastern": 5876,
      "Ġsplit": 5877,
      "Ġconstruction": 5878,
      "Ġcommunities": 5879,
      "porary": 5880,
      "coming": 5881,
      "ĠBeach": 5882,
      "Ġtalked": 5883,
      "billion": 5884,
      "Ġterrit": 5885,
      "ĠMess": 5886,
      "osure": 5887,
      "Ġatmosp": 5888,
      "Ġsuc": 5889,
      "Ġstolen": 5890,
      "Ġdamaged": 5891,
      "arch": 5892,
      "ĠMedical": 5893,
      "IN": 5894,
      "ĠConserv": 5895,
      "keeper": 5896,
      "ĠGal": 5897,
      "Ġproved": 5898,
      "ĠPalest": 5899,
      "Ġcriticism": 5900,
      "Ġfant": 5901,
      "standing": 5902,
      "ĠTurkey": 5903,
      "ĠCal": 5904,
      "ĠAbout": 5905,
      "IC": 5906,
      "Ġmistake": 5907,
      "Ġathlet": 5908,
      "ĠBor": 5909,
      "ĠLife": 5910,
      "ĠEarlier": 5911,
      "ĠDou": 5912,
      "ĠDev": 5913,
      "300": 5914,
      "part": 5915,
      "Ġtired": 5916,
      "Ġpleas": 5917,
      "Ġcong": 5918,
      "Ġgat": 5919,
      "Ġnotes": 5920,
      "ĠFamily": 5921,
      "ottenham": 5922,
      "ĠChampionship": 5923,
      "ĠAndy": 5924,
      "Ġretail": 5925,
      "ĠLewis": 5926,
      "ĠOnly": 5927,
      "Ġworldwide": 5928,
      "aza": 5929,
      "Ġtight": 5930,
      "zona": 5931,
      "Ġfrust": 5932,
      "Ġidentity": 5933,
      "Ġbasis": 5934,
      "Ġhole": 5935,
      "Ġsecure": 5936,
      "nedy": 5937,
      "idel": 5938,
      "Ġformed": 5939,
      "boy": 5940,
      "ĠDirect": 5941,
      "urd": 5942,
      "ĠCentre": 5943,
      "Ġ1980": 5944,
      "ĠKelly": 5945,
      "Ġstudying": 5946,
      "Ġinquir": 5947,
      "ĠYet": 5948,
      "ĠRog": 5949,
      "alling": 5950,
      "ĠYouTube": 5951,
      "etts": 5952,
      "Ġcameras": 5953,
      "ulance": 5954,
      "Ġfruit": 5955,
      "Ġstick": 5956,
      "Ġlying": 5957,
      "BS": 5958,
      "ashes": 5959,
      "American": 5960,
      "Ġton": 5961,
      "Ġterrible": 5962,
      "ĠRay": 5963,
      "Ġsymptoms": 5964,
      "Ġrelatives": 5965,
      "inct": 5966,
      "olk": 5967,
      "ĠFord": 5968,
      "Ġelections": 5969,
      "bro": 5970,
      "ext": 5971,
      "Ġsubst": 5972,
      "Ġmans": 5973,
      "Ġexchange": 5974,
      "sters": 5975,
      "Ġmyster": 5976,
      "Ġdressed": 5977,
      "ĠSea": 5978,
      "Ġquestioned": 5979,
      "ĠElizabeth": 5980,
      "Ġsymbol": 5981,
      "Ġsurvived": 5982,
      "ĠGard": 5983,
      "Ġtypes": 5984,
      "Ġdisaster": 5985,
      "Ġsupply": 5986,
      "ĠTory": 5987,
      "Ġcolour": 5988,
      "Ġluxury": 5989,
      "Ġintended": 5990,
      "Ġeditor": 5991,
      "ĠKevin": 5992,
      "Ġarchit": 5993,
      "Ġfeelings": 5994,
      "Ġded": 5995,
      "Ġpattern": 5996,
      "Ġhousehold": 5997,
      "Ġmovies": 5998,
      "Ġlawyers": 5999,
      "Ġinvolving": 6000,
      "ĠUSA": 6001,
      "Ġroads": 6002,
      "ban": 6003,
      "Ġinches": 6004,
      "Ġpolicies": 6005,
      "ĠAdam": 6006,
      "iami": 6007,
      "ishes": 6008,
      "Ġurged": 6009,
      "Ġplat": 6010,
      "bourne": 6011,
      "Ġliber": 6012,
      "Ġqual": 6013,
      "Ġcircumstances": 6014,
      "Ġempt": 6015,
      "abled": 6016,
      "Ġargued": 6017,
      "Ġtargeted": 6018,
      "Ġanalys": 6019,
      "Ġconfirm": 6020,
      "Ġheads": 6021,
      "afe": 6022,
      "Ġocean": 6023,
      "ĠCard": 6024,
      "Ġtickets": 6025,
      "star": 6026,
      "ĠKennedy": 6027,
      "Ġassociated": 6028,
      "azi": 6029,
      "Ġsurrounding": 6030,
      "Ġlawsuit": 6031,
      "Ġrushed": 6032,
      "ĠNorthern": 6033,
      "Ġdiscover": 6034,
      "rees": 6035,
      "ĠSav": 6036,
      "aled": 6037,
      "eph": 6038,
      "ĠMatt": 6039,
      "icket": 6040,
      "tered": 6041,
      "Police": 6042,
      "ĠCorn": 6043,
      "ĠYour": 6044,
      "ĠMour": 6045,
      "Ġperman": 6046,
      "Ġhabit": 6047,
      "ĠAgency": 6048,
      "ĠForce": 6049,
      "ĠEr": 6050,
      "Be": 6051,
      "ĠColor": 6052,
      "adian": 6053,
      "Ġblind": 6054,
      "Ġknife": 6055,
      "Ġretired": 6056,
      "mingham": 6057,
      "Ġwestern": 6058,
      "Ġhousing": 6059,
      "ruption": 6060,
      "Ġbasketball": 6061,
      "ĠBow": 6062,
      "Ġhappening": 6063,
      "75": 6064,
      "Ġpock": 6065,
      "ĠAlso": 6066,
      "Ġpunish": 6067,
      "clusive": 6068,
      "Ġearned": 6069,
      "Ġsounds": 6070,
      "Ġlargely": 6071,
      "ĠScottish": 6072,
      "gl": 6073,
      "ĠSouthampton": 6074,
      "ĠDiego": 6075,
      "iat": 6076,
      "Ġwine": 6077,
      "icit": 6078,
      "Ġchances": 6079,
      "ĠMiller": 6080,
      "Ġstruggle": 6081,
      "Ġreplied": 6082,
      "achus": 6083,
      "ĠNavy": 6084,
      "Ġconducted": 6085,
      "Ġshots": 6086,
      "Ġrealized": 6087,
      "Ġshar": 6088,
      "Ġdirection": 6089,
      "Ġprovince": 6090,
      "Ġdepart": 6091,
      "wich": 6092,
      "ĠRock": 6093,
      "Ġcalm": 6094,
      "Ġmetal": 6095,
      "ĠHolland": 6096,
      "istor": 6097,
      "Ġtragedy": 6098,
      "va": 6099,
      "Ġsoldier": 6100,
      "ĠInc": 6101,
      "Ġslowly": 6102,
      "ĠHuman": 6103,
      "Ġdating": 6104,
      "Ġconcent": 6105,
      "Ġsongs": 6106,
      "Ġdetect": 6107,
      "fire": 6108,
      "acters": 6109,
      "Ġboost": 6110,
      "ocolate": 6111,
      "Ġrapid": 6112,
      "Ġdeadly": 6113,
      "ospitals": 6114,
      "Ġweigh": 6115,
      "Ġinnoc": 6116,
      "ga": 6117,
      "ĠMir": 6118,
      "ette": 6119,
      "ĠHay": 6120,
      "Ġoppon": 6121,
      "iversary": 6122,
      "Ġfled": 6123,
      "Ġ1970": 6124,
      "Ġsmoking": 6125,
      "ĠArizona": 6126,
      "Ġsoftware": 6127,
      "bel": 6128,
      "ĠBelg": 6129,
      "Ġsons": 6130,
      "utation": 6131,
      "Ġsigning": 6132,
      "Ġchildhood": 6133,
      "irts": 6134,
      "Ġpresented": 6135,
      "ĠHug": 6136,
      "Ġkilomet": 6137,
      "ĠBol": 6138,
      "Ġtesting": 6139,
      "Ġlessons": 6140,
      "ader": 6141,
      "ĠMPs": 6142,
      "run": 6143,
      "Ġidentify": 6144,
      "Ġchallenges": 6145,
      "ĠFrancisco": 6146,
      "ihad": 6147,
      "Ġimpossible": 6148,
      "Ġembarrass": 6149,
      "Ġshirt": 6150,
      "employ": 6151,
      "Ġnative": 6152,
      "Ġvast": 6153,
      "Ġgrandmother": 6154,
      "Ġrough": 6155,
      "Ġacting": 6156,
      "osis": 6157,
      "Ġreplaced": 6158,
      "Ġeleph": 6159,
      "Ġbreakfast": 6160,
      "Ġroute": 6161,
      "Ġfunction": 6162,
      "Ġmort": 6163,
      "']": 6164,
      "ĠBirmingham": 6165,
      "Ġfewer": 6166,
      "ko": 6167,
      "ĠGreek": 6168,
      "Ġhonest": 6169,
      "Ġraid": 6170,
      "rific": 6171,
      "ĠNA": 6172,
      "achusetts": 6173,
      "Ġplenty": 6174,
      "Ġplot": 6175,
      "Ġstarts": 6176,
      "aken": 6177,
      "Ġmothers": 6178,
      "Ġ['": 6179,
      "bits": 6180,
      "FL": 6181,
      "Ġblame": 6182,
      "ĠMiami": 6183,
      "36": 6184,
      "Ġboot": 6185,
      "ĠAbd": 6186,
      "Ġfoods": 6187,
      "weight": 6188,
      "Sp": 6189,
      "Ġfocused": 6190,
      "Ġguns": 6191,
      "Ġsweet": 6192,
      "Ġsurge": 6193,
      "Ġconsist": 6194,
      "Ġwhatever": 6195,
      "uche": 6196,
      "ĠGP": 6197,
      "Ġanger": 6198,
      "Ġoccasion": 6199,
      "Ġ55": 6200,
      "Ġdistrib": 6201,
      "you": 6202,
      "Ġrival": 6203,
      "usion": 6204,
      "Ġlie": 6205,
      "Ġ150": 6206,
      "izz": 6207,
      "Ġsession": 6208,
      "Ġremaining": 6209,
      "thew": 6210,
      "tt": 6211,
      "Ġbars": 6212,
      "ĠLike": 6213,
      "ipping": 6214,
      "ĠSwed": 6215,
      "Ġcondem": 6216,
      "Ġconsequ": 6217,
      "Ġsole": 6218,
      "Ġhonor": 6219,
      "Ġsurvive": 6220,
      "Ġham": 6221,
      "ĠBet": 6222,
      "ĠMinistry": 6223,
      "ĠĠĠĠĠĠĠĠĠĠĠĠĠĠĠĠ": 6224,
      "ords": 6225,
      "place": 6226,
      "Ġsurve": 6227,
      "Ġproposed": 6228,
      "abor": 6229,
      "Ġcharacters": 6230,
      "Ġsought": 6231,
      "Ġneighbour": 6232,
      "Ġdebut": 6233,
      "Ġincredible": 6234,
      "Ġtennis": 6235,
      "Ġlabor": 6236,
      "Ġmicro": 6237,
      "Ġbreaking": 6238,
      "Ġpassing": 6239,
      "Ġauction": 6240,
      "guson": 6241,
      "pers": 6242,
      "ifts": 6243,
      "Ġreduced": 6244,
      "Ġwounded": 6245,
      "ĠRoberts": 6246,
      "Ġlibr": 6247,
      "Ġscr": 6248,
      "Ġcultural": 6249,
      "rip": 6250,
      "Ġmagn": 6251,
      "ĠJose": 6252,
      "attan": 6253,
      "isher": 6254,
      "ĠAuthorities": 6255,
      "ias": 6256,
      "Ġbroadcast": 6257,
      "Ġabroad": 6258,
      "iley": 6259,
      "BA": 6260,
      "Ġvariety": 6261,
      "ĠBus": 6262,
      "ĠOk": 6263,
      "Ġweapon": 6264,
      "related": 6265,
      "Ġcloud": 6266,
      "estyle": 6267,
      "ĠFin": 6268,
      "ĠAre": 6269,
      "ĠAh": 6270,
      "21": 6271,
      "osen": 6272,
      "aze": 6273,
      "Ġsupported": 6274,
      "file": 6275,
      "oom": 6276,
      "Ġtransform": 6277,
      "Ġnor": 6278,
      "ĠSky": 6279,
      "Ġ44": 6280,
      "ĠOsc": 6281,
      "ĠTottenham": 6282,
      "Ġastron": 6283,
      "Ġphotographer": 6284,
      "ita": 6285,
      "Ġrecru": 6286,
      "ĠJane": 6287,
      "icip": 6288,
      "hens": 6289,
      "itzer": 6290,
      "rate": 6291,
      "ĠCat": 6292,
      "ria": 6293,
      "Ġbottle": 6294,
      "Ġ43": 6295,
      "Ġpossibility": 6296,
      "Ġpromised": 6297,
      "Ġhall": 6298,
      "Ġinterests": 6299,
      "Ġmilitants": 6300,
      "Ġsees": 6301,
      "ĠJam": 6302,
      "Ġfallen": 6303,
      "Ġnurse": 6304,
      "Ġchose": 6305,
      "Ġacts": 6306,
      "Ġthreats": 6307,
      "Â£": 6308,
      "Ġtask": 6309,
      "Ġchest": 6310,
      "iform": 6311,
      "Ġmedicine": 6312,
      "oner": 6313,
      "aug": 6314,
      "state": 6315,
      "Ġstaying": 6316,
      "Ġexperiences": 6317,
      "Ġtrained": 6318,
      "ucks": 6319,
      "ĠMars": 6320,
      "Ġgathered": 6321,
      "ĠAttorney": 6322,
      "Ġanx": 6323,
      "iner": 6324,
      "Ġagents": 6325,
      "izes": 6326,
      "Ġseats": 6327,
      "worth": 6328,
      "rav": 6329,
      "ĠMorgan": 6330,
      "Ġtomorrow": 6331,
      "Ġmer": 6332,
      "mitted": 6333,
      "Ġrestaurants": 6334,
      "Ġhoped": 6335,
      "cont": 6336,
      "Ġfailing": 6337,
      "Ġanniversary": 6338,
      "Ġtheory": 6339,
      "ses": 6340,
      "EA": 6341,
      "Then": 6342,
      "Ġhistoric": 6343,
      "ĠPan": 6344,
      "ĠSecond": 6345,
      "ww": 6346,
      "ĠStadium": 6347,
      "Ġpossibly": 6348,
      "ĠMun": 6349,
      "ĠFoundation": 6350,
      "Ġinitial": 6351,
      "Ġdescribe": 6352,
      "Ġ39": 6353,
      "Ġknowing": 6354,
      "Ġsear": 6355,
      "Ġthoughts": 6356,
      "Ġshops": 6357,
      "ĠPrin": 6358,
      "Ġsteal": 6359,
      "enses": 6360,
      "ĠColorado": 6361,
      "ifer": 6362,
      "Ġcrashed": 6363,
      "Ġdesigner": 6364,
      "Ġvess": 6365,
      "ĠYor": 6366,
      "Ġbegins": 6367,
      "Ġbond": 6368,
      "ulner": 6369,
      "Ġatmosphere": 6370,
      "Ġmayor": 6371,
      "Ġplease": 6372,
      "ĠDavis": 6373,
      "Ġnose": 6374,
      "ĠTen": 6375,
      "Ġfeatured": 6376,
      "Ġroof": 6377,
      "mad": 6378,
      "eren": 6379,
      "ĠEs": 6380,
      "ĠMassachusetts": 6381,
      "ĠParliament": 6382,
      "aks": 6383,
      "23": 6384,
      "Ġgovernor": 6385,
      "Ġgolf": 6386,
      "Ġoverall": 6387,
      "Ġdigital": 6388,
      "Ġchain": 6389,
      "Ġattempts": 6390,
      "Ġ+": 6391,
      "Ġexciting": 6392,
      "Ġfestival": 6393,
      "Ġepis": 6394,
      "Ġsection": 6395,
      "Ġgrass": 6396,
      "ĠFerguson": 6397,
      "ournal": 6398,
      "ĠBa": 6399,
      "ĠArgentina": 6400,
      "Ġinvestment": 6401,
      "Ġqualif": 6402,
      "ĠDam": 6403,
      "ĠPalestin": 6404,
      "Ġprec": 6405,
      "Ġparking": 6406,
      "Ġdrinks": 6407,
      "Ġstuck": 6408,
      "ĠPutin": 6409,
      "rah": 6410,
      "ĠUp": 6411,
      "Ġbridge": 6412,
      "Ġarrive": 6413,
      "Ġinvited": 6414,
      "Ġfunding": 6415,
      "Ġbeaten": 6416,
      "Ġparliament": 6417,
      "uchess": 6418,
      "Ġ#": 6419,
      "idays": 6420,
      "emb": 6421,
      "market": 6422,
      "Ġfaster": 6423,
      "Ġwelcome": 6424,
      "Ġelderly": 6425,
      "Ġ65": 6426,
      "Ġsuspects": 6427,
      "Ġ2016": 6428,
      "Ġtested": 6429,
      "Ġsleeping": 6430,
      "ĠCont": 6431,
      "Ġfought": 6432,
      "Ġ75": 6433,
      "Ġoption": 6434,
      "Ġgoods": 6435,
      "ĠAlan": 6436,
      "Ġremote": 6437,
      "Ġforms": 6438,
      "28": 6439,
      "ĠIts": 6440,
      "Ġtim": 6441,
      "Ġnumerous": 6442,
      "nic": 6443,
      "stein": 6444,
      "ulted": 6445,
      "Ġdelivered": 6446,
      "Ġoperating": 6447,
      "Ġaffair": 6448,
      "Ġcoc": 6449,
      "Ġloud": 6450,
      "Ġ400": 6451,
      "Ġce": 6452,
      "Ġtur": 6453,
      "fall": 6454,
      "cow": 6455,
      "Ġimportance": 6456,
      "anna": 6457,
      "Ġmap": 6458,
      "pet": 6459,
      "Ġsolar": 6460,
      "rad": 6461,
      "lease": 6462,
      "ĠCross": 6463,
      "ĠAmong": 6464,
      "ĠManh": 6465,
      "minute": 6466,
      "Ġcomplaint": 6467,
      "Ġproperly": 6468,
      "Ġcorpor": 6469,
      "Ġimmediate": 6470,
      "ĠMand": 6471,
      "26": 6472,
      "ĠZim": 6473,
      "Ġut": 6474,
      "Ġgall": 6475,
      "Ġkick": 6476,
      "Ġstadium": 6477,
      "la": 6478,
      "roat": 6479,
      "Ġadvent": 6480,
      "ario": 6481,
      "Ġjoy": 6482,
      "Ġsch": 6483,
      "ologists": 6484,
      "Ġauthority": 6485,
      "Ġannouncement": 6486,
      "Ġrejected": 6487,
      "Ġfacility": 6488,
      "Ġreferred": 6489,
      "ĠInvestig": 6490,
      "Ġbare": 6491,
      "Ġicon": 6492,
      "ĠMatthew": 6493,
      "ĠWind": 6494,
      "PR": 6495,
      "ĠTime": 6496,
      "Ġcollaps": 6497,
      "Ex": 6498,
      "Ġclassroom": 6499,
      "Ġhal": 6500,
      "istol": 6501,
      "ĠSud": 6502,
      "pir": 6503,
      "Ġjet": 6504,
      "Ġbathroom": 6505,
      "ĠSquare": 6506,
      "ĠValley": 6507,
      "Ġscream": 6508,
      "Ġretire": 6509,
      "ĠOhio": 6510,
      "ĠHor": 6511,
      "Ġtransl": 6512,
      "Ġbanks": 6513,
      "Ġteeth": 6514,
      "Ġtravelling": 6515,
      "Ġhung": 6516,
      "Ġbalance": 6517,
      "Ġunion": 6518,
      "OT": 6519,
      "Ġment": 6520,
      "Ġscheme": 6521,
      "Ġcommand": 6522,
      "Ġtelephone": 6523,
      "Ġheavily": 6524,
      "heast": 6525,
      "Ġjack": 6526,
      "Her": 6527,
      "igaret": 6528,
      "Ġconnected": 6529,
      "Ġnone": 6530,
      "Ġtraveling": 6531,
      "Ġdemocr": 6532,
      "ĠProsecut": 6533,
      "Ġvirt": 6534,
      "Ġprepare": 6535,
      "ĠCho": 6536,
      "Ġscientific": 6537,
      "27": 6538,
      "agram": 6539,
      "Ġfighters": 6540,
      "Ġsolution": 6541,
      "Do": 6542,
      "Ġdrag": 6543,
      "Ġemployee": 6544,
      "ĠHou": 6545,
      "Ġmeals": 6546,
      "ĠRooney": 6547,
      "Ġassess": 6548,
      "lec": 6549,
      "Ġkeen": 6550,
      "Ġwaters": 6551,
      "okes": 6552,
      "Ġ46": 6553,
      "Ġpig": 6554,
      "ĠColl": 6555,
      "ĠManhattan": 6556,
      "Ġcarefully": 6557,
      "ĠBridge": 6558,
      "omach": 6559,
      "Ġbeating": 6560,
      "Ġkiss": 6561,
      "Ġdozens": 6562,
      "ĠHart": 6563,
      "Ġpupils": 6564,
      "Ġrat": 6565,
      "ĠAcad": 6566,
      "Ġmotiv": 6567,
      "Ġbin": 6568,
      "Ġjumped": 6569,
      "Ġdeploy": 6570,
      "Ġearn": 6571,
      "Ġunless": 6572,
      "ĠCook": 6573,
      "Ġrum": 6574,
      "Ġeggs": 6575,
      "Ġmaterials": 6576,
      "Ġrecovered": 6577,
      "ĠTrust": 6578,
      "Ġmax": 6579,
      "400": 6580,
      "ĠHun": 6581,
      "Ġdoors": 6582,
      "ĠRead": 6583,
      "Ġtruly": 6584,
      "Ġtort": 6585,
      "how": 6586,
      "rage": 6587,
      "ĠBern": 6588,
      "Ġgym": 6589,
      "Ġdriven": 6590,
      "ĠGreece": 6591,
      "Ġunlikely": 6592,
      "Ġimagine": 6593,
      "Ġvice": 6594,
      "ĠWomen": 6595,
      "Ġdisappeared": 6596,
      "Ġraising": 6597,
      "Ġleads": 6598,
      "Ġlanding": 6599,
      "Ġresist": 6600,
      "ĠFort": 6601,
      "Ġcommunication": 6602,
      "Ġlegislation": 6603,
      "imp": 6604,
      "Ġconsidering": 6605,
      "Ġenvironmental": 6606,
      "ĠLittle": 6607,
      "Ġsle": 6608,
      "Ġsatell": 6609,
      "ĠOrgan": 6610,
      "Ġweren": 6611,
      "Ġlies": 6612,
      "Ġpassion": 6613,
      "Ġcustomer": 6614,
      "ĠSum": 6615,
      "Ġempty": 6616,
      "Ġapprec": 6617,
      "Ġpub": 6618,
      "Ġtun": 6619,
      "Ġarchitect": 6620,
      "Ġlanded": 6621,
      "Ġpotentially": 6622,
      "dict": 6623,
      "Ġtor": 6624,
      "ĠLove": 6625,
      "ĠAli": 6626,
      "Ġstock": 6627,
      "ĠCosta": 6628,
      "bell": 6629,
      "Ġwave": 6630,
      "ache": 6631,
      "rance": 6632,
      "echan": 6633,
      "Ġtribute": 6634,
      "Ġedge": 6635,
      "Ġsets": 6636,
      "Ġviewers": 6637,
      "Ġvulner": 6638,
      "ĠABC": 6639,
      "ĠGOP": 6640,
      "Ġeverybody": 6641,
      "Ġstructure": 6642,
      "Ġroutine": 6643,
      "opher": 6644,
      "Ġrefuge": 6645,
      "Ġheight": 6646,
      "Ġliked": 6647,
      "half": 6648,
      "ĠBurn": 6649,
      "Ġthrown": 6650,
      "Ġdiscovery": 6651,
      "Ġlink": 6652,
      "Ġturns": 6653,
      "ĠFI": 6654,
      "Ġadds": 6655,
      "ĠBest": 6656,
      "ĠDer": 6657,
      "ĠCanadian": 6658,
      "Ġdivorce": 6659,
      "Ġpanel": 6660,
      "elli": 6661,
      "everal": 6662,
      "Ġpointed": 6663,
      "ato": 6664,
      "ĠGary": 6665,
      "Ġnoise": 6666,
      "Ġbrut": 6667,
      "Ġcomplaints": 6668,
      "Ġgranted": 6669,
      "ĠBarb": 6670,
      "iable": 6671,
      "Ġuniform": 6672,
      "Ġextrem": 6673,
      "Ġattitude": 6674,
      "Ġopportunities": 6675,
      "illance": 6676,
      "Ġaccomp": 6677,
      "Ġjoint": 6678,
      "Ġanswers": 6679,
      "Ġsubs": 6680,
      "Ġexperiment": 6681,
      "Ġfunds": 6682,
      "ĠPublic": 6683,
      "Ġstruggled": 6684,
      "Ġstomach": 6685,
      "ros": 6686,
      "ĠAsian": 6687,
      "ĠMa": 6688,
      "ĠEduc": 6689,
      "Ġcandidates": 6690,
      "ni": 6691,
      "Cl": 6692,
      "Ġrelationships": 6693,
      "ĠYorkshire": 6694,
      "asy": 6695,
      "Ġrealize": 6696,
      "uana": 6697,
      "Ġhappiness": 6698,
      "ĠTown": 6699,
      "Ġcheap": 6700,
      "away": 6701,
      "Ġnar": 6702,
      "Ġclosely": 6703,
      "ategy": 6704,
      "Ġrestrict": 6705,
      "exp": 6706,
      "earing": 6707,
      "ĠAtlanta": 6708,
      "iverse": 6709,
      "Ġdepression": 6710,
      "put": 6711,
      "Ġearthquake": 6712,
      "Ġwalls": 6713,
      "Ġhelicopter": 6714,
      "ĠDuchess": 6715,
      "Ġcopy": 6716,
      "Ġlegend": 6717,
      "Ġteens": 6718,
      "Ġchocolate": 6719,
      "Ġongoing": 6720,
      "Ġchosen": 6721,
      "Ġhate": 6722,
      "Ġcontacted": 6723,
      "However": 6724,
      "Ġvegetables": 6725,
      "Ġtherap": 6726,
      "Ġencoun": 6727,
      "icient": 6728,
      "Ġflew": 6729,
      "Ġge": 6730,
      "Ġbadly": 6731,
      "ĠLady": 6732,
      "Ġburied": 6733,
      "Ġfatal": 6734,
      "Ġpredict": 6735,
      "ĠAbb": 6736,
      "Ġvolunteers": 6737,
      "Ġkiller": 6738,
      "ĠEvans": 6739,
      "ĠFootball": 6740,
      "hand": 6741,
      "ĠSaud": 6742,
      "Ġconsumers": 6743,
      "Ġrose": 6744,
      "Ġargument": 6745,
      "Ġrobber": 6746,
      "ĠMourinho": 6747,
      "aden": 6748,
      "Ġevac": 6749,
      "Ġscale": 6750,
      "Ġodd": 6751,
      "Ġbull": 6752,
      "Ġfounded": 6753,
      "Ġsav": 6754,
      "Ġsilver": 6755,
      "Ġcomplained": 6756,
      "ĠSee": 6757,
      "Ġremark": 6758,
      "icts": 6759,
      "Ġwaves": 6760,
      "Ġcrack": 6761,
      "Ġheaded": 6762,
      "Ġcarbon": 6763,
      "stone": 6764,
      "agh": 6765,
      "rivals": 6766,
      "Ġdescribes": 6767,
      "mo": 6768,
      "ĠEverton": 6769,
      "Ġwindows": 6770,
      "Ġplatform": 6771,
      "iband": 6772,
      "Ġadopted": 6773,
      "hem": 6774,
      "Ġawarded": 6775,
      "Ġlisted": 6776,
      "cles": 6777,
      "AR": 6778,
      "Ġ41": 6779,
      "ĠFeder": 6780,
      "ĠRev": 6781,
      "ĠSanta": 6782,
      "ĠMod": 6783,
      "ĠDoct": 6784,
      "Ġunve": 6785,
      "odd": 6786,
      "Ġteenage": 6787,
      "acher": 6788,
      "ĠCatholic": 6789,
      "Ġhadn": 6790,
      "ĠSk": 6791,
      "arant": 6792,
      "Ġblow": 6793,
      "Ġacknowled": 6794,
      "Ġroc": 6795,
      "vania": 6796,
      "tha": 6797,
      "ĠAlexander": 6798,
      "ĠOxford": 6799,
      "Ġwitnesses": 6800,
      "ĠCy": 6801,
      "Ġchat": 6802,
      "Ġagencies": 6803,
      "ĠÂ»": 6804,
      "azz": 6805,
      "stal": 6806,
      "ench": 6807,
      "Ġguide": 6808,
      "Ġadvoc": 6809,
      "ye": 6810,
      "week": 6811,
      "Ġsucceed": 6812,
      "Le": 6813,
      "Ġclash": 6814,
      "Ġstudied": 6815,
      "Ġexplains": 6816,
      "ĠScientists": 6817,
      "Ġbills": 6818,
      "erves": 6819,
      "Ġsitu": 6820,
      "Ġtum": 6821,
      "Ġdeputy": 6822,
      "assy": 6823,
      "29": 6824,
      "ĠFred": 6825,
      "Ġtaste": 6826,
      "ounted": 6827,
      "Ġbreath": 6828,
      "Ġourselves": 6829,
      "Ġhospitals": 6830,
      "Ġartists": 6831,
      "ĠSometimes": 6832,
      "Ġaffil": 6833,
      "ĠThough": 6834,
      "ijuana": 6835,
      "Ġjournalist": 6836,
      "olved": 6837,
      "ĠSomal": 6838,
      "Ġcritics": 6839,
      "orses": 6840,
      "Ġoptions": 6841,
      "ĠAnderson": 6842,
      "ĠMilan": 6843,
      "ĠSnow": 6844,
      "uits": 6845,
      "Ġdefinitely": 6846,
      "ogue": 6847,
      "Ġelected": 6848,
      "enders": 6849,
      "syl": 6850,
      "ounced": 6851,
      "Ġconcept": 6852,
      "Ġexposed": 6853,
      "ĠOcean": 6854,
      "acity": 6855,
      "ĠExper": 6856,
      "Ġanswered": 6857,
      "Ġthrow": 6858,
      "Ġsugar": 6859,
      "iamond": 6860,
      "Ġusual": 6861,
      "ansas": 6862,
      "burgh": 6863,
      "strong": 6864,
      "ĠDisney": 6865,
      "ĠPacific": 6866,
      "39": 6867,
      "37": 6868,
      "deg": 6869,
      "ĠBell": 6870,
      "acle": 6871,
      "iration": 6872,
      "Ġru": 6873,
      "ĠIrish": 6874,
      "ĠCop": 6875,
      "Ġdeeply": 6876,
      "ĠIll": 6877,
      "roc": 6878,
      "eline": 6879,
      "Ġdesk": 6880,
      "Ġunh": 6881,
      "with": 6882,
      "Ġ47": 6883,
      "Ġairline": 6884,
      "aser": 6885,
      "Ġ/": 6886,
      "olds": 6887,
      "Ġcraz": 6888,
      "ĠHouston": 6889,
      "ĠAllen": 6890,
      "ĠBook": 6891,
      "ĠJay": 6892,
      "Ġburg": 6893,
      "ĠRonaldo": 6894,
      "ĠFederal": 6895,
      "Ġcoverage": 6896,
      "aska": 6897,
      "Ġprivacy": 6898,
      "Ġfilmed": 6899,
      "oming": 6900,
      "Ġreflect": 6901,
      "ĠGet": 6902,
      "ointment": 6903,
      "Ġambulance": 6904,
      "ĠAtlantic": 6905,
      "Ġthrew": 6906,
      "ĠMiliband": 6907,
      "ĠMexican": 6908,
      "Ġpossession": 6909,
      "ĠStan": 6910,
      "umber": 6911,
      "ĠMelbourne": 6912,
      "Ġsparked": 6913,
      "ĠRel": 6914,
      "Rep": 6915,
      "Ġ@": 6916,
      "sylvania": 6917,
      "imal": 6918,
      "afi": 6919,
      "ĠMoscow": 6920,
      "ĠHarris": 6921,
      "Ġsemi": 6922,
      "ulture": 6923,
      "Ġordinary": 6924,
      "ĠUN": 6925,
      "Ġopinions": 6926,
      "ba": 6927,
      "ĠHamilton": 6928,
      "Ġpublicly": 6929,
      "Ġimpressive": 6930,
      "Ġpollution": 6931,
      "ĠJac": 6932,
      "Ġrevolution": 6933,
      "Ġzone": 6934,
      "ĠMarc": 6935,
      "Ġbacter": 6936,
      "Ġfounder": 6937,
      "Ġheading": 6938,
      "ĠTs": 6939,
      "umped": 6940,
      "Ġweb": 6941,
      "Ġisol": 6942,
      "ĠSpec": 6943,
      "Ġprosecution": 6944,
      "real": 6945,
      "Ġfunny": 6946,
      "ĠLibya": 6947,
      "Ġcompens": 6948,
      "Ġprojects": 6949,
      "Ġabandoned": 6950,
      "Ġtermin": 6951,
      "ĠMen": 6952,
      "Ġmoves": 6953,
      "Ġconservative": 6954,
      "rich": 6955,
      "ĠWater": 6956,
      "ĠCare": 6957,
      "Ġtalent": 6958,
      "andez": 6959,
      "Ġcateg": 6960,
      "Ġfinger": 6961,
      "rates": 6962,
      "ĠPrincess": 6963,
      "writ": 6964,
      "ĠBrook": 6965,
      "Ġfamiliar": 6966,
      "Ġelectricity": 6967,
      "Ġstrategy": 6968,
      "ĠDefense": 6969,
      "Ġlifestyle": 6970,
      "ĠWhe": 6971,
      "Ġappropriate": 6972,
      "Ġjournalists": 6973,
      "Ġscores": 6974,
      "ĠMcG": 6975,
      "ulous": 6976,
      "Ġblamed": 6977,
      "usted": 6978,
      "orders": 6979,
      "Ġshouldn": 6980,
      "ĠGall": 6981,
      "Ġrisks": 6982,
      "ĠMichelle": 6983,
      "lan": 6984,
      "Ġscre": 6985,
      "Ġprosp": 6986,
      "Ġinquiry": 6987,
      "bu": 6988,
      "sec": 6989,
      "Ġresort": 6990,
      "called": 6991,
      "Ġdiss": 6992,
      "Ġlanguages": 6993,
      "Ġreputation": 6994,
      "ĠMother": 6995,
      "Ġlift": 6996,
      "Ġlung": 6997,
      "Ġdefendant": 6998,
      "Ġwinds": 6999,
      "Ġmemories": 7000,
      "era": 7001,
      "ĠUt": 7002,
      "Ġsomebody": 7003,
      "ĠCole": 7004,
      "sewhere": 7005,
      "Ġcutting": 7006,
      "owell": 7007,
      "Ġreplace": 7008,
      "point": 7009,
      "Ġstrict": 7010,
      "Ġscenes": 7011,
      "eland": 7012,
      "Ġproceed": 7013,
      "ĠJewish": 7014,
      "Ġpainting": 7015,
      "Ġinfection": 7016,
      "ĠSpace": 7017,
      "Ġobviously": 7018,
      "Ġcode": 7019,
      "Ġrom": 7020,
      "Ġprosecutor": 7021,
      "Ġcooper": 7022,
      "Ġfacilities": 7023,
      "Ġdecor": 7024,
      "Ġpled": 7025,
      "borne": 7026,
      "Ġdozen": 7027,
      "Ġpoliticians": 7028,
      "Ġmurdered": 7029,
      "Ġtouc": 7030,
      "Ġsexually": 7031,
      "Ġnerv": 7032,
      "ĠDuke": 7033,
      "Ġcontains": 7034,
      "Ġdisorder": 7035,
      "ĠSuarez": 7036,
      "Ġbound": 7037,
      "Ġimproved": 7038,
      "lah": 7039,
      "raf": 7040,
      "turn": 7041,
      "Ġsurprising": 7042,
      "ching": 7043,
      "agan": 7044,
      "ordon": 7045,
      "ĠChannel": 7046,
      "ĠWild": 7047,
      "ĠCooper": 7048,
      "Ġslightly": 7049,
      "ĠCru": 7050,
      "ĠTop": 7051,
      "ĠIraqi": 7052,
      "ĠJoseph": 7053,
      "Why": 7054,
      "Ġfill": 7055,
      "IP": 7056,
      "Ġadvance": 7057,
      "ĠAcademy": 7058,
      "ĠPennsylvania": 7059,
      "ĠStaff": 7060,
      "Ġdrawn": 7061,
      "ĠPS": 7062,
      "iot": 7063,
      "ema": 7064,
      "Ġrebels": 7065,
      "ĠCharlie": 7066,
      "ĠMayor": 7067,
      "Ġincidents": 7068,
      "ĠEdward": 7069,
      "Ġ49": 7070,
      "quarters": 7071,
      "Ġreward": 7072,
      "Ġstepped": 7073,
      "Ġmine": 7074,
      "Ġsmell": 7075,
      "awn": 7076,
      "Ġexcell": 7077,
      "38": 7078,
      "Ġfiref": 7079,
      "Ġpoison": 7080,
      "Ġpersonnel": 7081,
      "ducing": 7082,
      "ĠAirl": 7083,
      "Ġstations": 7084,
      "Ġnom": 7085,
      "Ġnormally": 7086,
      "Ġconcluded": 7087,
      "Ġthin": 7088,
      "ĠMu": 7089,
      "Ġ1960": 7090,
      "Ġencouraged": 7091,
      "Ġdying": 7092,
      "Ġsuspic": 7093,
      "care": 7094,
      "Ġoldest": 7095,
      "Ġcapture": 7096,
      "adel": 7097,
      "Ġtied": 7098,
      "Ġprize": 7099,
      "free": 7100,
      "Ġclient": 7101,
      "Ġnewly": 7102,
      "ĠSaudi": 7103,
      "Ġpowers": 7104,
      "ĠLanc": 7105,
      "ĠShan": 7106,
      "ĠKerry": 7107,
      "Ġapply": 7108,
      "ĠRights": 7109,
      "ĠVeg": 7110,
      "ĠSociety": 7111,
      "Many": 7112,
      "Ġadopt": 7113,
      "Ġanywhere": 7114,
      "Ġinquest": 7115,
      "lines": 7116,
      "Ġvalues": 7117,
      "Ġphil": 7118,
      "Ġdetail": 7119,
      "Ġtoile": 7120,
      "32": 7121,
      "Ġunknown": 7122,
      "ĠPhill": 7123,
      "Ġnegoti": 7124,
      "ĠFriend": 7125,
      "amm": 7126,
      "terling": 7127,
      "ĠOscar": 7128,
      "ĊĠĠĠ": 7129,
      "Ġarrival": 7130,
      "Ġquit": 7131,
      "Ġmedal": 7132,
      "ĠJournal": 7133,
      "ĠBrian": 7134,
      "Ġkeeps": 7135,
      "ĠAny": 7136,
      "ortion": 7137,
      "Ġemp": 7138,
      "Ġapproved": 7139,
      "Ġuseful": 7140,
      "ĠMax": 7141,
      "Ġhidden": 7142,
      "arry": 7143,
      "Ġox": 7144,
      "âĢĶ": 7145,
      "ĠLeon": 7146,
      "Ġgrounds": 7147,
      "class": 7148,
      "Ġera": 7149,
      "Ġcanc": 7150,
      "zen": 7151,
      "Ġexclusive": 7152,
      "Ġvoted": 7153,
      "ĠVilla": 7154,
      "ĠSher": 7155,
      "espread": 7156,
      "Ġcelebrity": 7157,
      "Ġcourts": 7158,
      "Ġmonit": 7159,
      "Ġresign": 7160,
      "oyal": 7161,
      "Ġforest": 7162,
      "Ġcampus": 7163,
      "Ġcombat": 7164,
      "rain": 7165,
      "Ġrelatively": 7166,
      "Ġhide": 7167,
      "uster": 7168,
      "Ġtaxpay": 7169,
      "ĠBoe": 7170,
      "ĠStand": 7171,
      "Ġimmigrants": 7172,
      "Ġunemploy": 7173,
      "Ġtherefore": 7174,
      "Ġfishing": 7175,
      "Ġmath": 7176,
      "ito": 7177,
      "oli": 7178,
      "Ġfollows": 7179,
      "Ġ1999": 7180,
      "ĠShow": 7181,
      "Ġconstitution": 7182,
      "ĠNBC": 7183,
      "ĠId": 7184,
      "eding": 7185,
      "Ġfactors": 7186,
      "Ġjur": 7187,
      "cling": 7188,
      "ĠIan": 7189,
      "Ġaccur": 7190,
      "Ġdreams": 7191,
      "Ġholidays": 7192,
      "ĠArch": 7193,
      "ooth": 7194,
      "Ġped": 7195,
      "Ġtrail": 7196,
      "Ġmatters": 7197,
      "Ġinvestigate": 7198,
      "whel": 7199,
      "Ġrequires": 7200,
      "Ġdiscipl": 7201,
      "yon": 7202,
      "iev": 7203,
      "elfare": 7204,
      "Ġobjects": 7205,
      "Ġmarks": 7206,
      "ĠLook": 7207,
      "Ġcelebrates": 7208,
      "ĠTurk": 7209,
      "IV": 7210,
      "Ġcollected": 7211,
      "assador": 7212,
      "ĠMarg": 7213,
      "Ġtragic": 7214,
      "zh": 7215,
      "Ġhy": 7216,
      "rified": 7217,
      "hus": 7218,
      "vy": 7219,
      "Ġalternative": 7220,
      "Ġwrites": 7221,
      "adow": 7222,
      "Ġrent": 7223,
      "RA": 7224,
      "Ġsisters": 7225,
      "ĠStill": 7226,
      "Ġdealing": 7227,
      "ĠBeck": 7228,
      "Ġluck": 7229,
      "Ġinternal": 7230,
      "Ġeverywhere": 7231,
      "Ġmechan": 7232,
      "Ġdegrees": 7233,
      "Ġdepend": 7234,
      "Ġaggressive": 7235,
      "obs": 7236,
      "nam": 7237,
      "Ġstream": 7238,
      "Ġstring": 7239,
      "Ġages": 7240,
      "Ġstro": 7241,
      "ano": 7242,
      "ĠFood": 7243,
      "Ġharder": 7244,
      "Ġloves": 7245,
      "Ġfro": 7246,
      "Ġcouples": 7247,
      "odes": 7248,
      "olph": 7249,
      "Ġju": 7250,
      "ĠCC": 7251,
      "Ġjew": 7252,
      "800": 7253,
      "Ġmarked": 7254,
      "........": 7255,
      "esty": 7256,
      "oster": 7257,
      "****": 7258,
      "Ġprisoners": 7259,
      "Ġsurveillance": 7260,
      "Ġdismissed": 7261,
      "Ġtie": 7262,
      "Ġtargets": 7263,
      "Ġstated": 7264,
      "ĠGlob": 7265,
      "Ġsubsequ": 7266,
      "Ġcruc": 7267,
      "two": 7268,
      "ĠHamp": 7269,
      "ĠPatrick": 7270,
      "Ġcrying": 7271,
      "Ġwins": 7272,
      "iang": 7273,
      "Ġlistening": 7274,
      "ordinary": 7275,
      "Ġdifferences": 7276,
      "ls": 7277,
      "Ġmarry": 7278,
      "Ġsearching": 7279,
      "working": 7280,
      "Ġapplication": 7281,
      "ĠHod": 7282,
      "ĠKir": 7283,
      "Ġreporter": 7284,
      "Ġmos": 7285,
      "Ġrural": 7286,
      "ĠEducation": 7287,
      "Ġindependence": 7288,
      "ĠBul": 7289,
      "Ġstronger": 7290,
      "ĠRa": 7291,
      "Ġeur": 7292,
      "Ġwet": 7293,
      "ugby": 7294,
      "ĠGraham": 7295,
      "Ġoverseas": 7296,
      "Ġdesire": 7297,
      "ompl": 7298,
      "ĠJason": 7299,
      "Ġtaxi": 7300,
      "Ġorganizations": 7301,
      "Ġlaid": 7302,
      "ĠRoss": 7303,
      "Ġrecommend": 7304,
      "ĠPhilipp": 7305,
      "ĠLas": 7306,
      "Ġcompar": 7307,
      "Ġpromote": 7308,
      "mouth": 7309,
      "47": 7310,
      "Ġsharing": 7311,
      "Ġfee": 7312,
      "Ġconnect": 7313,
      "ĠSov": 7314,
      "Ġpermission": 7315,
      "ĠColumb": 7316,
      "Ġactivists": 7317,
      "ĠGreg": 7318,
      "Ġrelief": 7319,
      "Ġvulnerable": 7320,
      "obby": 7321,
      "Ġbes": 7322,
      "overty": 7323,
      "ĠArm": 7324,
      "dog": 7325,
      "ĠPers": 7326,
      "ĠOper": 7327,
      "Ġprofile": 7328,
      "ĠHu": 7329,
      "ĠRose": 7330,
      "Ġmistakes": 7331,
      "she": 7332,
      "ĠMessi": 7333,
      "ĠRick": 7334,
      "Ġgained": 7335,
      "ĠZh": 7336,
      "Ġentirely": 7337,
      "oard": 7338,
      "ds": 7339,
      "ĠFestival": 7340,
      "ancer": 7341,
      "Ġbrings": 7342,
      "Ġtypically": 7343,
      "ila": 7344,
      "oln": 7345,
      "Ġseized": 7346,
      "Ġlocked": 7347,
      "Ġsupporting": 7348,
      "orr": 7349,
      "Ġenjoying": 7350,
      "Ġpapers": 7351,
      "Ġvacc": 7352,
      "ĠAbu": 7353,
      "tic": 7354,
      "Ġmarijuana": 7355,
      "Ġpreparing": 7356,
      "Ġaimed": 7357,
      "ports": 7358,
      "Ġcompete": 7359,
      "ĠMalays": 7360,
      "ĠMah": 7361,
      "teen": 7362,
      "Ġcream": 7363,
      "ĠIndones": 7364,
      "ĠFab": 7365,
      "ĠMichigan": 7366,
      "ĠRem": 7367,
      "Ġcivilians": 7368,
      "Ġapproached": 7369,
      "Oh": 7370,
      "Ġsurrounded": 7371,
      "Ġfactory": 7372,
      "Ġanonym": 7373,
      "ĠRome": 7374,
      "Ġinsist": 7375,
      "Ġsinging": 7376,
      "Ġguys": 7377,
      "Ġverdict": 7378,
      "Ġbrown": 7379,
      "ĠWatson": 7380,
      "box": 7381,
      "Ġgreet": 7382,
      "uable": 7383,
      "Ġslam": 7384,
      "fford": 7385,
      "Ġcontinuing": 7386,
      "Ġspons": 7387,
      "wan": 7388,
      "Ġscared": 7389,
      "Ġmemorial": 7390,
      "Ġ52": 7391,
      "issions": 7392,
      "Ġwidespread": 7393,
      "ĠInstagram": 7394,
      "Ġopposite": 7395,
      "Ġexpand": 7396,
      "style": 7397,
      "Ġcigaret": 7398,
      "abinet": 7399,
      "Ġveteran": 7400,
      "ellor": 7401,
      "Ġknocked": 7402,
      "raig": 7403,
      "ĠNFL": 7404,
      "ĠIranian": 7405,
      "achel": 7406,
      "Ġanalysis": 7407,
      "acre": 7408,
      "ĠJr": 7409,
      "ĠFollowing": 7410,
      "equ": 7411,
      "Ġdial": 7412,
      "ĠFIFA": 7413,
      "areness": 7414,
      "mph": 7415,
      "Ġplus": 7416,
      "ifying": 7417,
      "ingly": 7418,
      "Ġoutbreak": 7419,
      "ĠLam": 7420,
      "vin": 7421,
      "uties": 7422,
      "Ġtotally": 7423,
      "Ġcreative": 7424,
      "Ġcollapsed": 7425,
      "ĠBang": 7426,
      "ĠQueens": 7427,
      "Ġpocket": 7428,
      "Ġbacked": 7429,
      "Ġexplosion": 7430,
      "ĠSeveral": 7431,
      "ĠLeices": 7432,
      "Don": 7433,
      "ĠKhan": 7434,
      "Ġgrandfather": 7435,
      "ĠMuslims": 7436,
      "Ġunn": 7437,
      "Two": 7438,
      "55": 7439,
      "Ġindustrial": 7440,
      "ĠMot": 7441,
      "Ġpermanent": 7442,
      "tes": 7443,
      "Ġconce": 7444,
      "ecutive": 7445,
      "600": 7446,
      "ĠWayne": 7447,
      "Ġcontroversy": 7448,
      "Ġreaders": 7449,
      "Ġputs": 7450,
      "33": 7451,
      "Ġcrop": 7452,
      "Ġpromise": 7453,
      "Ġterrorism": 7454,
      "ishop": 7455,
      "Just": 7456,
      "Ġknee": 7457,
      "ĠPot": 7458,
      "Ġven": 7459,
      "SP": 7460,
      "ĠAirlines": 7461,
      "Ġintention": 7462,
      "anes": 7463,
      "ira": 7464,
      "Ġfactor": 7465,
      "zing": 7466,
      "Ġstabbed": 7467,
      "ĠPop": 7468,
      "Ġnewspapers": 7469,
      "Ġbeer": 7470,
      "__": 7471,
      "Ġuniversities": 7472,
      "Ġgap": 7473,
      "bles": 7474,
      "agger": 7475,
      "ĠLater": 7476,
      "wear": 7477,
      "oral": 7478,
      "ecess": 7479,
      "Ġassaul": 7480,
      "eor": 7481,
      "Ġing": 7482,
      "Ġvital": 7483,
      "eller": 7484,
      "Ġgovernments": 7485,
      "Ġaccus": 7486,
      "antic": 7487,
      "Ġattracted": 7488,
      "Ġescaped": 7489,
      "incoln": 7490,
      "Ġpages": 7491,
      "Ġcontrolled": 7492,
      "Ġporn": 7493,
      "which": 7494,
      "rence": 7495,
      "Ġfeared": 7496,
      "Not": 7497,
      "essions": 7498,
      "rapped": 7499,
      "ĠSterling": 7500,
      "ĠLaure": 7501,
      "ĠVegas": 7502,
      "ĠCD": 7503,
      "Ġoffences": 7504,
      "Ġships": 7505,
      "Ġorders": 7506,
      "Ġhorses": 7507,
      "Ġguarant": 7508,
      "Ġfitness": 7509,
      "Ġadvertising": 7510,
      "Ġdiseases": 7511,
      "ĠJosh": 7512,
      "Ġnervous": 7513,
      "Ġhandle": 7514,
      "CC": 7515,
      "lahoma": 7516,
      "ĠLeg": 7517,
      "Ġbread": 7518,
      "ĠWeek": 7519,
      "ĠLaur": 7520,
      "Ġdrew": 7521,
      "Ġminimum": 7522,
      "aling": 7523,
      "Ġapplied": 7524,
      "iences": 7525,
      "elson": 7526,
      "aval": 7527,
      "brit": 7528,
      "Ġthick": 7529,
      "Ġchicken": 7530,
      "----": 7531,
      "Ġadmits": 7532,
      "made": 7533,
      "Ġends": 7534,
      "ĠEmp": 7535,
      "Ġdu": 7536,
      "Ġformal": 7537,
      "Ġsurviv": 7538,
      "ĠNap": 7539,
      "48": 7540,
      "ĠSocial": 7541,
      "Ġasks": 7542,
      "ĠSaf": 7543,
      "Ġtact": 7544,
      "Ġprofession": 7545,
      "phia": 7546,
      "Ġrevel": 7547,
      "vard": 7548,
      "erted": 7549,
      "Ġremarks": 7550,
      "ĠSouthern": 7551,
      "Ġengaged": 7552,
      "Ġtourist": 7553,
      "etime": 7554,
      "ĠFil": 7555,
      "Ġfinds": 7556,
      "Ġmentioned": 7557,
      "Ġvacation": 7558,
      "Ġplanes": 7559,
      "Ġdrunk": 7560,
      "Ġjoining": 7561,
      "ĠLatin": 7562,
      "Ġjoke": 7563,
      "Ġdesperate": 7564,
      "Ġpleased": 7565,
      "Ġreveals": 7566,
      "Jo": 7567,
      "ouri": 7568,
      "Ġ1998": 7569,
      "Ġhomeless": 7570,
      "####": 7571,
      "olar": 7572,
      "Ġcalc": 7573,
      "Ġpension": 7574,
      "Ġsupplies": 7575,
      "Ġfake": 7576,
      "Ġmixed": 7577,
      "Ġdiscrim": 7578,
      "col": 7579,
      "wall": 7580,
      "Ġthreatening": 7581,
      "ĠTest": 7582,
      "Ġ(Â£": 7583,
      "itage": 7584,
      "Ġassistance": 7585,
      "adelphia": 7586,
      "While": 7587,
      "apse": 7588,
      "Ġstrikes": 7589,
      "azon": 7590,
      "Ġrocket": 7591,
      "Ġaccompl": 7592,
      "erg": 7593,
      "Ġtheat": 7594,
      "ĠSupp": 7595,
      "brities": 7596,
      "Ġlibrary": 7597,
      "ĠRobinson": 7598,
      "ĠBru": 7599,
      "Ġinsists": 7600,
      "Ġfields": 7601,
      "Ġofficially": 7602,
      "gment": 7603,
      "ĠBack": 7604,
      "Ġfrequently": 7605,
      "ĠLand": 7606,
      "ĠGen": 7607,
      "ĠKingdom": 7608,
      "ĠGulf": 7609,
      "Ġvision": 7610,
      "Ġotherwise": 7611,
      "orous": 7612,
      "Ġow": 7613,
      "ĠJean": 7614,
      "asion": 7615,
      "aven": 7616,
      "itary": 7617,
      "34": 7618,
      "arre": 7619,
      "Ġunclear": 7620,
      "Ġpin": 7621,
      "Ġscar": 7622,
      "Ġreligion": 7623,
      "umed": 7624,
      "ĠAnton": 7625,
      "ĠRh": 7626,
      "ĠSwan": 7627,
      "Ġtraum": 7628,
      "onna": 7629,
      "Ġenthus": 7630,
      "asks": 7631,
      "Ġearning": 7632,
      "Ġhitting": 7633,
      "Ġemph": 7634,
      "iques": 7635,
      "Ġswitch": 7636,
      "itable": 7637,
      "ĠLisa": 7638,
      "ĠSheriff": 7639,
      "olitan": 7640,
      "Ġpit": 7641,
      "Ġcelebrated": 7642,
      "Ġshoulder": 7643,
      "atherine": 7644,
      "Ġindic": 7645,
      "ĠCrime": 7646,
      "DA": 7647,
      "reck": 7648,
      "Ġchoices": 7649,
      "ĠHom": 7650,
      "Ġlake": 7651,
      "athy": 7652,
      "Ġcombined": 7653,
      "Ġattending": 7654,
      "Ġtaxes": 7655,
      "ington": 7656,
      "mann": 7657,
      "Ġstunning": 7658,
      "ĠOklahoma": 7659,
      "Ġexcellent": 7660,
      "Ġburning": 7661,
      "II": 7662,
      "fe": 7663,
      "chair": 7664,
      "Ġshift": 7665,
      "ĠNev": 7666,
      "Ġmountains": 7667,
      "Ġhighl": 7668,
      "MA": 7669,
      "ĠTerry": 7670,
      "ta": 7671,
      "ĠAndre": 7672,
      "Ġsubjects": 7673,
      "ĠChristopher": 7674,
      "inating": 7675,
      "olly": 7676,
      "Ġfollowers": 7677,
      "athon": 7678,
      "Ġstrateg": 7679,
      "Ġliqu": 7680,
      "emble": 7681,
      "Ġsac": 7682,
      "ĠBas": 7683,
      "ĠColomb": 7684,
      "Ġterrorists": 7685,
      "illiant": 7686,
      "ghai": 7687,
      "Ġ08": 7688,
      "ĠFern": 7689,
      "ĠTeam": 7690,
      "Ġfright": 7691,
      "Ġmeters": 7692,
      ".)": 7693,
      "ether": 7694,
      "Ġmaximum": 7695,
      "ĠGh": 7696,
      "Ġpink": 7697,
      "Ġcats": 7698,
      "uez": 7699,
      "Bl": 7700,
      "soft": 7701,
      "Ġpushing": 7702,
      "Ġfacts": 7703,
      "Ġoffensive": 7704,
      "apes": 7705,
      "Ġhotels": 7706,
      "Ġclassic": 7707,
      "Ġrein": 7708,
      "Ġhomework": 7709,
      "Ġsuccessfully": 7710,
      "Ġterritory": 7711,
      "ĠWork": 7712,
      "ĠCCTV": 7713,
      "Ġprocedure": 7714,
      "mers": 7715,
      "Ġmetres": 7716,
      "Ġjudges": 7717,
      "Ġextended": 7718,
      "Ġdrama": 7719,
      "ĠDirector": 7720,
      "Ġtries": 7721,
      "ĠBrother": 7722,
      "ĠLincoln": 7723,
      "Ġsolid": 7724,
      "Ġmanage": 7725,
      "Ġregional": 7726,
      "Ġtorn": 7727,
      "uls": 7728,
      "Ġfees": 7729,
      "ĠTurn": 7730,
      "Ġconsequences": 7731,
      "uper": 7732,
      "Ġtoys": 7733,
      "Ġtail": 7734,
      "enny": 7735,
      "Ġpopularity": 7736,
      "ĠBab": 7737,
      "allas": 7738,
      "Ġpregnancy": 7739,
      "ĠJonathan": 7740,
      "Ġunw": 7741,
      "ĠHear": 7742,
      "annah": 7743,
      "Ġproposal": 7744,
      "Ġca": 7745,
      "Ġcous": 7746,
      "Ġmal": 7747,
      "Ġexcess": 7748,
      "Ġwaited": 7749,
      "osition": 7750,
      "active": 7751,
      "Ġshell": 7752,
      "Ġx": 7753,
      "Ġsixth": 7754,
      "Ġsalt": 7755,
      "EN": 7756,
      "ĠRadio": 7757,
      "Ġgifts": 7758,
      "Ġhabits": 7759,
      "Ġhunting": 7760,
      "ĠPope": 7761,
      "Ġcontained": 7762,
      "Ġmachines": 7763,
      "Ġrecalled": 7764,
      "Ġcriticised": 7765,
      "ĠFair": 7766,
      "Ġhang": 7767,
      "Ġinfer": 7768,
      "ĠNigeria": 7769,
      "ĠPhilip": 7770,
      "ĠSoviet": 7771,
      "gun": 7772,
      "Ġnobody": 7773,
      "Ġshout": 7774,
      "ommod": 7775,
      "iders": 7776,
      "Ġgro": 7777,
      "Ġconviction": 7778,
      "verse": 7779,
      "Ġcasual": 7780,
      "Ġclock": 7781,
      "Ġwelfare": 7782,
      "Ġ54": 7783,
      "Ġarriving": 7784,
      "ello": 7785,
      "Ġcontem": 7786,
      "ĠJennifer": 7787,
      "irates": 7788,
      "ĠHawai": 7789,
      "Ġobtained": 7790,
      "Ġfault": 7791,
      "Ġislands": 7792,
      "Ġprompted": 7793,
      "Ġtrips": 7794,
      "ĠSub": 7795,
      "Ġriding": 7796,
      "Ġscientist": 7797,
      "Ġoverwhel": 7798,
      "Yes": 7799,
      "Ġsevent": 7800,
      "Ġyoungest": 7801,
      "orough": 7802,
      "ĠJessica": 7803,
      "Ġparticipants": 7804,
      "Ġwalks": 7805,
      "Ġje": 7806,
      "ĠThanks": 7807,
      "Pr": 7808,
      "Ġcoalition": 7809,
      "Ġcleared": 7810,
      "Ġpersu": 7811,
      "pan": 7812,
      "ximately": 7813,
      "asty": 7814,
      "Ġrivals": 7815,
      "inent": 7816,
      "Ġtrapped": 7817,
      "ancellor": 7818,
      "itzerland": 7819,
      "ĠClass": 7820,
      "they": 7821,
      "Ġembr": 7822,
      "ĠPhiladelphia": 7823,
      "pass": 7824,
      "Ġshocking": 7825,
      "Ġmusical": 7826,
      "Ġcongress": 7827,
      "Ġappearances": 7828,
      "Ġinformed": 7829,
      "Ġ?": 7830,
      "ype": 7831,
      "Ġreaching": 7832,
      "ĠBroad": 7833,
      "Ġtools": 7834,
      "uts": 7835,
      "ĠExp": 7836,
      "Ġmile": 7837,
      "Ġcapacity": 7838,
      "ĠFre": 7839,
      "Ġresulted": 7840,
      "Ġgoalkeeper": 7841,
      "Ġec": 7842,
      "ompson": 7843,
      "Ġadministr": 7844,
      "Ġ56": 7845,
      "Ġoffices": 7846,
      "Ġinvolvement": 7847,
      "inations": 7848,
      "Ġcapable": 7849,
      "Ġpositions": 7850,
      "ctic": 7851,
      "ĠAssociated": 7852,
      "yo": 7853,
      "Ġcock": 7854,
      "ĠNob": 7855,
      "Ġhired": 7856,
      "ĠSix": 7857,
      "Ġtowns": 7858,
      "centre": 7859,
      "Ġsharp": 7860,
      "Ġmarkets": 7861,
      "Ġshall": 7862,
      "eree": 7863,
      "ÂłÂłÂłÂłÂłÂłÂłÂł": 7864,
      "rome": 7865,
      "Ġregions": 7866,
      "Ġrealised": 7867,
      "Ġ1997": 7868,
      "Ġsoil": 7869,
      "ĠServ": 7870,
      "Ġrenew": 7871,
      "Ġtraveled": 7872,
      "Ġski": 7873,
      "Ġracing": 7874,
      "ĠOK": 7875,
      "Ġbattery": 7876,
      "Ġdeliber": 7877,
      "ĠStone": 7878,
      "abet": 7879,
      "Ġathletes": 7880,
      "inate": 7881,
      "ivery": 7882,
      "phic": 7883,
      "Ġcommunicate": 7884,
      "olas": 7885,
      "ubbed": 7886,
      "ĠCommon": 7887,
      "Ġspell": 7888,
      "Ġmethods": 7889,
      "ĠWhit": 7890,
      "Ġfantastic": 7891,
      "ora": 7892,
      "ĠNich": 7893,
      "Ġgrade": 7894,
      "ĠMit": 7895,
      "itarian": 7896,
      "Ġconclus": 7897,
      "Ġstamp": 7898,
      "ailand": 7899,
      "Ġrecording": 7900,
      "ĠEmma": 7901,
      "icing": 7902,
      "Ġdedicated": 7903,
      "Ġethnic": 7904,
      "li": 7905,
      "ĠSpring": 7906,
      "Ġdocumentary": 7907,
      "ĠAshley": 7908,
      "Ġautomatic": 7909,
      "Ġimplement": 7910,
      "ES": 7911,
      "isers": 7912,
      "Ġproperties": 7913,
      "Ġtank": 7914,
      "unior": 7915,
      "Ġbaseball": 7916,
      "ĠEgyptian": 7917,
      "Ġawareness": 7918,
      "Ġdemands": 7919,
      "Most": 7920,
      "Ġattacking": 7921,
      "ĠSeattle": 7922,
      "Ġworn": 7923,
      "Ġobvious": 7924,
      "ima": 7925,
      "Ġvotes": 7926,
      "Ġnarrow": 7927,
      "Ġshares": 7928,
      "ĠMarsh": 7929,
      "Ġneighbors": 7930,
      "ĠGordon": 7931,
      "ĠKo": 7932,
      "Ġ51": 7933,
      "ĠVill": 7934,
      "Ġpoverty": 7935,
      "Ġpurchase": 7936,
      "ĠRio": 7937,
      "Ġeffectively": 7938,
      "ĠMoore": 7939,
      "Ġsatellite": 7940,
      "ĠNASA": 7941,
      "pre": 7942,
      "was": 7943,
      "Ġties": 7944,
      "acc": 7945,
      "ĠTurkish": 7946,
      "Ġentertainment": 7947,
      "then": 7948,
      "Ġscan": 7949,
      "Ġguess": 7950,
      "Ġintent": 7951,
      "Ġepisode": 7952,
      "Ġcontrast": 7953,
      "Ġforever": 7954,
      "ĠFree": 7955,
      "Ġburned": 7956,
      "ĠGun": 7957,
      "Ġending": 7958,
      "ĠAdminist": 7959,
      "Ġamounts": 7960,
      "Ġcounty": 7961,
      "Ġultimately": 7962,
      "ĠChristie": 7963,
      "ĠSwitzerland": 7964,
      "ĠGirl": 7965,
      "Ġfest": 7966,
      "ĠAmazon": 7967,
      "girl": 7968,
      "49": 7969,
      "anges": 7970,
      "ĠHard": 7971,
      "phones": 7972,
      "esus": 7973,
      "ateful": 7974,
      "Ġthousand": 7975,
      "that": 7976,
      "Ġperforming": 7977,
      "Ġintense": 7978,
      "Ġdisabled": 7979,
      "Ġsolve": 7980,
      "Ġcareful": 7981,
      "ĠCraig": 7982,
      "Ġpersonality": 7983,
      "Ġextraordinary": 7984,
      "ĠGaza": 7985,
      "---": 7986,
      "cons": 7987,
      "ĠFe": 7988,
      "Ġsanctions": 7989,
      "Ġwithdraw": 7990,
      "ĠWalker": 7991,
      "Ġbreathing": 7992,
      "Ġtestified": 7993,
      "Ġcocaine": 7994,
      "Ġgraduate": 7995,
      "Ġiron": 7996,
      "Ġlocations": 7997,
      "found": 7998,
      "Ġvisits": 7999,
      "Ġavo": 8000,
      "Ġargue": 8001,
      "Ġpunishment": 8002,
      "Ġconcert": 8003,
      "Ġdisappointed": 8004,
      "Ġtestim": 8005,
      "ĠResearchers": 8006,
      "sm": 8007,
      "Ġvent": 8008,
      "chell": 8009,
      "piracy": 8010,
      "respond": 8011,
      "Ġsector": 8012,
      "ĠMicro": 8013,
      "ĠJimmy": 8014,
      "Ġfirms": 8015,
      "Ġextensive": 8016,
      "ĠLuis": 8017,
      "Ġachieved": 8018,
      "Ġelectronic": 8019,
      "Ġlinks": 8020,
      "ĠCall": 8021,
      "orious": 8022,
      "Ġbrave": 8023,
      "degree": 8024,
      "AF": 8025,
      "Ġneither": 8026,
      "Ġbehalf": 8027,
      "Ġsits": 8028,
      "Ġfarmers": 8029,
      "Ġkilometers": 8030,
      "Ġdiscl": 8031,
      "Ġnick": 8032,
      "Ġshelter": 8033,
      "Ġmand": 8034,
      "ĠAnna": 8035,
      "Ġradical": 8036,
      "Ġkicked": 8037,
      "owered": 8038,
      "ĠScience": 8039,
      "Ġdancing": 8040,
      "Ġsam": 8041,
      "ĠBond": 8042,
      "ĠShanghai": 8043,
      "Ġcompensation": 8044,
      "ĠWenger": 8045,
      "ĠHern": 8046,
      "door": 8047,
      "Ġpron": 8048,
      "Ġunits": 8049,
      "ĠSa": 8050,
      "ĠConnect": 8051,
      "low": 8052,
      "Ġgent": 8053,
      "aying": 8054,
      "Ġcooking": 8055,
      "Ġhits": 8056,
      "ĠPel": 8057,
      "Ġsty": 8058,
      "tery": 8059,
      "ĠHold": 8060,
      "ĠClark": 8061,
      "Ġinvestigated": 8062,
      "Ġwire": 8063,
      "osh": 8064,
      "Ġblank": 8065,
      "Ġtrains": 8066,
      "Ġcolon": 8067,
      "ĠRodgers": 8068,
      "Ġpose": 8069,
      "Well": 8070,
      "ĠThompson": 8071,
      "Ġguest": 8072,
      "don": 8073,
      "Ġinvent": 8074,
      "ĠDave": 8075,
      "Ġpayments": 8076,
      "ĠViet": 8077,
      "Ġministers": 8078,
      "Ġbombing": 8079,
      "case": 8080,
      "Ġdispl": 8081,
      "ĠRub": 8082,
      "ĠAp": 8083,
      "Ġphilos": 8084,
      "Ġrescued": 8085,
      "Ġstrongly": 8086,
      "ĠPen": 8087,
      "children": 8088,
      "ardo": 8089,
      "ĠCIA": 8090,
      "Ġdesert": 8091,
      "ĠLeicester": 8092,
      "Ġwildlife": 8093,
      "Ġtear": 8094,
      "Ġward": 8095,
      "aching": 8096,
      "Ġtackle": 8097,
      "maker": 8098,
      "rical": 8099,
      "ĠYes": 8100,
      "Ġbacteria": 8101,
      "Ġbench": 8102,
      "Ġfing": 8103,
      "ĠThailand": 8104,
      "ĠOthers": 8105,
      "Ġtip": 8106,
      "ĠFal": 8107,
      "ĠSusan": 8108,
      "ĠWright": 8109,
      "ĠEastern": 8110,
      "Ġdrawing": 8111,
      "Ġbranch": 8112,
      "Ġdemanded": 8113,
      "ATO": 8114,
      "Ġremembered": 8115,
      "LA": 8116,
      "Ġlad": 8117,
      "ĠPower": 8118,
      "Ġovernight": 8119,
      "Ġtwenty": 8120,
      "Ġcelebrities": 8121,
      "ĠInt": 8122,
      "Ġoutrage": 8123,
      "Ġlock": 8124,
      "Ġfile": 8125,
      "Ġpackage": 8126,
      "Ġregarding": 8127,
      "Ġinnocent": 8128,
      "ĠPM": 8129,
      "Ġstudio": 8130,
      "Ad": 8131,
      "ĠTechn": 8132,
      "Ġaccommod": 8133,
      "icut": 8134,
      "Ġurban": 8135,
      "Ġcow": 8136,
      "Ġcorruption": 8137,
      "Ġexperim": 8138,
      "Ġexisting": 8139,
      "Ġmut": 8140,
      "ideo": 8141,
      "Ġtypical": 8142,
      "ĠHampshire": 8143,
      "ĠNat": 8144,
      "idelines": 8145,
      "ĠJamie": 8146,
      "Ġcommitment": 8147,
      "Ġreporting": 8148,
      "Ġrepresents": 8149,
      "inois": 8150,
      "ĠBry": 8151,
      "early": 8152,
      "Ġcourage": 8153,
      "ighth": 8154,
      "armed": 8155,
      "ĠJen": 8156,
      "ĠUkrain": 8157,
      "ĠPortugal": 8158,
      "ĠiPad": 8159,
      "oons": 8160,
      "âĢī": 8161,
      "Ġ09": 8162,
      "Ġessential": 8163,
      "ĠAmy": 8164,
      "Ġmood": 8165,
      "ĠMcDonald": 8166,
      "Ġwebsites": 8167,
      "Ġtips": 8168,
      "Ġmel": 8169,
      "ĠEmpire": 8170,
      "ĠAnne": 8171,
      "Ġsuspicion": 8172,
      "ĠKl": 8173,
      "ĠYemen": 8174,
      "Ġbrilliant": 8175,
      "Ġspr": 8176,
      "ilding": 8177,
      "Ġincreases": 8178,
      "Ġdenies": 8179,
      "ĠCampbell": 8180,
      "Ġdispute": 8181,
      "Ġvaluable": 8182,
      "aron": 8183,
      "Ġaccepting": 8184,
      "Ġharass": 8185,
      "Ġcenturies": 8186,
      "Ġcaps": 8187,
      "Ġfarmer": 8188,
      "iece": 8189,
      "Ġmanufactur": 8190,
      "ĠHughes": 8191,
      "ĠHy": 8192,
      "Ġspecialist": 8193,
      "Ġbears": 8194,
      "Ġyards": 8195,
      "Ġcommunications": 8196,
      "Ġcann": 8197,
      "Ġtravelled": 8198,
      "ĠLeeds": 8199,
      "Ġcompetitive": 8200,
      "Ġchampionship": 8201,
      "ĠFive": 8202,
      "Ġinstance": 8203,
      "Ġplea": 8204,
      "Ġbegun": 8205,
      "ĠHull": 8206,
      "Ġtheft": 8207,
      "ĠWim": 8208,
      "Ġwealthy": 8209,
      "ĠServices": 8210,
      "Ġbicy": 8211,
      "ĠNas": 8212,
      "Ġsettlement": 8213,
      "ricane": 8214,
      "Ġzoo": 8215,
      "Ġgest": 8216,
      "Ġtonight": 8217,
      "Ġmulti": 8218,
      "outed": 8219,
      "Ġconstant": 8220,
      "ĠPass": 8221,
      "Ġsoccer": 8222,
      "Ġate": 8223,
      "eping": 8224,
      "ĠZimmer": 8225,
      "ĠGib": 8226,
      "Ġinfected": 8227,
      "Ġposed": 8228,
      "Ġactual": 8229,
      "Ġcrazy": 8230,
      "bal": 8231,
      "eler": 8232,
      "Ġdemanding": 8233,
      "âĢ¦": 8234,
      "ĠFel": 8235,
      "ĠBall": 8236,
      "Ġsolely": 8237,
      "Ġadvised": 8238,
      "ĠLauren": 8239,
      "omy": 8240,
      "Ġreun": 8241,
      "Ġheadquarters": 8242,
      "Ġelement": 8243,
      "31": 8244,
      "ician": 8245,
      "Mar": 8246,
      "uous": 8247,
      "Ġsail": 8248,
      "uting": 8249,
      "burn": 8250,
      "urt": 8251,
      "ĠÂłĠÂłĠÂłĠÂł": 8252,
      "apy": 8253,
      "Ġpump": 8254,
      "Ġselect": 8255,
      "Ġdevastated": 8256,
      "ĠSport": 8257,
      "Ġdelivery": 8258,
      "Ġabused": 8259,
      "Ġcrossing": 8260,
      "Ġclimb": 8261,
      "rell": 8262,
      "ĠBayern": 8263,
      "Ġtouched": 8264,
      "Ġ($": 8265,
      "Ġelsewhere": 8266,
      "Ġprotected": 8267,
      "umes": 8268,
      "ucking": 8269,
      "Ġdetained": 8270,
      "ĠPalestinian": 8271,
      "ygen": 8272,
      "Ġtemporary": 8273,
      "who": 8274,
      "ĠMissouri": 8275,
      "ultural": 8276,
      "Ġelements": 8277,
      "Ġhardly": 8278,
      "Ġconver": 8279,
      "Ġattempting": 8280,
      "Ġregret": 8281,
      "unction": 8282,
      "ĠAdd": 8283,
      "ĠEssex": 8284,
      "Ġtracks": 8285,
      "ogether": 8286,
      "ĠLyn": 8287,
      "Ġske": 8288,
      "Ġdust": 8289,
      "Ġlandsc": 8290,
      "ean": 8291,
      "Ġmanner": 8292,
      "Ġdeals": 8293,
      "otte": 8294,
      "Ġflee": 8295,
      "ĠGov": 8296,
      "Ġeveryday": 8297,
      "Ġ53": 8298,
      "ported": 8299,
      "ĠStew": 8300,
      "Ġwounds": 8301,
      "Ġtoy": 8302,
      "Ġpraised": 8303,
      "Ġentit": 8304,
      "Ġphen": 8305,
      "Ġrocks": 8306,
      "ĠBristol": 8307,
      "Ġrobot": 8308,
      "aved": 8309,
      "ĠTransport": 8310,
      "Ġburgl": 8311,
      "Ġemotion": 8312,
      "ĠDanny": 8313,
      "ami": 8314,
      "cia": 8315,
      "Ġadvanced": 8316,
      "Ġcha": 8317,
      "abs": 8318,
      "ĠPakistani": 8319,
      "bar": 8320,
      "Ġ190": 8321,
      "Ġaffairs": 8322,
      "ĠEdin": 8323,
      "oren": 8324,
      "Ġbat": 8325,
      "certain": 8326,
      "hetic": 8327,
      "ĠProv": 8328,
      "Ġinterviewed": 8329,
      "uated": 8330,
      "Ġpacked": 8331,
      "Ġ07": 8332,
      "Ġtitles": 8333,
      "ĠBrazilian": 8334,
      "Ġdisappearance": 8335,
      "Ġnights": 8336,
      "Ġenorm": 8337,
      "Ġdefending": 8338,
      "Ġcontaining": 8339,
      "Ġmarketing": 8340,
      "ĠLaura": 8341,
      "minster": 8342,
      "Ġboxes": 8343,
      "Ġty": 8344,
      "Ġbutter": 8345,
      "Ġastronaut": 8346,
      "Ġpace": 8347,
      "ĠDad": 8348,
      "Ġdecline": 8349,
      "Ġhanging": 8350,
      "ĠMajor": 8351,
      "ĠAsked": 8352,
      "Ġconstantly": 8353,
      "44": 8354,
      "lete": 8355,
      "ĠStation": 8356,
      "Ġsupermarket": 8357,
      "Ġsaving": 8358,
      "ĠVis": 8359,
      "Ġloyal": 8360,
      "ĠHan": 8361,
      "Ġentering": 8362,
      "aya": 8363,
      "ĠRoll": 8364,
      "Ġmotion": 8365,
      "acement": 8366,
      "Ġstun": 8367,
      "ĠEnd": 8368,
      "Ġalt": 8369,
      "inch": 8370,
      "95": 8371,
      "Ġconvin": 8372,
      "Ġlesson": 8373,
      "Ġchecks": 8374,
      "Ġappointed": 8375,
      "Ġemphas": 8376,
      "ĠFather": 8377,
      "Ġwelcom": 8378,
      "bledon": 8379,
      "ĠStat": 8380,
      "Ġtranspl": 8381,
      "Ġtestimony": 8382,
      "usive": 8383,
      "Ġelev": 8384,
      "Ġopposed": 8385,
      "rene": 8386,
      "Ġexplan": 8387,
      "roit": 8388,
      "Ġtent": 8389,
      "Ġselection": 8390,
      "rystal": 8391,
      "Ġet": 8392,
      "load": 8393,
      "yard": 8394,
      "Ġattached": 8395,
      "Ġlovely": 8396,
      "ĠConnecticut": 8397,
      "Ġsituations": 8398,
      "ĠBan": 8399,
      "OW": 8400,
      "Ġmeetings": 8401,
      "andy": 8402,
      "Ġinnov": 8403,
      "ĠPerry": 8404,
      "Ġconven": 8405,
      "Ġgenetic": 8406,
      "Ġsyn": 8407,
      "def": 8408,
      "Ġcelebration": 8409,
      "Ġplate": 8410,
      "ĠCompany": 8411,
      "Ġ57": 8412,
      "Ġposting": 8413,
      "ĠJustin": 8414,
      "Ġblast": 8415,
      "ĠPolit": 8416,
      "Ġdifficulties": 8417,
      "Ġfeaturing": 8418,
      "ĠQat": 8419,
      "apore": 8420,
      "ĠSunder": 8421,
      "lad": 8422,
      "ĠAut": 8423,
      "ĠIllinois": 8424,
      "Ġbones": 8425,
      "ules": 8426,
      "Ġwinners": 8427,
      "Ġproducer": 8428,
      "ĠEnter": 8429,
      "rets": 8430,
      "ĠĠĠĠĠ": 8431,
      "ĠBrooklyn": 8432,
      "Ġfriendship": 8433,
      "ĠHernandez": 8434,
      "Ġclosing": 8435,
      "Ġchef": 8436,
      "riers": 8437,
      "ĠCommons": 8438,
      "Ġconvinced": 8439,
      "ĠHa": 8440,
      "ĠLt": 8441,
      "Ġdetailed": 8442,
      "ĠSpecial": 8443,
      "ĠNATO": 8444,
      "Ġglasses": 8445,
      "ĠRodrig": 8446,
      "Ġtoilet": 8447,
      "Ġorange": 8448,
      "Ġconspiracy": 8449,
      "izarre": 8450,
      "Ġawards": 8451,
      "uzz": 8452,
      "Ġbombs": 8453,
      "Ġregistered": 8454,
      "Ġunveiled": 8455,
      "Ġnaked": 8456,
      "ĠHunt": 8457,
      "ĠPres": 8458,
      "ĠMarine": 8459,
      "ĠInsp": 8460,
      "LL": 8461,
      "irds": 8462,
      "Ġtechnical": 8463,
      "ĠAff": 8464,
      "Ġhunt": 8465,
      "ĠBlue": 8466,
      "Ġcrucial": 8467,
      "ĠPear": 8468,
      "ĠTrafford": 8469,
      "ierce": 8470,
      "Ġ64": 8471,
      "Ġposts": 8472,
      "Ġbottles": 8473,
      "ĠDub": 8474,
      "raph": 8475,
      "Ġraped": 8476,
      "Ġtheme": 8477,
      "wen": 8478,
      "iture": 8479,
      "ĠCivil": 8480,
      "Ġcourses": 8481,
      "65": 8482,
      "Ġrecognize": 8483,
      "ĠSandy": 8484,
      "ĠOfficials": 8485,
      "die": 8486,
      "Ġdisag": 8487,
      "liest": 8488,
      "aware": 8489,
      "Ġoccasions": 8490,
      "Ġrobbery": 8491,
      "Ġiconic": 8492,
      "Ġbone": 8493,
      "Ġaccompan": 8494,
      "Ġapproval": 8495,
      "Ġentrance": 8496,
      "Ġbullet": 8497,
      "Ġpriority": 8498,
      "ogan": 8499,
      "ĠBusiness": 8500,
      "ĠSunderland": 8501,
      "Ġfurn": 8502,
      "gged": 8503,
      "ando": 8504,
      "Ġvolunteer": 8505,
      "yth": 8506,
      "esh": 8507,
      "itting": 8508,
      "Ġ1950": 8509,
      "ĠVen": 8510,
      "Ġsignificantly": 8511,
      "ĠFur": 8512,
      "Ġnetworks": 8513,
      "Ġpill": 8514,
      "ĠPC": 8515,
      "Ġdestination": 8516,
      "ĠDallas": 8517,
      "Ġglad": 8518,
      "abul": 8519,
      "Ġchecked": 8520,
      "Ġhyd": 8521,
      "ĠBlair": 8522,
      "Ġ06": 8523,
      "Ġexhibition": 8524,
      "istrates": 8525,
      "Ġsafely": 8526,
      "Ġsomewhere": 8527,
      "Ġhorrific": 8528,
      "Ġgender": 8529,
      "Ġupper": 8530,
      "wick": 8531,
      "fortunately": 8532,
      "ĠAbbott": 8533,
      "Ġdefended": 8534,
      "Ġexplo": 8535,
      "Ġ1996": 8536,
      "Ġdiscussion": 8537,
      "Ġemotions": 8538,
      "car": 8539,
      "ĠSorry": 8540,
      "ĠBruce": 8541,
      "ĠMaybe": 8542,
      "orage": 8543,
      "ĠBoard": 8544,
      "Ġtape": 8545,
      "Ġclients": 8546,
      "ĠWimbledon": 8547,
      "Ġsensitive": 8548,
      "Ġapproximately": 8549,
      "Ġattractive": 8550,
      "Ġstable": 8551,
      "bag": 8552,
      "ĠVol": 8553,
      "Ġprepar": 8554,
      "Ġacademic": 8555,
      "ĠEdwards": 8556,
      "Ġ1994": 8557,
      "ĠSwiss": 8558,
      "Ġapology": 8559,
      "Ġstages": 8560,
      "Ġentry": 8561,
      "Ġ911": 8562,
      "Ġcancel": 8563,
      "Ġfalls": 8564,
      "ĠTravel": 8565,
      "Ġcombination": 8566,
      "ĠPerhaps": 8567,
      "Brit": 8568,
      "attered": 8569,
      "rehens": 8570,
      "Ġincredibly": 8571,
      "ĠSwansea": 8572,
      "Ġasleep": 8573,
      "Ġpractices": 8574,
      "wing": 8575,
      "ĠCarter": 8576,
      "Ġiniti": 8577,
      "ĠPhot": 8578,
      "ĠLive": 8579,
      "Ġflow": 8580,
      "roid": 8581,
      "Ne": 8582,
      "Ġmail": 8583,
      "ĠNOT": 8584,
      "Ġtrick": 8585,
      "Ġexpression": 8586,
      "Ġvolcan": 8587,
      "ĠMusic": 8588,
      "inter": 8589,
      "Ġjihad": 8590,
      "ĠFinally": 8591,
      "Ġtoll": 8592,
      "Ġacted": 8593,
      "Ġrepair": 8594,
      "mans": 8595,
      "Ġhiding": 8596,
      "Ġshark": 8597,
      "ĠLin": 8598,
      "ĠRussell": 8599,
      "formation": 8600,
      "Ġmere": 8601,
      "ĠCelt": 8602,
      "Ġdiscussed": 8603,
      "ĠBull": 8604,
      "Ġconstruct": 8605,
      "Ġster": 8606,
      "oration": 8607,
      "ĠEve": 8608,
      "Ġcoat": 8609,
      "ĠChap": 8610,
      "Ġdim": 8611,
      "Ġcos": 8612,
      "Ġracial": 8613,
      "250": 8614,
      "ING": 8615,
      "lings": 8616,
      "Ġoxygen": 8617,
      "Ġ58": 8618,
      "Ġsymp": 8619,
      "Ġdates": 8620,
      "Ġemails": 8621,
      "ĠClegg": 8622,
      "Ġmoral": 8623,
      "ĠHillary": 8624,
      "ĠAdministration": 8625,
      "Ġrepresented": 8626,
      "Ġpets": 8627,
      "ĠStewart": 8628,
      "ĠMicrosoft": 8629,
      "Ġrally": 8630,
      "Ġsilence": 8631,
      "Ġpeaceful": 8632,
      "Ġ600": 8633,
      "uine": 8634,
      "ĠRobin": 8635,
      "oyd": 8636,
      "esity": 8637,
      "Ġthrowing": 8638,
      "Ġaer": 8639,
      "ĠYesterday": 8640,
      "Ġpresenter": 8641,
      "ĠBelgium": 8642,
      "ĠUkrainian": 8643,
      "ureau": 8644,
      "esperson": 8645,
      "dad": 8646,
      "ĠRow": 8647,
      "Ġcycle": 8648,
      "ĠAz": 8649,
      "ĠZimmerman": 8650,
      "Ġupdated": 8651,
      "Ġyes": 8652,
      "ici": 8653,
      "Ġcommander": 8654,
      "ĠHelen": 8655,
      "uer": 8656,
      "ĠDoctors": 8657,
      "Ġoperate": 8658,
      "ĠAlbert": 8659,
      "Ġcurren": 8660,
      "Ġclinic": 8661,
      "Ġacknowledged": 8662,
      "ĠAlaska": 8663,
      "ĠNeil": 8664,
      "Ġcruel": 8665,
      "Ġindeed": 8666,
      "Ġarrests": 8667,
      "Ph": 8668,
      "Ġfame": 8669,
      "Ġaboard": 8670,
      "Ġnurses": 8671,
      "expected": 8672,
      "Ġdyn": 8673,
      "Ġdelighted": 8674,
      "Ġvisible": 8675,
      "Ġburst": 8676,
      "crib": 8677,
      "ras": 8678,
      "Ġcake": 8679,
      "Ġcriminals": 8680,
      "enez": 8681,
      "ĠStudents": 8682,
      "ups": 8683,
      "Ġexecution": 8684,
      "Ġsurvival": 8685,
      "Ġfighter": 8686,
      "ĠBeat": 8687,
      "ĠMom": 8688,
      "Ġ120": 8689,
      "Ġracist": 8690,
      "Ġvit": 8691,
      "aturally": 8692,
      "bi": 8693,
      "Ġrarely": 8694,
      "Ġmad": 8695,
      "Ġspeaks": 8696,
      "Ġrecognized": 8697,
      "giving": 8698,
      "Ġorganized": 8699,
      "hat": 8700,
      "ĠDetroit": 8701,
      "abilities": 8702,
      "Ġpredicted": 8703,
      "Man": 8704,
      "Ġhungry": 8705,
      "ĠLA": 8706,
      "Ġtechniques": 8707,
      "Ġbreaks": 8708,
      "ĠAC": 8709,
      "Ġextent": 8710,
      "Ġsalary": 8711,
      "ĠConservative": 8712,
      "Ġsearched": 8713,
      "Ġperformances": 8714,
      "ĠMunich": 8715,
      "shot": 8716,
      "Ġ250": 8717,
      "Ġprompt": 8718,
      "More": 8719,
      "ĠMitchell": 8720,
      "gow": 8721,
      "Ġanybody": 8722,
      "Ġinterviews": 8723,
      "ipal": 8724,
      "Ġ1995": 8725,
      "ĠClar": 8726,
      "ĠGil": 8727,
      "loaded": 8728,
      "Ġfasc": 8729,
      "ĠGlas": 8730,
      "ĠSingapore": 8731,
      "abama": 8732,
      "breaking": 8733,
      "ĠRoger": 8734,
      "Ġsettled": 8735,
      "Ġbon": 8736,
      "rard": 8737,
      "eals": 8738,
      "Ġpatrol": 8739,
      "Ġ:": 8740,
      "Ġregulations": 8741,
      "Ġcheer": 8742,
      "Ġgrave": 8743,
      "Ġnomin": 8744,
      "Ġoffence": 8745,
      "Ġdecre": 8746,
      "Ġchannel": 8747,
      "Ġvig": 8748,
      "ĠTok": 8749,
      "owa": 8750,
      "obile": 8751,
      "ropolitan": 8752,
      "Ġcalories": 8753,
      "Ġmonitor": 8754,
      "dy": 8755,
      "ja": 8756,
      "Ġimpressed": 8757,
      "ingu": 8758,
      "Ġneur": 8759,
      "Ġrapidly": 8760,
      "ikh": 8761,
      "ĠUtah": 8762,
      "ĠHills": 8763,
      "oded": 8764,
      "Ġdivided": 8765,
      "Ġreforms": 8766,
      "Ġaffiliate": 8767,
      "Ġrif": 8768,
      "Ġaside": 8769,
      "Ġcovering": 8770,
      "ĠConst": 8771,
      "Ġneighbours": 8772,
      "heim": 8773,
      "ĠHawaii": 8774,
      "Ġspac": 8775,
      "ĠAdams": 8776,
      "ĠPlan": 8777,
      "ĠJeremy": 8778,
      "IT": 8779,
      "ĠTem": 8780,
      "acular": 8781,
      "ĠGab": 8782,
      "Ġseed": 8783,
      "Ġinstitutions": 8784,
      "Ġnickn": 8785,
      "Ġgentle": 8786,
      "Ġraces": 8787,
      "Ġemployment": 8788,
      "cott": 8789,
      "ĠFriends": 8790,
      "Ġseasons": 8791,
      "iveness": 8792,
      "Ġhistorical": 8793,
      "uments": 8794,
      "ĠHoward": 8795,
      "Ġconsumer": 8796,
      "iden": 8797,
      "Ġtoler": 8798,
      "ĠWang": 8799,
      "Ġmovements": 8800,
      "iac": 8801,
      "Ass": 8802,
      "Ġsummit": 8803,
      "Ġscreaming": 8804,
      "egr": 8805,
      "Ġdevastating": 8806,
      "Ġmisc": 8807,
      "Ġwarrant": 8808,
      "Ġlicense": 8809,
      "Ġcolleague": 8810,
      "Ġestimates": 8811,
      "OS": 8812,
      "ĠHIV": 8813,
      "Ġpeak": 8814,
      "ĠWoods": 8815,
      "Ġsignal": 8816,
      "oop": 8817,
      "Ġsuggesting": 8818,
      "Ġcelebrating": 8819,
      "uate": 8820,
      "Ġhyp": 8821,
      "Ġmystery": 8822,
      "Ġvessel": 8823,
      "ĠBon": 8824,
      "ĠDick": 8825,
      "Ġpresents": 8826,
      "dale": 8827,
      "Ġwing": 8828,
      "Ġ67": 8829,
      "ĠStoke": 8830,
      "looking": 8831,
      "Ġapps": 8832,
      "bey": 8833,
      "Ġinspiration": 8834,
      "Ġdivision": 8835,
      "oning": 8836,
      "Ġcomedy": 8837,
      "Even": 8838,
      "Ġalert": 8839,
      "rd": 8840,
      "ircle": 8841,
      "rete": 8842,
      "ĠWestminster": 8843,
      "level": 8844,
      "ĠLocal": 8845,
      "inez": 8846,
      "Ġresulting": 8847,
      "ĠBes": 8848,
      "150": 8849,
      "oa": 8850,
      "ĠNad": 8851,
      "Ġrecon": 8852,
      "Ġphysically": 8853,
      "ĠNY": 8854,
      "Ġroles": 8855,
      "ĠDavies": 8856,
      "Ġrh": 8857,
      "Ġideal": 8858,
      "Ġviewed": 8859,
      "Ġroughly": 8860,
      "Ġbrutal": 8861,
      "Ġbusinessman": 8862,
      "zy": 8863,
      "Ġanxiety": 8864,
      "Ġcommentary": 8865,
      "ĠHead": 8866,
      "ĠKurd": 8867,
      "ĠEdinburgh": 8868,
      "rifying": 8869,
      "dis": 8870,
      "ĠBudd": 8871,
      "weet": 8872,
      "Ġowns": 8873,
      "Ġpainted": 8874,
      "Ġsequ": 8875,
      "Ġequival": 8876,
      "ĠWard": 8877,
      "ĠCardiff": 8878,
      "Ġflooding": 8879,
      "ridge": 8880,
      "ĠHodg": 8881,
      "Ġ800": 8882,
      "Ġcricket": 8883,
      "ĠSean": 8884,
      "ĠIb": 8885,
      "Ġchap": 8886,
      "gage": 8887,
      "Ġseparated": 8888,
      "ĠOfficers": 8889,
      "Ġgarage": 8890,
      "Ġcivilian": 8891,
      "Ġremarkable": 8892,
      "Ġstops": 8893,
      "Ġexpecting": 8894,
      "Ġkillings": 8895,
      "Ġparks": 8896,
      "ĠOsborne": 8897,
      "Ġalarm": 8898,
      "berry": 8899,
      "Ġambassador": 8900,
      "ĠLaden": 8901,
      "olve": 8902,
      "rors": 8903,
      "ĠEveryone": 8904,
      "uters": 8905,
      "Ġconvention": 8906,
      "Ġmansion": 8907,
      "Ġcul": 8908,
      "Ġhonour": 8909,
      "ĠLow": 8910,
      "ĠAlabama": 8911,
      "Ġretirement": 8912,
      "Ġtwins": 8913,
      "ĠExperts": 8914,
      "ĠIndepend": 8915,
      "ixture": 8916,
      "rast": 8917,
      "Ġdirty": 8918,
      "ĠPoland": 8919,
      "uman": 8920,
      "Ġdirected": 8921,
      "Ġhosts": 8922,
      "Ġdisturb": 8923,
      "Ġinvolves": 8924,
      "Ġpayment": 8925,
      "ĠBerlin": 8926,
      "Ġcert": 8927,
      "Ġcollapse": 8928,
      "Ġaccompanied": 8929,
      "amber": 8930,
      "Ġopponents": 8931,
      "ĠBC": 8932,
      "cedes": 8933,
      "Ġcrowds": 8934,
      "Ġgrabbed": 8935,
      "ĠAvenue": 8936,
      "Ġfed": 8937,
      "Ġcler": 8938,
      "Ġtherapy": 8939,
      "Ġelim": 8940,
      "Ġpainful": 8941,
      "iller": 8942,
      "Ġdistinct": 8943,
      "endum": 8944,
      "itar": 8945,
      "Ġflash": 8946,
      "Ġguards": 8947,
      "Ġstriking": 8948,
      "Ġbarely": 8949,
      "ĠTower": 8950,
      "ĠBron": 8951,
      "Ġlifted": 8952,
      "Pro": 8953,
      "Ġpetition": 8954,
      "Ġrebu": 8955,
      "Ġadjust": 8956,
      "ĠMohammed": 8957,
      "ĠCos": 8958,
      "Ġspokesperson": 8959,
      "Ob": 8960,
      "ĠBright": 8961,
      "erm": 8962,
      "org": 8963,
      "ĠDur": 8964,
      "Ġphr": 8965,
      "ĠNight": 8966,
      "aws": 8967,
      "Ġpercentage": 8968,
      "Ġcounsel": 8969,
      "Ġindicated": 8970,
      "ĠLl": 8971,
      "Ġselected": 8972,
      "istle": 8973,
      "Ġlowest": 8974,
      "Ġdubbed": 8975,
      "ĠAmanda": 8976,
      "Ġlifetime": 8977,
      "din": 8978,
      "ĠMaryland": 8979,
      "Ġaffects": 8980,
      "Ġnin": 8981,
      "ĠFund": 8982,
      "ĠChancellor": 8983,
      "Ġcitizen": 8984,
      "Today": 8985,
      "Ġdiplomatic": 8986,
      "ĠCuba": 8987,
      "zed": 8988,
      "rett": 8989,
      "Ġunexpected": 8990,
      "Ġfrag": 8991,
      "elve": 8992,
      "ĠGill": 8993,
      "Ġcovers": 8994,
      "ĠGolden": 8995,
      "ndrome": 8996,
      "Ġmemor": 8997,
      "Ġfoundation": 8998,
      "ĠJesus": 8999,
      "ĠPent": 9000,
      "see": 9001,
      "arged": 9002,
      "ĠRodriguez": 9003,
      "Ġminority": 9004,
      "Ġsib": 9005,
      "ĠChoices": 9006,
      "Ġliquid": 9007,
      "Ġtreas": 9008,
      "Ġsubstant": 9009,
      "Ġcited": 9010,
      "ĠHur": 9011,
      "Ġcriticized": 9012,
      "Ġcin": 9013,
      "ĠGlasgow": 9014,
      "Ġreads": 9015,
      "ĠLuke": 9016,
      "Ġsentences": 9017,
      "ĠDeputy": 9018,
      "uay": 9019,
      "Ġtex": 9020,
      "Ġresolution": 9021,
      "Ġtransferred": 9022,
      "aco": 9023,
      "Ġgrateful": 9024,
      "ĠAT": 9025,
      "ĠHarvard": 9026,
      "Ġpurchased": 9027,
      "ĠChild": 9028,
      "Ġrecommended": 9029,
      "gram": 9030,
      "ĠHeath": 9031,
      "Ġrespective": 9032,
      "ĠGerrard": 9033,
      "elle": 9034,
      "Ġencouraging": 9035,
      "Ġunhappy": 9036,
      "Ġblocks": 9037,
      "sk": 9038,
      "Ġexplore": 9039,
      "ĠWinter": 9040,
      "iro": 9041,
      "eck": 9042,
      "Ġprocedures": 9043,
      "Ġsmiling": 9044,
      "upid": 9045,
      "Ġdict": 9046,
      "ĠNether": 9047,
      "US": 9048,
      "ĠTake": 9049,
      "Ġcrossed": 9050,
      "ĠIslands": 9051,
      "Ġshore": 9052,
      "ippi": 9053,
      "izza": 9054,
      "Ġcontrols": 9055,
      "gio": 9056,
      "ructure": 9057,
      "Ġspecifically": 9058,
      "Ġ66": 9059,
      "Ġengineer": 9060,
      "Ġfel": 9061,
      "46": 9062,
      "Ġexposure": 9063,
      "nessee": 9064,
      "Ġerror": 9065,
      "42": 9066,
      "ĠMcK": 9067,
      "Ġcompound": 9068,
      "Ġchallenging": 9069,
      "Ġshouted": 9070,
      "ĠCBS": 9071,
      "ource": 9072,
      "ĠElect": 9073,
      "Ġfilming": 9074,
      "omes": 9075,
      "ulating": 9076,
      "Ġoutcome": 9077,
      "Ġrehab": 9078,
      "Ġafterwards": 9079,
      "ifted": 9080,
      "AC": 9081,
      "aver": 9082,
      "John": 9083,
      "Ġloving": 9084,
      "iatric": 9085,
      "Let": 9086,
      "Ġfixed": 9087,
      "Ġlimits": 9088,
      "Ġcommonly": 9089,
      "Ġkm": 9090,
      "otherapy": 9091,
      "lessly": 9092,
      "Ġannounce": 9093,
      "Ġenormous": 9094,
      "ĠBloom": 9095,
      "da": 9096,
      "Ġsporting": 9097,
      "Ġlone": 9098,
      "Ġblocked": 9099,
      "ums": 9100,
      "Ġperfectly": 9101,
      "uart": 9102,
      "Ġclever": 9103,
      "ĠSecret": 9104,
      "Ġvoting": 9105,
      "ĠLane": 9106,
      "Ġreferee": 9107,
      "Ġdeny": 9108,
      "âĤ": 9109,
      "ĠMargaret": 9110,
      "cest": 9111,
      "bie": 9112,
      "Ġunderground": 9113,
      "***": 9114,
      "Ġjacket": 9115,
      "Ġ05": 9116,
      "Ġfortune": 9117,
      "ĠHaving": 9118,
      "Ġ62": 9119,
      "Ġpartnership": 9120,
      "Ġorganisation": 9121,
      "Ġcamps": 9122,
      "ĠCrist": 9123,
      "Ġcondemned": 9124,
      "Ġpride": 9125,
      "Ġposes": 9126,
      "usal": 9127,
      "Ġpulling": 9128,
      "enh": 9129,
      "Ġrugby": 9130,
      "ĠKenya": 9131,
      "Ġarts": 9132,
      "ĠBrom": 9133,
      "Ġgreatly": 9134,
      "Ġstole": 9135,
      "ships": 9136,
      "ĠHait": 9137,
      "Ġprote": 9138,
      "Ġenemy": 9139,
      "Ġreception": 9140,
      "ĠPrize": 9141,
      "ibet": 9142,
      "ĠDemocrat": 9143,
      "Ġrebel": 9144,
      "thur": 9145,
      "Ġunfair": 9146,
      "Ġcub": 9147,
      "Ġ68": 9148,
      "ione": 9149,
      "ĠCas": 9150,
      "Ġreference": 9151,
      "ĠEth": 9152,
      "ĠChile": 9153,
      "Ġsoul": 9154,
      "Ġveterans": 9155,
      "rolled": 9156,
      "Ġschedule": 9157,
      "Ġrush": 9158,
      "ĠRon": 9159,
      "Ġfingers": 9160,
      "ĠDiv": 9161,
      "ĠNig": 9162,
      "ĠDomin": 9163,
      "bris": 9164,
      "Ġric": 9165,
      "Ġrequests": 9166,
      "Ġdish": 9167,
      "Ġallies": 9168,
      "went": 9169,
      "ĠProsecutors": 9170,
      "Ġcleaning": 9171,
      "ĠDid": 9172,
      "rait": 9173,
      "Ġlav": 9174,
      "cho": 9175,
      "Ġintegr": 9176,
      "Ġreferendum": 9177,
      "rous": 9178,
      "Ġprohib": 9179,
      "Eng": 9180,
      "Ġid": 9181,
      "chi": 9182,
      "ĠHope": 9183,
      "Ġdrone": 9184,
      "ĠLy": 9185,
      "Ġgenuine": 9186,
      "Dav": 9187,
      "Ġtag": 9188,
      "Ġconfront": 9189,
      "atoes": 9190,
      "Ġappearing": 9191,
      "Ġapplications": 9192,
      "ĠRangers": 9193,
      "ĠLeban": 9194,
      "borough": 9195,
      "Ġwreck": 9196,
      "ĠSweden": 9197,
      "Ġ1992": 9198,
      "emed": 9199,
      "Ġdesigns": 9200,
      "Ġobst": 9201,
      "ĠIowa": 9202,
      "Ġcreation": 9203,
      "Ġincor": 9204,
      "Former": 9205,
      "Ġchemicals": 9206,
      ".-": 9207,
      "Ġdescri": 9208,
      "Ġwitnessed": 9209,
      "Ġequivalent": 9210,
      "ĠFerr": 9211,
      "RE": 9212,
      "Ġlocals": 9213,
      "Ġproducing": 9214,
      "wealth": 9215,
      "Ġdowntown": 9216,
      "ĠBad": 9217,
      "abetes": 9218,
      "Ġtox": 9219,
      "ĠTokyo": 9220,
      "Ġobserv": 9221,
      "âĤ¬": 9222,
      "Ġgrandp": 9223,
      "ousands": 9224,
      "Ġwelcomed": 9225,
      "Ġnutrit": 9226,
      "Ġwww": 9227,
      "step": 9228,
      "ĠCeltic": 9229,
      "Ġmour": 9230,
      "ĠAy": 9231,
      "Ġlaughing": 9232,
      "From": 9233,
      "Ġfires": 9234,
      "Ġfiring": 9235,
      "storm": 9236,
      "Ġcheaper": 9237,
      "ĠMartinez": 9238,
      "Ġreferring": 9239,
      "Ġpicking": 9240,
      "Ġholes": 9241,
      "ser": 9242,
      "ĠTam": 9243,
      "ĠCornwall": 9244,
      "there": 9245,
      "Ġfirefighters": 9246,
      "ĠRet": 9247,
      "Ġcousin": 9248,
[...]
